{
  "version": "1.0",
  "truncation": {
    "direction": "Right",
    "max_length": 128,
    "strategy": "LongestFirst",
    "stride": 0
  },
  "padding": {
    "strategy": {
      "Fixed": 128
    },
    "direction": "Right",
    "pad_to_multiple_of": null,
    "pad_id": 0,
    "pad_type_id": 0,
    "pad_token": "[PAD]"
  },
  "added_tokens": [
    {
      "id": 0,
      "content": "[PAD]",
      "single_word": false,
      "lstrip": false,
      "rstrip": false,
      "normalized": false,
      "special": true
    },
    {
      "id": 1,
      "content": "[UNK]",
      "single_word": false,
      "lstrip": false,
      "rstrip": false,
      "normalized": false,
      "special": true
    },
    {
      "id": 2,
      "content": "[CLS]",
      "single_word": false,
      "lstrip": false,
      "rstrip": false,
      "normalized": false,
      "special": true
    },
    {
      "id": 3,
      "content": "[SEP]",
      "single_word": false,
      "lstrip": false,
      "rstrip": false,
      "normalized": false,
      "special": true
    },
    {
      "id": 4,
      "content": "[MASK]",
      "single_word": false,
      "lstrip": false,
      "rstrip": false,
      "normalized": false,
      "special": true
    }
  ],
  "normalizer": {
    "type": "BertNormalizer",
    "clean_text": true,
    "handle_chinese_chars": true,
    "strip_accents": null,
    "lowercase": true
  },
  "pre_tokenizer": {
    "type": "BertPreTokenizer"
  },
  "post_processor": {
    "type": "TemplateProcessing",
    "single": [
      {
        "SpecialToken": {
          "id": "[CLS]",
          "type_id": 0
        }
      },
      {
        "Sequence": {
          "id": "A",
          "type_id": 0
        }
      },
      {
        "SpecialToken": {
          "id": "[SEP]",
          "type_id": 0
        }
      }
    ],
    "pair": [
      {
        "SpecialToken": {
          "id": "[CLS]",
          "type_id": 0
        }
      },
      {
        "Sequence": {
          "id": "A",
          "type_id": 0
        }
      },
      {
        "SpecialToken": {
          "id": "[SEP]",
          "type_id": 0
        }
      },
      {
        "Sequence": {
          "id": "B",
          "type_id": 1
        }
      },
      {
        "SpecialToken": {
          "id": "[SEP]",
          "type_id": 1
        }
      }
    ],
    "special_tokens": {
      "[CLS]": {
        "id": "[CLS]",
        "ids": [
          2
        ],
        "tokens": [
          "[CLS]"
        ]
      },
      "[SEP]": {
        "id": "[SEP]",
        "ids": [
          3
        ],
        "tokens": [
          "[SEP]"
        ]
      }
    }
  },
  "decoder": {
    "type": "WordPiece",
    "prefix": "##",
    "cleanup": true
  },
  "model": {
    "type": "WordPiece",
    "unk_token": "[UNK]",
    "continuing_subword_prefix": "##",
    "max_input_chars_per_word": 100,
    "vocab": {
      "[PAD]": 0,
      "[UNK]": 1,
      "[CLS]": 2,
      "[SEP]": 3,
      "[MASK]": 4,
      "0": 5,
      "1": 6,
      "2": 7,
      "3": 8,
      "4": 9,
      "5": 10,
      "6": 11,
      "7": 12,
      "8": 13,
      "9": 14,
      "a": 15,
      "b": 16,
      "c": 17,
      "d": 18,
      "e": 19,
      "f": 20,
      "g": 21,
      "h": 22,
      "i": 23,
      "j": 24,
      "k": 25,
      "l": 26,
      "m": 27,
      "n": 28,
      "o": 29,
      "p": 30,
      "q": 31,
      "r": 32,
      "s": 33,
      "t": 34,
      "u": 35,
      "v": 36,
      "w": 37,
      "x": 38,
      "y": 39,
      "z": 40,
      "##u": 41,
      "##b": 42,
      "##t": 43,
      "##i": 44,
      "##l": 45,
      "##e": 46,
      "##d": 47,
      "##s": 48,
      "##g": 49,
      "##n": 50,
      "##a": 51,
      "##o": 52,
      "##h": 53,
      "##r": 54,
      "##c": 55,
      "##m": 56,
      "##p": 57,
      "##z": 58,
      "##y": 59,
      "##v": 60,
      "##2": 61,
      "##k": 62,
      "##w": 63,
      "##0": 64,
      "##6": 65,
      "##5": 66,
      "##4": 67,
      "##1": 68,
      "##q": 69,
      "##9": 70,
      "##j": 71,
      "##x": 72,
      "##f": 73,
      "##7": 74,
      "##8": 75,
      "##3": 76,
      "##he": 77,
      "the": 78,
      "##er": 79,
      "##in": 80,
      "##on": 81,
      "##an": 82,
      "##or": 83,
      "##ed": 84,
      "##es": 85,
      "in": 86,
      "##at": 87,
      "##en": 88,
      "##ar": 89,
      "of": 90,
      "##al": 91,
      "an": 92,
      "##it": 93,
      "##as": 94,
      "##is": 95,
      "##ic": 96,
      "and": 97,
      "##rb": 98,
      "##ou": 99,
      "##ing": 100,
      "##re": 101,
      "is": 102,
      "to": 103,
      "##ion": 104,
      "##om": 105,
      "##le": 106,
      "##ent": 107,
      "##am": 108,
      "##il": 109,
      "##st": 110,
      "##el": 111,
      "th": 112,
      "##ro": 113,
      "##ec": 114,
      "##et": 115,
      "st": 116,
      "for": 117,
      "lrb": 118,
      "##ol": 119,
      "rrb": 120,
      "on": 121,
      "was": 122,
      "##ur": 123,
      "##ac": 124,
      "##ot": 125,
      "##ad": 126,
      "##ly": 127,
      "as": 128,
      "##ay": 129,
      "##ir": 130,
      "##iv": 131,
      "it": 132,
      "##ter": 133,
      "##id": 134,
      "19": 135,
      "##ow": 136,
      "re": 137,
      "fr": 138,
      "al": 139,
      "##ation": 140,
      "##ig": 141,
      "##im": 142,
      "##em": 143,
      "##th": 144,
      "##us": 145,
      "##ce": 146,
      "##and": 147,
      "be": 148,
      "##ch": 149,
      "##oun": 150,
      "##ut": 151,
      "##ith": 152,
      "##un": 153,
      "##ers": 154,
      "wh": 155,
      "by": 156,
      "##ul": 157,
      "##00": 158,
      "##ist": 159,
      "with": 160,
      "##her": 161,
      "com": 162,
      "or": 163,
      "he": 164,
      "ch": 165,
      "##ag": 166,
      "##est": 167,
      "##os": 168,
      "##ct": 169,
      "con": 170,
      "un": 171,
      "##all": 172,
      "##art": 173,
      "de": 174,
      "##um": 175,
      "##ain": 176,
      "##ver": 177,
      "at": 178,
      "that": 179,
      "are": 180,
      "##op": 181,
      "##oc": 182,
      "##av": 183,
      "pro": 184,
      "##ity": 185,
      "pl": 186,
      "##ia": 187,
      "se": 188,
      "##ap": 189,
      "##od": 190,
      "from": 191,
      "##ber": 192,
      "##ian": 193,
      "##ies": 194,
      "##ess": 195,
      "##ate": 196,
      "us": 197,
      "##ip": 198,
      "su": 199,
      "en": 200,
      "##ak": 201,
      "##ab": 202,
      "##ich": 203,
      "ne": 204,
      "pr": 205,
      "ar": 206,
      "sp": 207,
      "##if": 208,
      "##ill": 209,
      "his": 210,
      "##ort": 211,
      "##ame": 212,
      "tr": 213,
      "##ant": 214,
      "200": 215,
      "##ard": 216,
      "le": 217,
      "##ld": 218,
      "##ated": 219,
      "##ment": 220,
      "##ud": 221,
      "ex": 222,
      "sh": 223,
      "##ov": 224,
      "##ound": 225,
      "##igh": 226,
      "wor": 227,
      "##ast": 228,
      "comm": 229,
      "which": 230,
      "##ish": 231,
      "##ost": 232,
      "##so": 233,
      "br": 234,
      "##ary": 235,
      "##ie": 236,
      "##gh": 237,
      "##orn": 238,
      "##ally": 239,
      "##ge": 240,
      "##ere": 241,
      "##ell": 242,
      "play": 243,
      "##ear": 244,
      "##ust": 245,
      "##ong": 246,
      "##ther": 247,
      "##ive": 248,
      "##our": 249,
      "##ore": 250,
      "##mer": 251,
      "##se": 252,
      "also": 253,
      "this": 254,
      "not": 255,
      "##ount": 256,
      "##ance": 257,
      "##ect": 258,
      "cl": 259,
      "##pp": 260,
      "##qu": 261,
      "##ine": 262,
      "were": 263,
      "##end": 264,
      "whe": 265,
      "##land": 266,
      "has": 267,
      "te": 268,
      "##own": 269,
      "##ub": 270,
      "af": 271,
      "fir": 272,
      "##ave": 273,
      "gr": 274,
      "##og": 275,
      "##ib": 276,
      "##ical": 277,
      "man": 278,
      "mar": 279,
      "##ome": 280,
      "nor": 281,
      "##ial": 282,
      "##ough": 283,
      "first": 284,
      "comp": 285,
      "##cl": 286,
      "##ates": 287,
      "one": 288,
      "18": 289,
      "ab": 290,
      "##pt": 291,
      "##ight": 292,
      "part": 293,
      "##ass": 294,
      "##ric": 295,
      "can": 296,
      "##age": 297,
      "##ember": 298,
      "ad": 299,
      "##ous": 300,
      "##ond": 301,
      "##ack": 302,
      "##per": 303,
      "##une": 304,
      "its": 305,
      "##ok": 306,
      "##out": 307,
      "##tern": 308,
      "born": 309,
      "##iz": 310,
      "##ue": 311,
      "##der": 312,
      "##ions": 313,
      "##uc": 314,
      "##ited": 315,
      "count": 316,
      "bec": 317,
      "##ure": 318,
      "new": 319,
      "##erm": 320,
      "##ire": 321,
      "##ik": 322,
      "kn": 323,
      "fo": 324,
      "city": 325,
      "ser": 326,
      "sc": 327,
      "tw": 328,
      "all": 329,
      "##ans": 330,
      "who": 331,
      "other": 332,
      "have": 333,
      "int": 334,
      "but": 335,
      "##ang": 336,
      "they": 337,
      "##ide": 338,
      "##ry": 339,
      "cont": 340,
      "##ord": 341,
      "reg": 342,
      "dep": 343,
      "##ey": 344,
      "##pl": 345,
      "##ater": 346,
      "##ball": 347,
      "after": 348,
      "##wn": 349,
      "##cc": 350,
      "rec": 351,
      "##ra": 352,
      "##orm": 353,
      "col": 354,
      "her": 355,
      "##ied": 356,
      "had": 357,
      "go": 358,
      "##ach": 359,
      "##ign": 360,
      "their": 361,
      "##ational": 362,
      "par": 363,
      "foot": 364,
      "cent": 365,
      "year": 366,
      "##ace": 367,
      "united": 368,
      "##ree": 369,
      "sou": 370,
      "res": 371,
      "ind": 372,
      "north": 373,
      "most": 374,
      "##we": 375,
      "##ime": 376,
      "##amp": 377,
      "##fer": 378,
      "fl": 379,
      "##ade": 380,
      "fe": 381,
      "ro": 382,
      "dis": 383,
      "known": 384,
      "##mp": 385,
      "found": 386,
      "##ock": 387,
      "pe": 388,
      "##rop": 389,
      "she": 390,
      "france": 391,
      "football": 392,
      "199": 393,
      "states": 394,
      "car": 395,
      "per": 396,
      "##ult": 397,
      "##ens": 398,
      "used": 399,
      "##hed": 400,
      "may": 401,
      "two": 402,
      "me": 403,
      "##ence": 404,
      "when": 405,
      "##act": 406,
      "##clud": 407,
      "eng": 408,
      "##rit": 409,
      "##ory": 410,
      "bo": 411,
      "form": 412,
      "##ice": 413,
      "co": 414,
      "##ru": 415,
      "##ould": 416,
      "amer": 417,
      "app": 418,
      "commune": 419,
      "americ": 420,
      "sy": 421,
      "includ": 422,
      "ev": 423,
      "##ail": 424,
      "##les": 425,
      "there": 426,
      "depart": 427,
      "198": 428,
      "##ind": 429,
      "world": 430,
      "call": 431,
      "been": 432,
      "department": 433,
      "bl": 434,
      "##ks": 435,
      "ag": 436,
      "##ations": 437,
      "##ile": 438,
      "##ition": 439,
      "loc": 440,
      "197": 441,
      "##ince": 442,
      "##ely": 443,
      "dist": 444,
      "##ug": 445,
      "some": 446,
      "##aw": 447,
      "act": 448,
      "into": 449,
      "gen": 450,
      "des": 451,
      "dec": 452,
      "sec": 453,
      "bet": 454,
      "##ubl": 455,
      "##ased": 456,
      "##ts": 457,
      "##lect": 458,
      "##pr": 459,
      "##te": 460,
      "region": 461,
      "##io": 462,
      "ma": 463,
      "##ral": 464,
      "##ff": 465,
      "##one": 466,
      "ph": 467,
      "county": 468,
      "jo": 469,
      "called": 470,
      "##ons": 471,
      "mus": 472,
      "we": 473,
      "gre": 474,
      "so": 475,
      "mon": 476,
      "##ors": 477,
      "##uring": 478,
      "##aus": 479,
      "##ten": 480,
      "ear": 481,
      "more": 482,
      "##ose": 483,
      "off": 484,
      "many": 485,
      "over": 486,
      "lar": 487,
      "south": 488,
      "##ite": 489,
      "##ward": 490,
      "##old": 491,
      "pop": 492,
      "##ake": 493,
      "##ild": 494,
      "about": 495,
      "made": 496,
      "##gan": 497,
      "time": 498,
      "14": 499,
      "##au": 500,
      "team": 501,
      "out": 502,
      "pre": 503,
      "only": 504,
      "such": 505,
      "up": 506,
      "##ents": 507,
      "national": 508,
      "spec": 509,
      "prov": 510,
      "##ath": 511,
      "pol": 512,
      "##able": 513,
      "##ick": 514,
      "##ix": 515,
      "american": 516,
      "sm": 517,
      "cons": 518,
      "##anc": 519,
      "##ivers": 520,
      "##ase": 521,
      "name": 522,
      "dr": 523,
      "##az": 524,
      "during": 525,
      "ed": 526,
      "peop": 527,
      "player": 528,
      "will": 529,
      "war": 530,
      "pres": 531,
      "##int": 532,
      "po": 533,
      "am": 534,
      "##ween": 535,
      "##ah": 536,
      "##ular": 537,
      "qu": 538,
      "between": 539,
      "##oll": 540,
      "people": 541,
      "##ft": 542,
      "##erman": 543,
      "##vel": 544,
      "fam": 545,
      "do": 546,
      "##ames": 547,
      "196": 548,
      "##urr": 549,
      "##gr": 550,
      "##ings": 551,
      "than": 552,
      "no": 553,
      "char": 554,
      "20": 555,
      "under": 556,
      "mov": 557,
      "cap": 558,
      "##ese": 559,
      "sch": 560,
      "##oth": 561,
      "sub": 562,
      "state": 563,
      "min": 564,
      "bu": 565,
      "num": 566,
      "##eld": 567,
      "##ne": 568,
      "prod": 569,
      "##form": 570,
      "##ays": 571,
      "art": 572,
      "str": 573,
      "##hes": 574,
      "met": 575,
      "##ily": 576,
      "##ict": 577,
      "##urn": 578,
      "##iver": 579,
      "became": 580,
      "##als": 581,
      "17": 582,
      "bel": 583,
      "##ton": 584,
      "where": 585,
      "##ph": 586,
      "serv": 587,
      "work": 588,
      "publ": 589,
      "ac": 590,
      "sing": 591,
      "former": 592,
      "##apan": 593,
      "sa": 594,
      "thr": 595,
      "german": 596,
      "##hip": 597,
      "how": 598,
      "cal": 599,
      "japan": 600,
      "att": 601,
      "##olog": 602,
      "##ane": 603,
      "bro": 604,
      "brit": 605,
      "imp": 606,
      "##hn": 607,
      "years": 608,
      "ass": 609,
      "nov": 610,
      "him": 611,
      "##ike": 612,
      "##enc": 613,
      "##ais": 614,
      "##ep": 615,
      "fin": 616,
      "mat": 617,
      "sw": 618,
      "second": 619,
      "rep": 620,
      "these": 621,
      "main": 622,
      "##ium": 623,
      "##oup": 624,
      "cre": 625,
      "##ics": 626,
      "gu": 627,
      "##ier": 628,
      "sim": 629,
      "##iss": 630,
      "univers": 631,
      "##up": 632,
      "rel": 633,
      "town": 634,
      "acc": 635,
      "three": 636,
      "##ished": 637,
      "##amed": 638,
      "15": 639,
      "##ters": 640,
      "##ious": 641,
      "em": 642,
      "##ually": 643,
      "##ific": 644,
      "ver": 645,
      "aust": 646,
      "la": 647,
      "rele": 648,
      "##stem": 649,
      "##ins": 650,
      "##ason": 651,
      "##ision": 652,
      "them": 653,
      "writ": 654,
      "##vern": 655,
      "gener": 656,
      "##uct": 657,
      "alb": 658,
      "through": 659,
      "##ann": 660,
      "##yp": 661,
      "inst": 662,
      "##ause": 663,
      "use": 664,
      "##ys": 665,
      "rem": 666,
      "195": 667,
      "later": 668,
      "##ood": 669,
      "located": 670,
      "##imes": 671,
      "king": 672,
      "194": 673,
      "would": 674,
      "system": 675,
      "stud": 676,
      "west": 677,
      "then": 678,
      "##ather": 679,
      "distric": 680,
      "16": 681,
      "def": 682,
      "##fore": 683,
      "end": 684,
      "12": 685,
      "##ool": 686,
      "##ork": 687,
      "##ury": 688,
      "dif": 689,
      "##ll": 690,
      "four": 691,
      "ret": 692,
      "well": 693,
      "##ower": 694,
      "music": 695,
      "elect": 696,
      "govern": 697,
      "group": 698,
      "##ating": 699,
      "##ession": 700,
      "mod": 701,
      "fil": 702,
      "series": 703,
      "##ently": 704,
      "##way": 705,
      "##gest": 706,
      "inter": 707,
      "##til": 708,
      "island": 709,
      "show": 710,
      "##ale": 711,
      "record": 712,
      "##ative": 713,
      "while": 714,
      "long": 715,
      "orig": 716,
      "##ern": 717,
      "tem": 718,
      "trans": 719,
      "##lish": 720,
      "##ob": 721,
      "area": 722,
      "##are": 723,
      "##ss": 724,
      "##ollow": 725,
      "aug": 726,
      "common": 727,
      "##ife": 728,
      "##estern": 729,
      "med": 730,
      "##co": 731,
      "number": 732,
      "cr": 733,
      "##ina": 734,
      "##man": 735,
      "small": 736,
      "curr": 737,
      "##ank": 738,
      "##rib": 739,
      "##ont": 740,
      "high": 741,
      "##ual": 742,
      "air": 743,
      "intern": 744,
      "##ement": 745,
      "ju": 746,
      "##its": 747,
      "august": 748,
      "##omet": 749,
      "british": 750,
      "##inc": 751,
      "again": 752,
      "sl": 753,
      "sept": 754,
      "both": 755,
      "im": 756,
      "origin": 757,
      "##atur": 758,
      "start": 759,
      "##iam": 760,
      "before": 761,
      "che": 762,
      "##ains": 763,
      "##irect": 764,
      "district": 765,
      "##iet": 766,
      "##other": 767,
      "##ever": 768,
      "inc": 769,
      "band": 770,
      "##ality": 771,
      "follow": 772,
      "##air": 773,
      "jan": 774,
      "any": 775,
      "##oss": 776,
      "september": 777,
      "since": 778,
      "##ted": 779,
      "##ism": 780,
      "ge": 781,
      "set": 782,
      "##enn": 783,
      "until": 784,
      "because": 785,
      "oct": 786,
      "add": 787,
      "##unic": 788,
      "##velop": 789,
      "##ve": 790,
      "##ley": 791,
      "10": 792,
      "being": 793,
      "##ities": 794,
      "##ague": 795,
      "book": 796,
      "##ject": 797,
      "##ident": 798,
      "##ital": 799,
      "ob": 800,
      "op": 801,
      "champ": 802,
      "if": 803,
      "school": 804,
      "often": 805,
      "season": 806,
      "##ird": 807,
      "song": 808,
      "eu": 809,
      "##ution": 810,
      "university": 811,
      "##ger": 812,
      "##tle": 813,
      "however": 814,
      "maj": 815,
      "direct": 816,
      "sever": 817,
      "##uary": 818,
      "arm": 819,
      "nort": 820,
      "named": 821,
      "played": 822,
      "film": 823,
      "english": 824,
      "game": 825,
      "chr": 826,
      "develop": 827,
      "##ounc": 828,
      "river": 829,
      "near": 830,
      "##ober": 831,
      "differ": 832,
      "##ists": 833,
      "##emb": 834,
      "october": 835,
      "red": 836,
      "album": 837,
      "hist": 838,
      "east": 839,
      "including": 840,
      "##inn": 841,
      "january": 842,
      "class": 843,
      "##ines": 844,
      "##ouse": 845,
      "##und": 846,
      "##xt": 847,
      "major": 848,
      "old": 849,
      "prof": 850,
      "ext": 851,
      "##ived": 852,
      "inv": 853,
      "each": 854,
      "july": 855,
      "##ulation": 856,
      "##red": 857,
      "june": 858,
      "march": 859,
      "lead": 860,
      "offic": 861,
      "typ": 862,
      "league": 863,
      "sur": 864,
      "193": 865,
      "##uss": 866,
      "bar": 867,
      "##sp": 868,
      "released": 869,
      "pers": 870,
      "family": 871,
      "##fl": 872,
      "##ke": 873,
      "var": 874,
      "sign": 875,
      "##oman": 876,
      "lond": 877,
      "organ": 878,
      "##0s": 879,
      "oper": 880,
      "##tain": 881,
      "land": 882,
      "lo": 883,
      "london": 884,
      "several": 885,
      "japanese": 886,
      "##ages": 887,
      "like": 888,
      "mil": 889,
      "##10": 890,
      "same": 891,
      "award": 892,
      "december": 893,
      "val": 894,
      "term": 895,
      "november": 896,
      "john": 897,
      "est": 898,
      "##ient": 899,
      "##che": 900,
      "gl": 901,
      "el": 902,
      "##ized": 903,
      "now": 904,
      "austral": 905,
      "##lev": 906,
      "const": 907,
      "##son": 908,
      "##ae": 909,
      "##ange": 910,
      "own": 911,
      "##ved": 912,
      "mill": 913,
      "apr": 914,
      "##ash": 915,
      "##ruct": 916,
      "best": 917,
      "april": 918,
      "##any": 919,
      "##ially": 920,
      "##unicip": 921,
      "##ants": 922,
      "early": 923,
      "municip": 924,
      "supp": 925,
      "##row": 926,
      "back": 927,
      "##ise": 928,
      "ever": 929,
      "very": 930,
      "##eng": 931,
      "won": 932,
      "div": 933,
      "ann": 934,
      "##ield": 935,
      "##uced": 936,
      "appear": 937,
      "har": 938,
      "giv": 939,
      "##bru": 940,
      "government": 941,
      "id": 942,
      "soc": 943,
      "##rope": 944,
      "great": 945,
      "##angu": 946,
      "##bruary": 947,
      "##ron": 948,
      "##dec": 949,
      "13": 950,
      "february": 951,
      "port": 952,
      "species": 953,
      "192": 954,
      "##ined": 955,
      "##alais": 956,
      "##let": 957,
      "line": 958,
      "ii": 959,
      "11": 960,
      "water": 961,
      "mo": 962,
      "##ropical": 963,
      "##ature": 964,
      "##ink": 965,
      "##ull": 966,
      "2007": 967,
      "##ible": 968,
      "province": 969,
      "##asdec": 970,
      "##asdecalais": 971,
      "##uch": 972,
      "##ri": 973,
      "day": 974,
      "child": 975,
      "europe": 976,
      "design": 977,
      "##els": 978,
      "##ster": 979,
      "##ble": 980,
      "different": 981,
      "open": 982,
      "you": 983,
      "though": 984,
      "##ider": 985,
      "##eter": 986,
      "rail": 987,
      "langu": 988,
      "tit": 989,
      "population": 990,
      "##aking": 991,
      "##ling": 992,
      "century": 993,
      "hum": 994,
      "around": 995,
      "wr": 996,
      "ital": 997,
      "eas": 998,
      "large": 999,
      "rock": 1000,
      "##ilt": 1001,
      "mid": 1002,
      "##urg": 1003,
      "##ross": 1004,
      "lit": 1005,
      "hur": 1006,
      "star": 1007,
      "##elf": 1008,
      "##aph": 1009,
      "president": 1010,
      "##iew": 1011,
      "champions": 1012,
      "hel": 1013,
      "##west": 1014,
      "##hern": 1015,
      "charac": 1016,
      "##000": 1017,
      "##ful": 1018,
      "##ize": 1019,
      "##ench": 1020,
      "bre": 1021,
      "england": 1022,
      "head": 1023,
      "contin": 1024,
      "pass": 1025,
      "##ets": 1026,
      "##ott": 1027,
      "2008": 1028,
      "public": 1029,
      "somet": 1030,
      "last": 1031,
      "##port": 1032,
      "canad": 1033,
      "bas": 1034,
      "northern": 1035,
      "rev": 1036,
      "cor": 1037,
      "##itz": 1038,
      "house": 1039,
      "2006": 1040,
      "international": 1041,
      "##ister": 1042,
      "tre": 1043,
      "##ology": 1044,
      "plays": 1045,
      "##ony": 1046,
      "##ode": 1047,
      "##cept": 1048,
      "occ": 1049,
      "##omin": 1050,
      "desc": 1051,
      "york": 1052,
      "##led": 1053,
      "##aint": 1054,
      "based": 1055,
      "ang": 1056,
      "av": 1057,
      "usually": 1058,
      "refer": 1059,
      "municipality": 1060,
      "center": 1061,
      "word": 1062,
      "##oy": 1063,
      "import": 1064,
      "##gy": 1065,
      "##get": 1066,
      "see": 1067,
      "stand": 1068,
      "25": 1069,
      "alth": 1070,
      "##alt": 1071,
      "##osed": 1072,
      "vers": 1073,
      "##bert": 1074,
      "##ided": 1075,
      "games": 1076,
      "##ired": 1077,
      "although": 1078,
      "sk": 1079,
      "##day": 1080,
      "club": 1081,
      "##hen": 1082,
      "place": 1083,
      "against": 1084,
      "order": 1085,
      "sol": 1086,
      "perform": 1087,
      "began": 1088,
      "profession": 1089,
      "##ows": 1090,
      "##ai": 1091,
      "##ives": 1092,
      "short": 1093,
      "wind": 1094,
      "##br": 1095,
      "##par": 1096,
      "christ": 1097,
      "##uth": 1098,
      "prot": 1099,
      "did": 1100,
      "capital": 1101,
      "ant": 1102,
      "death": 1103,
      "hurric": 1104,
      "##ats": 1105,
      "tour": 1106,
      "along": 1107,
      "##ior": 1108,
      "##ula": 1109,
      "leg": 1110,
      "french": 1111,
      "exp": 1112,
      "just": 1113,
      "championship": 1114,
      "##sh": 1115,
      "power": 1116,
      "mag": 1117,
      "grand": 1118,
      "##akes": 1119,
      "##iod": 1120,
      "list": 1121,
      "ste": 1122,
      "##ales": 1123,
      "my": 1124,
      "##ically": 1125,
      "191": 1126,
      "##ress": 1127,
      "ent": 1128,
      "km": 1129,
      "tropical": 1130,
      "anim": 1131,
      "home": 1132,
      "2000": 1133,
      "##vent": 1134,
      "ep": 1135,
      "##bo": 1136,
      "cy": 1137,
      "##ody": 1138,
      "following": 1139,
      "make": 1140,
      "vill": 1141,
      "##ark": 1142,
      "black": 1143,
      "##ret": 1144,
      "##ene": 1145,
      "polit": 1146,
      "ter": 1147,
      "run": 1148,
      "life": 1149,
      "roman": 1150,
      "ec": 1151,
      "memb": 1152,
      "##iving": 1153,
      "artic": 1154,
      "dem": 1155,
      "##oci": 1156,
      "##ians": 1157,
      "##ator": 1158,
      "storm": 1159,
      "right": 1160,
      "##uck": 1161,
      "##ries": 1162,
      "##ino": 1163,
      "professional": 1164,
      "souther": 1165,
      "another": 1166,
      "##aced": 1167,
      "templ": 1168,
      "bus": 1169,
      "##min": 1170,
      "event": 1171,
      "law": 1172,
      "2009": 1173,
      "company": 1174,
      "said": 1175,
      "mark": 1176,
      "largest": 1177,
      "top": 1178,
      "je": 1179,
      "##ove": 1180,
      "2005": 1181,
      "southern": 1182,
      "associ": 1183,
      "succ": 1184,
      "##ures": 1185,
      "bat": 1186,
      "##ockey": 1187,
      "cond": 1188,
      "central": 1189,
      "##ues": 1190,
      "##ama": 1191,
      "##ogr": 1192,
      "##ained": 1193,
      "##ney": 1194,
      "third": 1195,
      "park": 1196,
      "built": 1197,
      "30": 1198,
      "consider": 1199,
      "much": 1200,
      "even": 1201,
      "##urch": 1202,
      "##ren": 1203,
      "popular": 1204,
      "hockey": 1205,
      "conc": 1206,
      "result": 1207,
      "##ting": 1208,
      "sometimes": 1209,
      "hurricane": 1210,
      "period": 1211,
      "contro": 1212,
      "partic": 1213,
      "##eder": 1214,
      "phil": 1215,
      "million": 1216,
      "single": 1217,
      "include": 1218,
      "telev": 1219,
      "germany": 1220,
      "members": 1221,
      "camp": 1222,
      "pa": 1223,
      "progr": 1224,
      "died": 1225,
      "##dom": 1226,
      "country": 1227,
      "six": 1228,
      "could": 1229,
      "youn": 1230,
      "##istan": 1231,
      "person": 1232,
      "general": 1233,
      "wrest": 1234,
      "##by": 1235,
      "trad": 1236,
      "chang": 1237,
      "bor": 1238,
      "##ified": 1239,
      "##ner": 1240,
      "currently": 1241,
      "rad": 1242,
      "24": 1243,
      "son": 1244,
      "given": 1245,
      "##rod": 1246,
      "##lex": 1247,
      "within": 1248,
      "##erv": 1249,
      "##ius": 1250,
      "pat": 1251,
      "ber": 1252,
      "mount": 1253,
      "ref": 1254,
      "left": 1255,
      "##sc": 1256,
      "television": 1257,
      "resp": 1258,
      "down": 1259,
      "##cess": 1260,
      "product": 1261,
      "geor": 1262,
      "western": 1263,
      "started": 1264,
      "##ute": 1265,
      "station": 1266,
      "build": 1267,
      "net": 1268,
      "spe": 1269,
      "member": 1270,
      "##burg": 1271,
      "##amm": 1272,
      "##na": 1273,
      "counc": 1274,
      "mer": 1275,
      "rece": 1276,
      "da": 1277,
      "still": 1278,
      "published": 1279,
      "##ample": 1280,
      "##app": 1281,
      "written": 1282,
      "##side": 1283,
      "##ides": 1284,
      "##ty": 1285,
      "party": 1286,
      "##augh": 1287,
      "2010": 1288,
      "modern": 1289,
      "success": 1290,
      "ke": 1291,
      "every": 1292,
      "important": 1293,
      "##aving": 1294,
      "##ech": 1295,
      "cour": 1296,
      "del": 1297,
      "##por": 1298,
      "colle": 1299,
      "##ices": 1300,
      "##yn": 1301,
      "cir": 1302,
      "##iqu": 1303,
      "vir": 1304,
      "language": 1305,
      "auth": 1306,
      "cop": 1307,
      "eff": 1308,
      "way": 1309,
      "##res": 1310,
      "those": 1311,
      "cat": 1312,
      "using": 1313,
      "##ief": 1314,
      "##western": 1315,
      "lab": 1316,
      "##ung": 1317,
      "council": 1318,
      "return": 1319,
      "age": 1320,
      "hy": 1321,
      "character": 1322,
      "##ended": 1323,
      "super": 1324,
      "##cover": 1325,
      "kingdom": 1326,
      "help": 1327,
      "enter": 1328,
      "aut": 1329,
      "##ata": 1330,
      "took": 1331,
      "famous": 1332,
      "fre": 1333,
      "held": 1334,
      "sea": 1335,
      "lat": 1336,
      "##ison": 1337,
      "##atic": 1338,
      "created": 1339,
      "equ": 1340,
      "##ler": 1341,
      "##ments": 1342,
      "ir": 1343,
      "##alk": 1344,
      "##ilar": 1345,
      "what": 1346,
      "far": 1347,
      "##ival": 1348,
      "wik": 1349,
      "example": 1350,
      "times": 1351,
      "##ection": 1352,
      "bass": 1353,
      "republ": 1354,
      "five": 1355,
      "history": 1356,
      "vi": 1357,
      "##ert": 1358,
      "rac": 1359,
      "simp": 1360,
      "21": 1361,
      "roy": 1362,
      "australia": 1363,
      "##ued": 1364,
      "win": 1365,
      "flor": 1366,
      "##ces": 1367,
      "##ipp": 1368,
      "##aur": 1369,
      "support": 1370,
      "190": 1371,
      "##pres": 1372,
      "##uk": 1373,
      "23": 1374,
      "live": 1375,
      "##ald": 1376,
      "formed": 1377,
      "similar": 1378,
      "##ract": 1379,
      "rest": 1380,
      "det": 1381,
      "##ense": 1382,
      "eastern": 1383,
      "father": 1384,
      "##ara": 1385,
      "##ively": 1386,
      "arch": 1387,
      "##ility": 1388,
      "republic": 1389,
      "##ena": 1390,
      "cant": 1391,
      "key": 1392,
      "post": 1393,
      "##ille": 1394,
      "repl": 1395,
      "##itzer": 1396,
      "accord": 1397,
      "russ": 1398,
      "##hem": 1399,
      "america": 1400,
      "children": 1401,
      "##ried": 1402,
      "title": 1403,
      "expl": 1404,
      "template": 1405,
      "##edia": 1406,
      "cell": 1407,
      "circ": 1408,
      "22": 1409,
      "william": 1410,
      "become": 1411,
      "hol": 1412,
      "church": 1413,
      "mean": 1414,
      "conf": 1415,
      "afric": 1416,
      "##aster": 1417,
      "2004": 1418,
      "light": 1419,
      "earth": 1420,
      "gir": 1421,
      "coast": 1422,
      "moved": 1423,
      "stat": 1424,
      "ca": 1425,
      "point": 1426,
      "describ": 1427,
      "vis": 1428,
      "##ization": 1429,
      "##ograph": 1430,
      "##ham": 1431,
      "189": 1432,
      "##onom": 1433,
      "##ately": 1434,
      "##osition": 1435,
      "vide": 1436,
      "vol": 1437,
      "##ience": 1438,
      "cult": 1439,
      "discover": 1440,
      "present": 1441,
      "special": 1442,
      "process": 1443,
      "##inning": 1444,
      "hal": 1445,
      "sport": 1446,
      "##ida": 1447,
      "##omen": 1448,
      "princ": 1449,
      "##lin": 1450,
      "original": 1451,
      "requ": 1452,
      "##be": 1453,
      "##ency": 1454,
      "##ars": 1455,
      "produced": 1456,
      "##epend": 1457,
      "pak": 1458,
      "beg": 1459,
      "arr": 1460,
      "mult": 1461,
      "que": 1462,
      "color": 1463,
      "hand": 1464,
      "emp": 1465,
      "##ana": 1466,
      "according": 1467,
      "due": 1468,
      "vict": 1469,
      "among": 1470,
      "care": 1471,
      "author": 1472,
      "stre": 1473,
      "union": 1474,
      "adv": 1475,
      "switzer": 1476,
      "compet": 1477,
      "match": 1478,
      "switzerland": 1479,
      "repres": 1480,
      "commun": 1481,
      "saint": 1482,
      "##yl": 1483,
      "##ories": 1484,
      "##ected": 1485,
      "big": 1486,
      "few": 1487,
      "##aken": 1488,
      "hig": 1489,
      "should": 1490,
      "poss": 1491,
      "##hing": 1492,
      "##ford": 1493,
      "tot": 1494,
      "caus": 1495,
      "white": 1496,
      "##reek": 1497,
      "independ": 1498,
      "college": 1499,
      "##ids": 1500,
      "##azil": 1501,
      "##ax": 1502,
      "let": 1503,
      "mot": 1504,
      "lou": 1505,
      "##echn": 1506,
      "##iple": 1507,
      "##ones": 1508,
      "##ning": 1509,
      "royal": 1510,
      "##ven": 1511,
      "pal": 1512,
      "god": 1513,
      "##ico": 1514,
      "good": 1515,
      "road": 1516,
      "body": 1517,
      "mic": 1518,
      "mass": 1519,
      "##ches": 1520,
      "sit": 1521,
      "##ateg": 1522,
      "countries": 1523,
      "field": 1524,
      "brazil": 1525,
      "official": 1526,
      "26": 1527,
      "##hy": 1528,
      "local": 1529,
      "works": 1530,
      "cer": 1531,
      "estab": 1532,
      "anc": 1533,
      "phys": 1534,
      "##idge": 1535,
      "considered": 1536,
      "mor": 1537,
      "version": 1538,
      "cast": 1539,
      "pakistan": 1540,
      "canton": 1541,
      "##bs": 1542,
      "##aim": 1543,
      "nord": 1544,
      "100": 1545,
      "host": 1546,
      "village": 1547,
      "late": 1548,
      "du": 1549,
      "gold": 1550,
      "sum": 1551,
      "admin": 1552,
      "##ases": 1553,
      "appro": 1554,
      "manag": 1555,
      "turn": 1556,
      "next": 1557,
      "##ms": 1558,
      "video": 1559,
      "##olution": 1560,
      "italian": 1561,
      "##rip": 1562,
      "came": 1563,
      "toget": 1564,
      "together": 1565,
      "bill": 1566,
      "ele": 1567,
      "histor": 1568,
      "##ves": 1569,
      "##unct": 1570,
      "##ural": 1571,
      "allow": 1572,
      "final": 1573,
      "human": 1574,
      "27": 1575,
      "kill": 1576,
      "without": 1577,
      "bur": 1578,
      "pic": 1579,
      "2001": 1580,
      "2003": 1581,
      "##alth": 1582,
      "##ams": 1583,
      "founded": 1584,
      "squ": 1585,
      "##hl": 1586,
      "##work": 1587,
      "##rote": 1588,
      "engine": 1589,
      "attack": 1590,
      "##iction": 1591,
      "service": 1592,
      "report": 1593,
      "pasdecalais": 1594,
      "##aining": 1595,
      "techn": 1596,
      "##hel": 1597,
      "##itions": 1598,
      "28": 1599,
      "##read": 1600,
      "##istr": 1601,
      "tradition": 1602,
      "lim": 1603,
      "deb": 1604,
      "dev": 1605,
      "##omot": 1606,
      "brother": 1607,
      "conn": 1608,
      "sold": 1609,
      "##anish": 1610,
      "less": 1611,
      "prim": 1612,
      "developed": 1613,
      "led": 1614,
      "ra": 1615,
      "living": 1616,
      "##ither": 1617,
      "does": 1618,
      "##ged": 1619,
      "opp": 1620,
      "##ument": 1621,
      "featur": 1622,
      "james": 1623,
      "##ules": 1624,
      "##iety": 1625,
      "ve": 1626,
      "inf": 1627,
      "current": 1628,
      "der": 1629,
      "days": 1630,
      "sal": 1631,
      "northwest": 1632,
      "##eth": 1633,
      "india": 1634,
      "miss": 1635,
      "disc": 1636,
      "wee": 1637,
      "##ards": 1638,
      "er": 1639,
      "page": 1640,
      "fri": 1641,
      "heav": 1642,
      "29": 1643,
      "##ps": 1644,
      "##ought": 1645,
      "base": 1646,
      "ice": 1647,
      "sil": 1648,
      "chem": 1649,
      "role": 1650,
      "green": 1651,
      "young": 1652,
      "prev": 1653,
      "free": 1654,
      "hon": 1655,
      "side": 1656,
      "##ica": 1657,
      "bi": 1658,
      "women": 1659,
      "infl": 1660,
      "ill": 1661,
      "mich": 1662,
      "means": 1663,
      "natur": 1664,
      "pot": 1665,
      "sat": 1666,
      "##uter": 1667,
      "##line": 1668,
      "represent": 1669,
      "inform": 1670,
      "##ects": 1671,
      "##ender": 1672,
      "##gin": 1673,
      "##ared": 1674,
      "friend": 1675,
      "pur": 1676,
      "need": 1677,
      "included": 1678,
      "wrote": 1679,
      "cup": 1680,
      "cle": 1681,
      "##vad": 1682,
      "areas": 1683,
      "sn": 1684,
      "##gen": 1685,
      "formula": 1686,
      "dra": 1687,
      "san": 1688,
      "strong": 1689,
      "low": 1690,
      "categ": 1691,
      "##urb": 1692,
      "islands": 1693,
      "separ": 1694,
      "##itar": 1695,
      "nordp": 1696,
      "went": 1697,
      "##iforn": 1698,
      "dam": 1699,
      "californ": 1700,
      "imm": 1701,
      "nordpasdecalais": 1702,
      "##lo": 1703,
      "atl": 1704,
      "##ences": 1705,
      "get": 1706,
      "served": 1707,
      "incre": 1708,
      "##yle": 1709,
      "read": 1710,
      "non": 1711,
      "##uted": 1712,
      "seat": 1713,
      "level": 1714,
      "##ength": 1715,
      "##ka": 1716,
      "type": 1717,
      "hall": 1718,
      "##ances": 1719,
      "ap": 1720,
      "lake": 1721,
      "epis": 1722,
      "fact": 1723,
      "188": 1724,
      "surv": 1725,
      "##most": 1726,
      "addition": 1727,
      "originally": 1728,
      "administr": 1729,
      "feder": 1730,
      "greek": 1731,
      "california": 1732,
      "ce": 1733,
      "eg": 1734,
      "##berg": 1735,
      "sug": 1736,
      "cro": 1737,
      "men": 1738,
      "##ring": 1739,
      "##me": 1740,
      "secret": 1741,
      "night": 1742,
      "##ergy": 1743,
      "rich": 1744,
      "##cent": 1745,
      "##ma": 1746,
      "oly": 1747,
      "##aine": 1748,
      "having": 1749,
      "olymp": 1750,
      "##ised": 1751,
      "track": 1752,
      "exper": 1753,
      "army": 1754,
      "enc": 1755,
      "##antic": 1756,
      "total": 1757,
      "31": 1758,
      "##ipedia": 1759,
      "186": 1760,
      "particular": 1761,
      "sun": 1762,
      "received": 1763,
      "must": 1764,
      "##ness": 1765,
      "2002": 1766,
      "di": 1767,
      "sour": 1768,
      "cam": 1769,
      "various": 1770,
      "hit": 1771,
      "##ux": 1772,
      "ais": 1773,
      "trib": 1774,
      "today": 1775,
      "month": 1776,
      "scott": 1777,
      "##ee": 1778,
      "george": 1779,
      "##xim": 1780,
      "34": 1781,
      "##arch": 1782,
      "take": 1783,
      "european": 1784,
      "railway": 1785,
      "##ville": 1786,
      "##umb": 1787,
      "1999": 1788,
      "dav": 1789,
      "##ensus": 1790,
      "hard": 1791,
      "pen": 1792,
      "##ounced": 1793,
      "fur": 1794,
      "ins": 1795,
      "##ander": 1796,
      "beh": 1797,
      "association": 1798,
      "##ying": 1799,
      "playing": 1800,
      "##itary": 1801,
      "introd": 1802,
      "##wards": 1803,
      "story": 1804,
      "##oma": 1805,
      "cross": 1806,
      "##ware": 1807,
      "uk": 1808,
      "##ots": 1809,
      "##ced": 1810,
      "187": 1811,
      "collect": 1812,
      "indian": 1813,
      "crit": 1814,
      "civ": 1815,
      "natural": 1816,
      "earl": 1817,
      "##ead": 1818,
      "fa": 1819,
      "making": 1820,
      "project": 1821,
      "comb": 1822,
      "##ape": 1823,
      "real": 1824,
      "exist": 1825,
      "##ript": 1826,
      "##ways": 1827,
      "##osp": 1828,
      "mother": 1829,
      "wat": 1830,
      "##avel": 1831,
      "##ogn": 1832,
      "##to": 1833,
      "aisne": 1834,
      "others": 1835,
      "##ably": 1836,
      "econom": 1837,
      "political": 1838,
      "full": 1839,
      "hen": 1840,
      "names": 1841,
      "##dle": 1842,
      "spanish": 1843,
      "appl": 1844,
      "parts": 1845,
      "produc": 1846,
      "florida": 1847,
      "##af": 1848,
      "picard": 1849,
      "sen": 1850,
      "aff": 1851,
      "##ached": 1852,
      "##ago": 1853,
      "mc": 1854,
      "##aff": 1855,
      "##aces": 1856,
      "##play": 1857,
      "office": 1858,
      "dest": 1859,
      "mal": 1860,
      "##ael": 1861,
      "influ": 1862,
      "grow": 1863,
      "wall": 1864,
      "minister": 1865,
      "either": 1866,
      "energy": 1867,
      "development": 1868,
      "control": 1869,
      "pun": 1870,
      "ren": 1871,
      "wood": 1872,
      "rob": 1873,
      "185": 1874,
      "##ii": 1875,
      "cover": 1876,
      "##de": 1877,
      "edit": 1878,
      "christian": 1879,
      "commonly": 1880,
      "prop": 1881,
      "##ta": 1882,
      "##ored": 1883,
      "sound": 1884,
      "text": 1885,
      "paul": 1886,
      "press": 1887,
      "comple": 1888,
      "never": 1889,
      "includes": 1890,
      "##yr": 1891,
      "scot": 1892,
      "resear": 1893,
      "vot": 1894,
      "wrestling": 1895,
      "division": 1896,
      "##ox": 1897,
      "##esh": 1898,
      "##ican": 1899,
      "##vados": 1900,
      "calvados": 1901,
      "dou": 1902,
      "##lished": 1903,
      "##arn": 1904,
      "mart": 1905,
      "##uce": 1906,
      "plan": 1907,
      "arg": 1908,
      "northwestern": 1909,
      "mex": 1910,
      "ide": 1911,
      "##heast": 1912,
      "empire": 1913,
      "ham": 1914,
      "stad": 1915,
      "##iness": 1916,
      "##ints": 1917,
      "##ament": 1918,
      "territ": 1919,
      "career": 1920,
      "census": 1921,
      "footballer": 1922,
      "indust": 1923,
      "canada": 1924,
      "married": 1925,
      "previous": 1926,
      "little": 1927,
      "food": 1928,
      "ox": 1929,
      "##cer": 1930,
      "ball": 1931,
      "param": 1932,
      "article": 1933,
      "race": 1934,
      "civil": 1935,
      "view": 1936,
      "##ba": 1937,
      "##ulf": 1938,
      "plant": 1939,
      "##ination": 1940,
      "ha": 1941,
      "##uel": 1942,
      "##ano": 1943,
      "##aper": 1944,
      "singer": 1945,
      "instead": 1946,
      "referred": 1947,
      "once": 1948,
      "ten": 1949,
      "belie": 1950,
      "liter": 1951,
      "bay": 1952,
      "sent": 1953,
      "alex": 1954,
      "fire": 1955,
      "##ky": 1956,
      "movie": 1957,
      "##oon": 1958,
      "network": 1959,
      "wikipedia": 1960,
      "esp": 1961,
      "sym": 1962,
      "hor": 1963,
      "##ha": 1964,
      "##vers": 1965,
      "daugh": 1966,
      "soft": 1967,
      "##uit": 1968,
      "##mon": 1969,
      "guitar": 1970,
      "##ule": 1971,
      "broad": 1972,
      "social": 1973,
      "mel": 1974,
      "constit": 1975,
      "canadian": 1976,
      "novel": 1977,
      "fall": 1978,
      "##odes": 1979,
      "mater": 1980,
      "radio": 1981,
      "mac": 1982,
      "##aves": 1983,
      "australian": 1984,
      "conduct": 1985,
      "established": 1986,
      "force": 1987,
      "##gian": 1988,
      "iss": 1989,
      "books": 1990,
      "##andie": 1991,
      "generally": 1992,
      "##ude": 1993,
      "educ": 1994,
      "charles": 1995,
      "stadium": 1996,
      "find": 1997,
      "put": 1998,
      "##ological": 1999,
      "##ened": 2000,
      "parl": 2001,
      "##enorm": 2002,
      "claim": 2003,
      "##pper": 2004,
      "oce": 2005,
      "##ending": 2006,
      "##enormandie": 2007,
      "fem": 2008,
      "object": 2009,
      "bassenormandie": 2010,
      "hot": 2011,
      "##rew": 2012,
      "fif": 2013,
      "wife": 2014,
      "##kl": 2015,
      "##anch": 2016,
      "##aps": 2017,
      "information": 2018,
      "bir": 2019,
      "lin": 2020,
      "test": 2021,
      "##com": 2022,
      "tur": 2023,
      "ba": 2024,
      "##inct": 2025,
      "##owa": 2026,
      "den": 2027,
      "instit": 2028,
      "bank": 2029,
      "seen": 2030,
      "brand": 2031,
      "##ellow": 2032,
      "construct": 2033,
      "half": 2034,
      "changed": 2035,
      "aqu": 2036,
      "middle": 2037,
      "taken": 2038,
      "##ched": 2039,
      "nhl": 2040,
      "invol": 2041,
      "##ators": 2042,
      "##osaur": 2043,
      "##lands": 2044,
      "meaning": 2045,
      "lost": 2046,
      "players": 2047,
      "##ges": 2048,
      "proper": 2049,
      "hill": 2050,
      "li": 2051,
      "los": 2052,
      "##ention": 2053,
      "science": 2054,
      "mem": 2055,
      "sout": 2056,
      "wwe": 2057,
      "##ured": 2058,
      "recogn": 2059,
      "thought": 2060,
      "louis": 2061,
      "iowa": 2062,
      "virgin": 2063,
      "##ivid": 2064,
      "obs": 2065,
      "##11": 2066,
      "battle": 2067,
      "norm": 2068,
      "hold": 2069,
      "##asc": 2070,
      "184": 2071,
      "nick": 2072,
      "##adem": 2073,
      "material": 2074,
      "##iter": 2075,
      "brazilian": 2076,
      "##of": 2077,
      "seven": 2078,
      "##ission": 2079,
      "site": 2080,
      "mont": 2081,
      "across": 2082,
      "coll": 2083,
      "tor": 2084,
      "recorded": 2085,
      "articles": 2086,
      "parliam": 2087,
      "wid": 2088,
      "struct": 2089,
      "individ": 2090,
      "mos": 2091,
      "ancient": 2092,
      "##bers": 2093,
      "##ani": 2094,
      "emper": 2095,
      "almost": 2096,
      "standard": 2097,
      "ur": 2098,
      "##iest": 2099,
      "italy": 2100,
      "##olic": 2101,
      "cycl": 2102,
      "military": 2103,
      "dut": 2104,
      "##etic": 2105,
      "##chest": 2106,
      "metal": 2107,
      "category": 2108,
      "fer": 2109,
      "##hest": 2110,
      "franc": 2111,
      "init": 2112,
      "orchest": 2113,
      "units": 2114,
      "##tt": 2115,
      "##den": 2116,
      "##oint": 2117,
      "blue": 2118,
      "africa": 2119,
      "lower": 2120,
      "actor": 2121,
      "##ional": 2122,
      "activ": 2123,
      "range": 2124,
      "chemical": 2125,
      "director": 2126,
      "##ucle": 2127,
      "scotland": 2128,
      "##kn": 2129,
      "angel": 2130,
      "pet": 2131,
      "round": 2132,
      "##eds": 2133,
      "research": 2134,
      "parliament": 2135,
      "##ops": 2136,
      "minor": 2137,
      "bad": 2138,
      "business": 2139,
      "hom": 2140,
      "##ocr": 2141,
      "##ube": 2142,
      "change": 2143,
      "##oph": 2144,
      "jack": 2145,
      "ze": 2146,
      "building": 2147,
      "look": 2148,
      "fig": 2149,
      "queen": 2150,
      "ast": 2151,
      "pac": 2152,
      "ocean": 2153,
      "front": 2154,
      "exec": 2155,
      "position": 2156,
      "##onde": 2157,
      "academ": 2158,
      "atlantic": 2159,
      "paris": 2160,
      "court": 2161,
      "##here": 2162,
      "tex": 2163,
      "street": 2164,
      "further": 2165,
      "##omb": 2166,
      "worked": 2167,
      "##iec": 2168,
      "pred": 2169,
      "relig": 2170,
      "victor": 2171,
      "et": 2172,
      "hun": 2173,
      "tim": 2174,
      "vo": 2175,
      "##da": 2176,
      "chin": 2177,
      "##que": 2178,
      "doc": 2179,
      "plants": 2180,
      "surf": 2181,
      "##wor": 2182,
      "sports": 2183,
      "funct": 2184,
      "space": 2185,
      "##iation": 2186,
      "ground": 2187,
      "miles": 2188,
      "ident": 2189,
      "##ibr": 2190,
      "defe": 2191,
      "simply": 2192,
      "china": 2193,
      "throughout": 2194,
      "fiction": 2195,
      "##ria": 2196,
      "##empt": 2197,
      "##hi": 2198,
      "##za": 2199,
      "priv": 2200,
      "micro": 2201,
      "cur": 2202,
      "syn": 2203,
      "daughter": 2204,
      "want": 2205,
      "week": 2206,
      "aver": 2207,
      "##erc": 2208,
      "systems": 2209,
      "discovered": 2210,
      "##ope": 2211,
      "below": 2212,
      "##nes": 2213,
      "fort": 2214,
      "gal": 2215,
      "sant": 2216,
      "teams": 2217,
      "points": 2218,
      "treat": 2219,
      "ul": 2220,
      "1998": 2221,
      "gro": 2222,
      "leader": 2223,
      "described": 2224,
      "mad": 2225,
      "sam": 2226,
      "better": 2227,
      "program": 2228,
      "cath": 2229,
      "continued": 2230,
      "eight": 2231,
      "gave": 2232,
      "nt": 2233,
      "announced": 2234,
      "joined": 2235,
      "link": 2236,
      "becom": 2237,
      "jew": 2238,
      "##ya": 2239,
      "appeared": 2240,
      "##ze": 2241,
      "pract": 2242,
      "hour": 2243,
      "study": 2244,
      "organization": 2245,
      "fourth": 2246,
      "away": 2247,
      "robert": 2248,
      "records": 2249,
      "types": 2250,
      "abb": 2251,
      "tom": 2252,
      "electric": 2253,
      "heavy": 2254,
      "orb": 2255,
      "##go": 2256,
      "thus": 2257,
      "proble": 2258,
      "bird": 2259,
      "183": 2260,
      "log": 2261,
      "ta": 2262,
      "grad": 2263,
      "computer": 2264,
      "retired": 2265,
      "racing": 2266,
      "suggest": 2267,
      "##ician": 2268,
      "valley": 2269,
      "animals": 2270,
      "nucle": 2271,
      "##wer": 2272,
      "avail": 2273,
      "wil": 2274,
      "##omp": 2275,
      "related": 2276,
      "espec": 2277,
      "##aker": 2278,
      "above": 2279,
      "services": 2280,
      "kore": 2281,
      "past": 2282,
      "##bc": 2283,
      "emperor": 2284,
      "especially": 2285,
      "50": 2286,
      "uses": 2287,
      "##bor": 2288,
      "##ket": 2289,
      "close": 2290,
      "##gar": 2291,
      "release": 2292,
      "bc": 2293,
      "don": 2294,
      "compos": 2295,
      "airport": 2296,
      "david": 2297,
      "contains": 2298,
      "replaced": 2299,
      "kar": 2300,
      "na": 2301,
      "##field": 2302,
      "travel": 2303,
      "mess": 2304,
      "ol": 2305,
      "##less": 2306,
      "mary": 2307,
      "rain": 2308,
      "songs": 2309,
      "##oid": 2310,
      "itself": 2311,
      "outside": 2312,
      "bal": 2313,
      "##cle": 2314,
      "movement": 2315,
      "ire": 2316,
      "##used": 2317,
      "events": 2318,
      "henry": 2319,
      "##ests": 2320,
      "##ips": 2321,
      "talk": 2322,
      "prize": 2323,
      "meth": 2324,
      "clos": 2325,
      "1997": 2326,
      "viol": 2327,
      "##uated": 2328,
      "least": 2329,
      "size": 2330,
      "##ming": 2331,
      "##ij": 2332,
      "come": 2333,
      "labor": 2334,
      "community": 2335,
      "##self": 2336,
      "##ga": 2337,
      "##ota": 2338,
      "caused": 2339,
      "ho": 2340,
      "##inal": 2341,
      "block": 2342,
      "purp": 2343,
      "available": 2344,
      "ga": 2345,
      "heart": 2346,
      "added": 2347,
      "opened": 2348,
      "##eign": 2349,
      "except": 2350,
      "##hess": 2351,
      "awards": 2352,
      "mostly": 2353,
      "##ification": 2354,
      "independent": 2355,
      "ven": 2356,
      "##19": 2357,
      "##ential": 2358,
      "mix": 2359,
      "say": 2360,
      "working": 2361,
      "highest": 2362,
      "expr": 2363,
      "russian": 2364,
      "nav": 2365,
      "style": 2366,
      "prem": 2367,
      "gironde": 2368,
      "data": 2369,
      "rather": 2370,
      "##itch": 2371,
      "temper": 2372,
      "1996": 2373,
      "entire": 2374,
      "domin": 2375,
      "entertain": 2376,
      "scient": 2377,
      "flag": 2378,
      "##bol": 2379,
      "altern": 2380,
      "jour": 2381,
      "##hire": 2382,
      "select": 2383,
      "southwest": 2384,
      "sex": 2385,
      "upon": 2386,
      "software": 2387,
      "effect": 2388,
      "summer": 2389,
      "introduced": 2390,
      "lic": 2391,
      "stra": 2392,
      "cho": 2393,
      "##sequ": 2394,
      "artist": 2395,
      "production": 2396,
      "successful": 2397,
      "sus": 2398,
      "##edy": 2399,
      "actress": 2400,
      "code": 2401,
      "##clus": 2402,
      "hyd": 2403,
      "cit": 2404,
      "##ari": 2405,
      "mexico": 2406,
      "pacific": 2407,
      "kh": 2408,
      "stage": 2409,
      "prime": 2410,
      "society": 2411,
      "latin": 2412,
      "episode": 2413,
      "dig": 2414,
      "kind": 2415,
      "know": 2416,
      "numbers": 2417,
      "attempt": 2418,
      "kil": 2419,
      "meet": 2420,
      "##ique": 2421,
      "signed": 2422,
      "##ona": 2423,
      "chic": 2424,
      "groups": 2425,
      "ring": 2426,
      "tro": 2427,
      "##itan": 2428,
      "##elling": 2429,
      "signific": 2430,
      "features": 2431,
      "soon": 2432,
      "##bon": 2433,
      "##ca": 2434,
      "##wood": 2435,
      "multiple": 2436,
      "chinese": 2437,
      "jud": 2438,
      "##edi": 2439,
      "##atory": 2440,
      "##apt": 2441,
      "##ua": 2442,
      "##uf": 2443,
      "##cher": 2444,
      "prince": 2445,
      "windows": 2446,
      "##urs": 2447,
      "##0000": 2448,
      "transl": 2449,
      "cities": 2450,
      "##vir": 2451,
      "orchestra": 2452,
      "box": 2453,
      "os": 2454,
      "prob": 2455,
      "specific": 2456,
      "ireland": 2457,
      "fish": 2458,
      "##asons": 2459,
      "distrib": 2460,
      "corn": 2461,
      "ey": 2462,
      "cents": 2463,
      "officially": 2464,
      "##like": 2465,
      "your": 2466,
      "fest": 2467,
      "##view": 2468,
      "##outh": 2469,
      "##ground": 2470,
      "got": 2471,
      "##iers": 2472,
      "##lor": 2473,
      "##ption": 2474,
      "forms": 2475,
      "1981": 2476,
      "length": 2477,
      "##oo": 2478,
      "agre": 2479,
      "himself": 2480,
      "case": 2481,
      "chief": 2482,
      "decl": 2483,
      "##val": 2484,
      "##ush": 2485,
      "##ump": 2486,
      "##tr": 2487,
      "1995": 2488,
      "certain": 2489,
      "rang": 2490,
      "##ression": 2491,
      "theory": 2492,
      "stop": 2493,
      "##ura": 2494,
      "market": 2495,
      "average": 2496,
      "carol": 2497,
      "border": 2498,
      "lines": 2499,
      "chann": 2500,
      "user": 2501,
      "1986": 2502,
      "upper": 2503,
      "returned": 2504,
      "##ris": 2505,
      "##ental": 2506,
      "michael": 2507,
      "regular": 2508,
      "able": 2509,
      "1980": 2510,
      "possible": 2511,
      "40": 2512,
      "rul": 2513,
      "##erson": 2514,
      "champion": 2515,
      "dom": 2516,
      "oil": 2517,
      "##va": 2518,
      "nob": 2519,
      "##abit": 2520,
      "peter": 2521,
      "##writ": 2522,
      "comes": 2523,
      "shows": 2524,
      "words": 2525,
      "performed": 2526,
      "##cy": 2527,
      "love": 2528,
      "rout": 2529,
      "elected": 2530,
      "democr": 2531,
      "##acy": 2532,
      "disney": 2533,
      "ben": 2534,
      "honor": 2535,
      "washing": 2536,
      "studio": 2537,
      "scottish": 2538,
      "ach": 2539,
      "##iro": 2540,
      "##ex": 2541,
      "##fall": 2542,
      "##imate": 2543,
      "eventually": 2544,
      "federal": 2545,
      "method": 2546,
      "lived": 2547,
      "surr": 2548,
      "##ores": 2549,
      "consist": 2550,
      "##idence": 2551,
      "genus": 2552,
      "okl": 2553,
      "pay": 2554,
      "sand": 2555,
      "governor": 2556,
      "##head": 2557,
      "##ites": 2558,
      "asia": 2559,
      "promot": 2560,
      "languages": 2561,
      "cost": 2562,
      "sir": 2563,
      "shar": 2564,
      "rights": 2565,
      "surface": 2566,
      "##heas": 2567,
      "##ested": 2568,
      "iii": 2569,
      "##off": 2570,
      "##ck": 2571,
      "1994": 2572,
      "##known": 2573,
      "happ": 2574,
      "##erous": 2575,
      "##ask": 2576,
      "##oms": 2577,
      "muse": 2578,
      "diff": 2579,
      "oklah": 2580,
      "rh": 2581,
      "beginning": 2582,
      "nar": 2583,
      "sem": 2584,
      "1979": 2585,
      "cry": 2586,
      "lord": 2587,
      "secretary": 2588,
      "pays": 2589,
      "##aged": 2590,
      "1974": 2591,
      "##utes": 2592,
      "designed": 2593,
      "duke": 2594,
      "unit": 2595,
      "square": 2596,
      "oklahoma": 2597,
      "mountain": 2598,
      "dark": 2599,
      "might": 2600,
      "plat": 2601,
      "capt": 2602,
      "princip": 2603,
      "months": 2604,
      "cab": 2605,
      "##ls": 2606,
      "frank": 2607,
      "spir": 2608,
      "transport": 2609,
      "traditional": 2610,
      "fut": 2611,
      "##50": 2612,
      "magaz": 2613,
      "##sel": 2614,
      "1982": 2615,
      "cele": 2616,
      "entertainment": 2617,
      "##lim": 2618,
      "meas": 2619,
      "wild": 2620,
      "##for": 2621,
      "forces": 2622,
      "news": 2623,
      "berlin": 2624,
      "makes": 2625,
      "conserv": 2626,
      "killed": 2627,
      "##har": 2628,
      "1990": 2629,
      "chart": 2630,
      "model": 2631,
      "lot": 2632,
      "table": 2633,
      "##mar": 2634,
      "pan": 2635,
      "voc": 2636,
      "anal": 2637,
      "##itive": 2638,
      "##ems": 2639,
      "followed": 2640,
      "washington": 2641,
      "thom": 2642,
      "##cast": 2643,
      "whose": 2644,
      "museum": 2645,
      "here": 2646,
      "##itted": 2647,
      "approxim": 2648,
      "catholic": 2649,
      "lay": 2650,
      "##ements": 2651,
      "182": 2652,
      "conv": 2653,
      "step": 2654,
      "source": 2655,
      "ly": 2656,
      "ps": 2657,
      "##la": 2658,
      "media": 2659,
      "luc": 2660,
      "tar": 2661,
      "phot": 2662,
      "larger": 2663,
      "writer": 2664,
      "leading": 2665,
      "##heastern": 2666,
      "1993": 2667,
      "relations": 2668,
      "baseball": 2669,
      "fight": 2670,
      "piec": 2671,
      "britain": 2672,
      "characters": 2673,
      "armen": 2674,
      "loire": 2675,
      "##att": 2676,
      "##mph": 2677,
      "subject": 2678,
      "##gs": 2679,
      "too": 2680,
      "swed": 2681,
      "dar": 2682,
      "rank": 2683,
      "quick": 2684,
      "kent": 2685,
      "##oka": 2686,
      "respons": 2687,
      "burn": 2688,
      "gar": 2689,
      "raw": 2690,
      "##esc": 2691,
      "symbol": 2692,
      "fail": 2693,
      "territory": 2694,
      "virginia": 2695,
      "date": 2696,
      "dyn": 2697,
      "lad": 2698,
      "##tic": 2699,
      "deg": 2700,
      "arab": 2701,
      "smaller": 2702,
      "terms": 2703,
      "##olf": 2704,
      "1992": 2705,
      "##rect": 2706,
      "react": 2707,
      "180": 2708,
      "1976": 2709,
      "mathem": 2710,
      "1983": 2711,
      "doct": 2712,
      "card": 2713,
      "##ropol": 2714,
      "police": 2715,
      "##arily": 2716,
      "gard": 2717,
      "cells": 2718,
      "##itaine": 2719,
      "##icated": 2720,
      "aquitaine": 2721,
      "mach": 2722,
      "users": 2723,
      "bridge": 2724,
      "significant": 2725,
      "##ery": 2726,
      "opera": 2727,
      "##avor": 2728,
      "prix": 2729,
      "##lam": 2730,
      "##ini": 2731,
      "envir": 2732,
      "1984": 2733,
      "##ography": 2734,
      "appoint": 2735,
      "internet": 2736,
      "##utions": 2737,
      "colon": 2738,
      "winter": 2739,
      "jose": 2740,
      "divided": 2741,
      "borough": 2742,
      "##ita": 2743,
      "sequ": 2744,
      "##enced": 2745,
      "awarded": 2746,
      "bac": 2747,
      "mur": 2748,
      "reached": 2749,
      "display": 2750,
      "##van": 2751,
      "separate": 2752,
      "pow": 2753,
      "##ils": 2754,
      "exam": 2755,
      "1985": 2756,
      "reported": 2757,
      "education": 2758,
      "birth": 2759,
      "fac": 2760,
      "rap": 2761,
      "saw": 2762,
      "web": 2763,
      "belgian": 2764,
      "van": 2765,
      "##ki": 2766,
      "##essor": 2767,
      "compound": 2768,
      "magn": 2769,
      "contrib": 2770,
      "lu": 2771,
      "##ste": 2772,
      "money": 2773,
      "chess": 2774,
      "##idae": 2775,
      "##ecture": 2776,
      "beat": 2777,
      "##ference": 2778,
      "starting": 2779,
      "keep": 2780,
      "pict": 2781,
      "##enth": 2782,
      "chall": 2783,
      "accept": 2784,
      "dutch": 2785,
      "##ett": 2786,
      "texas": 2787,
      "environ": 2788,
      "native": 2789,
      "1970": 2790,
      "festival": 2791,
      "bab": 2792,
      "##iff": 2793,
      "##bour": 2794,
      "mainly": 2795,
      "calend": 2796,
      "document": 2797,
      "fle": 2798,
      "##ream": 2799,
      "richard": 2800,
      "aud": 2801,
      "ple": 2802,
      "wales": 2803,
      "polic": 2804,
      "##gypt": 2805,
      "1975": 2806,
      "1977": 2807,
      "desp": 2808,
      "celebr": 2809,
      "nec": 2810,
      "section": 2811,
      "##roy": 2812,
      "##igr": 2813,
      "##oviet": 2814,
      "1987": 2815,
      "performance": 2816,
      "express": 2817,
      "tell": 2818,
      "1978": 2819,
      "sax": 2820,
      "##ering": 2821,
      "1991": 2822,
      "thomas": 2823,
      "##ef": 2824,
      "##ensive": 2825,
      "brown": 2826,
      "academy": 2827,
      "##ror": 2828,
      "##wa": 2829,
      "instr": 2830,
      "##rian": 2831,
      "ess": 2832,
      "##endo": 2833,
      "##raft": 2834,
      "boy": 2835,
      "1973": 2836,
      "##ili": 2837,
      "archit": 2838,
      "##agon": 2839,
      "decided": 2840,
      "##iding": 2841,
      "african": 2842,
      "rais": 2843,
      "##ima": 2844,
      "placed": 2845,
      "blood": 2846,
      "1972": 2847,
      "remained": 2848,
      "turk": 2849,
      "takes": 2850,
      "break": 2851,
      "chicago": 2852,
      "hous": 2853,
      "##down": 2854,
      "##aries": 2855,
      "thre": 2856,
      "constitution": 2857,
      "##echan": 2858,
      "debut": 2859,
      "ae": 2860,
      "egypt": 2861,
      "##ends": 2862,
      "create": 2863,
      "towns": 2864,
      "philos": 2865,
      "bud": 2866,
      "cut": 2867,
      "commerc": 2868,
      "##aching": 2869,
      "greater": 2870,
      "approximately": 2871,
      "tal": 2872,
      "##olk": 2873,
      "students": 2874,
      "1989": 2875,
      "poet": 2876,
      "dog": 2877,
      "tree": 2878,
      "##wide": 2879,
      "1969": 2880,
      "dead": 2881,
      "1967": 2882,
      "mountains": 2883,
      "##amb": 2884,
      "##utive": 2885,
      "##iano": 2886,
      "behind": 2887,
      "nation": 2888,
      "soviet": 2889,
      "##eral": 2890,
      "ask": 2891,
      "##shire": 2892,
      "beach": 2893,
      "libr": 2894,
      "##reg": 2895,
      "southwestern": 2896,
      "tourn": 2897,
      "pressure": 2898,
      "private": 2899,
      "elev": 2900,
      "##isc": 2901,
      "always": 2902,
      "writing": 2903,
      "extre": 2904,
      "culture": 2905,
      "friends": 2906,
      "channel": 2907,
      "regard": 2908,
      "move": 2909,
      "changes": 2910,
      "refers": 2911,
      "##nal": 2912,
      "##ising": 2913,
      "shown": 2914,
      "mario": 2915,
      "flow": 2916,
      "peace": 2917,
      "health": 2918,
      "##put": 2919,
      "subst": 2920,
      "applic": 2921,
      "ka": 2922,
      "spain": 2923,
      "metropol": 2924,
      "revolution": 2925,
      "female": 2926,
      "give": 2927,
      "mechan": 2928,
      "##anded": 2929,
      "draft": 2930,
      "amount": 2931,
      "higher": 2932,
      "calendar": 2933,
      "##ume": 2934,
      "frequ": 2935,
      "es": 2936,
      "hydro": 2937,
      "cause": 2938,
      "il": 2939,
      "nations": 2940,
      "##men": 2941,
      "associated": 2942,
      "1971": 2943,
      "speed": 2944,
      "ban": 2945,
      "pit": 2946,
      "##stand": 2947,
      "individual": 2948,
      "achie": 2949,
      "magazine": 2950,
      "##uments": 2951,
      "##iant": 2952,
      "longer": 2953,
      "dise": 2954,
      "board": 2955,
      "directly": 2956,
      "nint": 2957,
      "woman": 2958,
      "##hold": 2959,
      "##ola": 2960,
      "active": 2961,
      "ended": 2962,
      "##ym": 2963,
      "179": 2964,
      "jun": 2965,
      "##enna": 2966,
      "animal": 2967,
      "letter": 2968,
      "angeles": 2969,
      "##erved": 2970,
      "1988": 2971,
      "widely": 2972,
      "rule": 2973,
      "inh": 2974,
      "depression": 2975,
      "rome": 2976,
      "##ify": 2977,
      "##awa": 2978,
      "winds": 2979,
      "##ote": 2980,
      "##inson": 2981,
      "surround": 2982,
      "nintendo": 2983,
      "ic": 2984,
      "##rial": 2985,
      "belong": 2986,
      "image": 2987,
      "politician": 2988,
      "dro": 2989,
      "typically": 2990,
      "bell": 2991,
      "##12": 2992,
      "cold": 2993,
      "despite": 2994,
      "rom": 2995,
      "##ario": 2996,
      "offer": 2997,
      "##itude": 2998,
      "##hers": 2999,
      "spl": 3000,
      "quest": 3001,
      "impro": 3002,
      "visit": 3003,
      "bound": 3004,
      "manager": 3005,
      "ros": 3006,
      "sar": 3007,
      "winn": 3008,
      "election": 3009,
      "respect": 3010,
      "picardy": 3011,
      "nuclear": 3012,
      "esc": 3013,
      "rod": 3014,
      "##aut": 3015,
      "##atively": 3016,
      "paral": 3017,
      "distance": 3018,
      "francis": 3019,
      "remains": 3020,
      "particularly": 3021,
      "##ero": 3022,
      "##airs": 3023,
      "martin": 3024,
      "##ingu": 3025,
      "abs": 3026,
      "twent": 3027,
      "gas": 3028,
      "roll": 3029,
      "action": 3030,
      "##onic": 3031,
      "##str": 3032,
      "wal": 3033,
      "trade": 3034,
      "compan": 3035,
      "estim": 3036,
      "occup": 3037,
      "lik": 3038,
      "nine": 3039,
      "nature": 3040,
      "##win": 3041,
      "victoria": 3042,
      "mir": 3043,
      "pos": 3044,
      "stock": 3045,
      "stone": 3046,
      "##orial": 3047,
      "##ato": 3048,
      "##ples": 3049,
      "disp": 3050,
      "distinct": 3051,
      "driver": 3052,
      "autom": 3053,
      "##igned": 3054,
      "remov": 3055,
      "pain": 3056,
      "##gor": 3057,
      "##cules": 3058,
      "nomin": 3059,
      "ath": 3060,
      "aster": 3061,
      "commit": 3062,
      "newsp": 3063,
      "musical": 3064,
      "foc": 3065,
      "##ocol": 3066,
      "##writer": 3067,
      "environment": 3068,
      "winning": 3069,
      "##uation": 3070,
      "things": 3071,
      "neg": 3072,
      "future": 3073,
      "limited": 3074,
      "chap": 3075,
      "convent": 3076,
      "complex": 3077,
      "connect": 3078,
      "jes": 3079,
      "##aland": 3080,
      "invest": 3081,
      "moon": 3082,
      "explor": 3083,
      "motor": 3084,
      "##ios": 3085,
      "##med": 3086,
      "##ving": 3087,
      "reb": 3088,
      "##ansas": 3089,
      "contain": 3090,
      "##hedral": 3091,
      "passed": 3092,
      "##ja": 3093,
      "##istic": 3094,
      "hours": 3095,
      "##ych": 3096,
      "nobel": 3097,
      "arts": 3098,
      "cook": 3099,
      "russia": 3100,
      "fair": 3101,
      "wing": 3102,
      "diam": 3103,
      "earlier": 3104,
      "our": 3105,
      "saf": 3106,
      "stars": 3107,
      "ut": 3108,
      "##abeth": 3109,
      "##ucky": 3110,
      "##60": 3111,
      "note": 3112,
      "fame": 3113,
      "##urity": 3114,
      "older": 3115,
      "##board": 3116,
      "##ws": 3117,
      "##ala": 3118,
      "contract": 3119,
      "cand": 3120,
      "brought": 3121,
      "subsequ": 3122,
      "oldest": 3123,
      "kilomet": 3124,
      "##ufact": 3125,
      "metropolitan": 3126,
      "romania": 3127,
      "allowed": 3128,
      "administrative": 3129,
      "bul": 3130,
      "parameter": 3131,
      "##ole": 3132,
      "true": 3133,
      "adop": 3134,
      "feature": 3135,
      "sister": 3136,
      "##ston": 3137,
      "deep": 3138,
      "calc": 3139,
      "laun": 3140,
      "schools": 3141,
      "fund": 3142,
      "jer": 3143,
      "concept": 3144,
      "cathedral": 3145,
      "##can": 3146,
      "##ades": 3147,
      "access": 3148,
      "cust": 3149,
      "emer": 3150,
      "done": 3151,
      "manufact": 3152,
      "structure": 3153,
      "##chester": 3154,
      "forest": 3155,
      "drum": 3156,
      "edward": 3157,
      "acid": 3158,
      "illino": 3159,
      "function": 3160,
      "alab": 3161,
      "##ands": 3162,
      "seasons": 3163,
      "consists": 3164,
      "##gress": 3165,
      "films": 3166,
      "##asion": 3167,
      "##icult": 3168,
      "##stone": 3169,
      "controll": 3170,
      "observ": 3171,
      "32": 3172,
      "cas": 3173,
      "##my": 3174,
      "##unk": 3175,
      "whole": 3176,
      "destroy": 3177,
      "illinois": 3178,
      "wide": 3179,
      "empl": 3180,
      "##uction": 3181,
      "master": 3182,
      "stan": 3183,
      "##istry": 3184,
      "35": 3185,
      "enough": 3186,
      "commercial": 3187,
      "train": 3188,
      "recent": 3189,
      "glob": 3190,
      "basket": 3191,
      "believed": 3192,
      "fifth": 3193,
      "becoming": 3194,
      "composer": 3195,
      "operating": 3196,
      "featured": 3197,
      "bbc": 3198,
      "owned": 3199,
      "buildings": 3200,
      "poka": 3201,
      "##atives": 3202,
      "##reen": 3203,
      "towards": 3204,
      "branch": 3205,
      "appears": 3206,
      "az": 3207,
      "pages": 3208,
      "yellow": 3209,
      "##oud": 3210,
      "foreign": 3211,
      "corpor": 3212,
      "medic": 3213,
      "##box": 3214,
      "competition": 3215,
      "elements": 3216,
      "previously": 3217,
      "carolina": 3218,
      "##oe": 3219,
      "##alp": 3220,
      "##selves": 3221,
      "eth": 3222,
      "hund": 3223,
      "##leg": 3224,
      "themselves": 3225,
      "professor": 3226,
      "household": 3227,
      "bon": 3228,
      "ran": 3229,
      "rules": 3230,
      "##ado": 3231,
      "damage": 3232,
      "probably": 3233,
      "bow": 3234,
      "foss": 3235,
      "carbon": 3236,
      "electr": 3237,
      "philosop": 3238,
      "pu": 3239,
      "paint": 3240,
      "##enne": 3241,
      "##ava": 3242,
      "primary": 3243,
      "recognized": 3244,
      "inn": 3245,
      "rat": 3246,
      "##over": 3247,
      "##ceed": 3248,
      "spring": 3249,
      "wars": 3250,
      "##the": 3251,
      "diss": 3252,
      "finally": 3253,
      "independence": 3254,
      "planet": 3255,
      "alabama": 3256,
      "jup": 3257,
      "peak": 3258,
      "studied": 3259,
      "jul": 3260,
      "##iment": 3261,
      "myth": 3262,
      "industry": 3263,
      "##well": 3264,
      "albert": 3265,
      "lee": 3266,
      "evolution": 3267,
      "##teen": 3268,
      "provinc": 3269,
      "emb": 3270,
      "cred": 3271,
      "##inet": 3272,
      "##asing": 3273,
      "prior": 3274,
      "formerly": 3275,
      "hu": 3276,
      "wa": 3277,
      "##don": 3278,
      "##och": 3279,
      "##zo": 3280,
      "##gn": 3281,
      "##ora": 3282,
      "stated": 3283,
      "1968": 3284,
      "##ready": 3285,
      "opt": 3286,
      "via": 3287,
      "##anz": 3288,
      "##ounter": 3289,
      "columb": 3290,
      "olympic": 3291,
      "mas": 3292,
      "##bur": 3293,
      "conver": 3294,
      "spent": 3295,
      "adm": 3296,
      "physical": 3297,
      "urb": 3298,
      "directed": 3299,
      "jupiter": 3300,
      "prec": 3301,
      "georg": 3302,
      "joseph": 3303,
      "60": 3304,
      "tag": 3305,
      "flood": 3306,
      "20th": 3307,
      "concert": 3308,
      "status": 3309,
      "picardie": 3310,
      "relationship": 3311,
      "hundred": 3312,
      "inside": 3313,
      "complet": 3314,
      "muslim": 3315,
      "account": 3316,
      "medical": 3317,
      "producer": 3318,
      "mu": 3319,
      "security": 3320,
      "##ights": 3321,
      "quickly": 3322,
      "##stein": 3323,
      "haw": 3324,
      "##sen": 3325,
      "already": 3326,
      "##obile": 3327,
      "review": 3328,
      "astron": 3329,
      "aar": 3330,
      "naz": 3331,
      "whom": 3332,
      "adult": 3333,
      "occurr": 3334,
      "premier": 3335,
      "##ulated": 3336,
      "composed": 3337,
      "slow": 3338,
      "institute": 3339,
      "##ining": 3340,
      "stations": 3341,
      "##thing": 3342,
      "harry": 3343,
      "appointed": 3344,
      "taking": 3345,
      "##oles": 3346,
      "places": 3347,
      "webs": 3348,
      "library": 3349,
      "##hib": 3350,
      "##itt": 3351,
      "spok": 3352,
      "##illa": 3353,
      "parish": 3354,
      "bern": 3355,
      "tenn": 3356,
      "commission": 3357,
      "gene": 3358,
      "northeast": 3359,
      "nearly": 3360,
      "value": 3361,
      "label": 3362,
      "golden": 3363,
      "idea": 3364,
      "difficult": 3365,
      "von": 3366,
      "locomot": 3367,
      "##ologist": 3368,
      "finished": 3369,
      "annual": 3370,
      "500": 3371,
      "perm": 3372,
      "tv": 3373,
      "clear": 3374,
      "ty": 3375,
      "insp": 3376,
      "##ires": 3377,
      "##ails": 3378,
      "provide": 3379,
      "lies": 3380,
      "districts": 3381,
      "trees": 3382,
      "problems": 3383,
      "##ros": 3384,
      "indic": 3385,
      "produce": 3386,
      "manchester": 3387,
      "required": 3388,
      "iron": 3389,
      "##era": 3390,
      "##aka": 3391,
      "prison": 3392,
      "ship": 3393,
      "regions": 3394,
      "situated": 3395,
      "silver": 3396,
      "penins": 3397,
      "complete": 3398,
      "journal": 3399,
      "kentucky": 3400,
      "cases": 3401,
      "##year": 3402,
      "assemb": 3403,
      "broadcast": 3404,
      "southeast": 3405,
      "##gu": 3406,
      "##orpor": 3407,
      "interest": 3408,
      "basketball": 3409,
      "cub": 3410,
      "##umn": 3411,
      "arn": 3412,
      "edition": 3413,
      "economic": 3414,
      "tournament": 3415,
      "##rich": 3416,
      "2011": 3417,
      "completed": 3418,
      "construction": 3419,
      "die": 3420,
      "fc": 3421,
      "alph": 3422,
      "##uses": 3423,
      "alexander": 3424,
      "lif": 3425,
      "##ada": 3426,
      "##anned": 3427,
      "dynast": 3428,
      "hind": 3429,
      "##iel": 3430,
      "##ager": 3431,
      "committe": 3432,
      "##oor": 3433,
      "running": 3434,
      "nickn": 3435,
      "##enge": 3436,
      "simple": 3437,
      "mathemat": 3438,
      "ax": 3439,
      "gulf": 3440,
      "jr": 3441,
      "##unn": 3442,
      "location": 3443,
      "##riage": 3444,
      "irish": 3445,
      "##ilities": 3446,
      "element": 3447,
      "181": 3448,
      "determ": 3449,
      "sac": 3450,
      "##back": 3451,
      "##illy": 3452,
      "stories": 3453,
      "search": 3454,
      "177": 3455,
      "tax": 3456,
      "##pre": 3457,
      "##ability": 3458,
      "provided": 3459,
      "quar": 3460,
      "assist": 3461,
      "gall": 3462,
      "ie": 3463,
      "paper": 3464,
      "##aign": 3465,
      "appearance": 3466,
      "eat": 3467,
      "attract": 3468,
      "rot": 3469,
      "weather": 3470,
      "helped": 3471,
      "sav": 3472,
      "##20": 3473,
      "19th": 3474,
      "##quar": 3475,
      "numerous": 3476,
      "religious": 3477,
      "##oul": 3478,
      "critic": 3479,
      "robinson": 3480,
      "urban": 3481,
      "astronom": 3482,
      "45": 3483,
      "pil": 3484,
      "conference": 3485,
      "print": 3486,
      "bull": 3487,
      "##isions": 3488,
      "reason": 3489,
      "tele": 3490,
      "amb": 3491,
      "zealand": 3492,
      "partement": 3493,
      "fox": 3494,
      "1947": 3495,
      "studies": 3496,
      "humans": 3497,
      "ts": 3498,
      "recording": 3499,
      "iv": 3500,
      "mr": 3501,
      "pap": 3502,
      "pick": 3503,
      "1945": 3504,
      "collection": 3505,
      "fly": 3506,
      "penn": 3507,
      "##hs": 3508,
      "##hic": 3509,
      "##war": 3510,
      "deal": 3511,
      "municipal": 3512,
      "circuit": 3513,
      "dry": 3514,
      "pack": 3515,
      "##bl": 3516,
      "islam": 3517,
      "peninsula": 3518,
      "ful": 3519,
      "##bury": 3520,
      "##ault": 3521,
      "##iting": 3522,
      "##ersey": 3523,
      "subt": 3524,
      "albums": 3525,
      "employ": 3526,
      "vend": 3527,
      "##vi": 3528,
      "##vin": 3529,
      "##aches": 3530,
      "reform": 3531,
      "earn": 3532,
      "##wan": 3533,
      "##porary": 3534,
      "trains": 3535,
      "install": 3536,
      "electron": 3537,
      "favor": 3538,
      "les": 3539,
      "pref": 3540,
      "transfer": 3541,
      "organiz": 3542,
      "speak": 3543,
      "fel": 3544,
      "therefore": 3545,
      "worldwide": 3546,
      "jesus": 3547,
      "era": 3548,
      "arth": 3549,
      "##aught": 3550,
      "liber": 3551,
      "says": 3552,
      "goal": 3553,
      "figure": 3554,
      "male": 3555,
      "##mark": 3556,
      "##iger": 3557,
      "majority": 3558,
      "variety": 3559,
      "##iber": 3560,
      "##cel": 3561,
      "##entr": 3562,
      "confl": 3563,
      "grant": 3564,
      "1963": 3565,
      "route": 3566,
      "walk": 3567,
      "##aa": 3568,
      "##ira": 3569,
      "congress": 3570,
      "##ella": 3571,
      "ago": 3572,
      "executive": 3573,
      "alternative": 3574,
      "80": 3575,
      "cart": 3576,
      "rivers": 3577,
      "salt": 3578,
      "feet": 3579,
      "##ension": 3580,
      "1980s": 3581,
      "portug": 3582,
      "zone": 3583,
      "##onia": 3584,
      "##ables": 3585,
      "neigh": 3586,
      "scale": 3587,
      "personal": 3588,
      "##rison": 3589,
      "think": 3590,
      "medal": 3591,
      "discuss": 3592,
      "responsible": 3593,
      "hus": 3594,
      "##ken": 3595,
      "thous": 3596,
      "carl": 3597,
      "coach": 3598,
      "castle": 3599,
      "##oot": 3600,
      "actually": 3601,
      "1949": 3602,
      "settle": 3603,
      "campaign": 3604,
      "psych": 3605,
      "committee": 3606,
      "##ises": 3607,
      "leaves": 3608,
      "bob": 3609,
      "1961": 3610,
      "listed": 3611,
      "wanted": 3612,
      "##ented": 3613,
      "sett": 3614,
      "involved": 3615,
      "##overs": 3616,
      "statist": 3617,
      "dies": 3618,
      "map": 3619,
      "##isters": 3620,
      "##omm": 3621,
      "learn": 3622,
      "notable": 3623,
      "concern": 3624,
      "argent": 3625,
      "schol": 3626,
      "barb": 3627,
      "defeated": 3628,
      "treaty": 3629,
      "##band": 3630,
      "spr": 3631,
      "symph": 3632,
      "1965": 3633,
      "1964": 3634,
      "democratic": 3635,
      "ther": 3636,
      "arda": 3637,
      "foundation": 3638,
      "overall": 3639,
      "particip": 3640,
      "copies": 3641,
      "spirit": 3642,
      "##ered": 3643,
      "communic": 3644,
      "recently": 3645,
      "##atures": 3646,
      "oh": 3647,
      "anton": 3648,
      "##ership": 3649,
      "cham": 3650,
      "allows": 3651,
      "constant": 3652,
      "southeastern": 3653,
      "etc": 3654,
      "voice": 3655,
      "cos": 3656,
      "fill": 3657,
      "rub": 3658,
      "##30": 3659,
      "##lel": 3660,
      "##rael": 3661,
      "mayor": 3662,
      "##ffer": 3663,
      "##kshire": 3664,
      "remain": 3665,
      "told": 3666,
      "address": 3667,
      "kma": 3668,
      "dynasty": 3669,
      "##igan": 3670,
      "##ishing": 3671,
      "##wealth": 3672,
      "concentr": 3673,
      "turned": 3674,
      "birds": 3675,
      "om": 3676,
      "vac": 3677,
      "##craft": 3678,
      "bear": 3679,
      "leon": 3680,
      "subd": 3681,
      "mole": 3682,
      "temperature": 3683,
      "##change": 3684,
      "closed": 3685,
      "brothers": 3686,
      "##iles": 3687,
      "##uries": 3688,
      "heat": 3689,
      "##izes": 3690,
      "commonwealth": 3691,
      "bacter": 3692,
      "##isl": 3693,
      "ont": 3694,
      "dance": 3695,
      "##ayed": 3696,
      "chair": 3697,
      "##anced": 3698,
      "write": 3699,
      "imper": 3700,
      "influence": 3701,
      "##olved": 3702,
      "##oper": 3703,
      "artists": 3704,
      "renamed": 3705,
      "90": 3706,
      "trop": 3707,
      "##hr": 3708,
      "engineering": 3709,
      "disease": 3710,
      "tool": 3711,
      "sevent": 3712,
      "1952": 3713,
      "command": 3714,
      "jeff": 3715,
      "lie": 3716,
      "##ipl": 3717,
      "advent": 3718,
      "1966": 3719,
      "immedi": 3720,
      "##worth": 3721,
      "split": 3722,
      "fast": 3723,
      "hop": 3724,
      "hosp": 3725,
      "flu": 3726,
      "room": 3727,
      "degree": 3728,
      "##time": 3729,
      "staff": 3730,
      "ord": 3731,
      "maria": 3732,
      "musician": 3733,
      "discovery": 3734,
      "primarily": 3735,
      "license": 3736,
      "##amer": 3737,
      "##urt": 3738,
      "whether": 3739,
      "cerem": 3740,
      "##central": 3741,
      "korean": 3742,
      "doctor": 3743,
      "##ift": 3744,
      "evidence": 3745,
      "1962": 3746,
      "moving": 3747,
      "##ector": 3748,
      "nearby": 3749,
      "kr": 3750,
      "rough": 3751,
      "##iences": 3752,
      "##enger": 3753,
      "##use": 3754,
      "cape": 3755,
      "sources": 3756,
      "##yan": 3757,
      "##vd": 3758,
      "princess": 3759,
      "lady": 3760,
      "cow": 3761,
      "face": 3762,
      "gun": 3763,
      "kat": 3764,
      "##lad": 3765,
      "##enburg": 3766,
      "freder": 3767,
      "singles": 3768,
      "opening": 3769,
      "mcc": 3770,
      "od": 3771,
      "##wise": 3772,
      "##anes": 3773,
      "1960": 3774,
      "178": 3775,
      "temp": 3776,
      "scientific": 3777,
      "destroyed": 3778,
      "swe": 3779,
      "##jab": 3780,
      "anth": 3781,
      "##ques": 3782,
      "parents": 3783,
      "poor": 3784,
      "historical": 3785,
      "double": 3786,
      "initially": 3787,
      "citiz": 3788,
      "examples": 3789,
      "ko": 3790,
      "##erve": 3791,
      "##otic": 3792,
      "comedy": 3793,
      "##iana": 3794,
      "##rick": 3795,
      "cars": 3796,
      "joh": 3797,
      "##ilies": 3798,
      "leave": 3799,
      "##orders": 3800,
      "##ensity": 3801,
      "highly": 3802,
      "lives": 3803,
      "reve": 3804,
      "defense": 3805,
      "##tained": 3806,
      "va": 3807,
      "##born": 3808,
      "israel": 3809,
      "##eck": 3810,
      "##osa": 3811,
      "content": 3812,
      "1946": 3813,
      "normal": 3814,
      "threat": 3815,
      "estimated": 3816,
      "##aria": 3817,
      "grew": 3818,
      "letters": 3819,
      "practice": 3820,
      "asked": 3821,
      "bod": 3822,
      "coc": 3823,
      "mand": 3824,
      "nic": 3825,
      "##hood": 3826,
      "##rel": 3827,
      "holy": 3828,
      "##wh": 3829,
      "quant": 3830,
      "income": 3831,
      "ontario": 3832,
      "path": 3833,
      "##uals": 3834,
      "##roe": 3835,
      "##aded": 3836,
      "rapid": 3837,
      "##bourne": 3838,
      "##ien": 3839,
      "inj": 3840,
      "unlike": 3841,
      "going": 3842,
      "##iens": 3843,
      "##uts": 3844,
      "supported": 3845,
      "##aniel": 3846,
      "cyclone": 3847,
      "bot": 3848,
      "wear": 3849,
      "ash": 3850,
      "training": 3851,
      "1950": 3852,
      "runs": 3853,
      "technology": 3854,
      "olympics": 3855,
      "conductor": 3856,
      "companies": 3857,
      "cra": 3858,
      "##ibility": 3859,
      "incorpor": 3860,
      "greatest": 3861,
      "products": 3862,
      "conditions": 3863,
      "##eters": 3864,
      "teac": 3865,
      "contr": 3866,
      "##action": 3867,
      "bah": 3868,
      "##osh": 3869,
      "austria": 3870,
      "editor": 3871,
      "industrial": 3872,
      "jewish": 3873,
      "hug": 3874,
      "nap": 3875,
      "1970s": 3876,
      "nether": 3877,
      "literature": 3878,
      "75": 3879,
      "defined": 3880,
      "eliz": 3881,
      "biggest": 3882,
      "jersey": 3883,
      "exc": 3884,
      "weeks": 3885,
      "guitarist": 3886,
      "din": 3887,
      "anne": 3888,
      "##asia": 3889,
      "##rupt": 3890,
      "course": 3891,
      "adopted": 3892,
      "cz": 3893,
      "mi": 3894,
      "triple": 3895,
      "qual": 3896,
      "gives": 3897,
      "needed": 3898,
      "bou": 3899,
      "##66": 3900,
      "##ously": 3901,
      "girl": 3902,
      "twenty": 3903,
      "athlet": 3904,
      "mis": 3905,
      "##ette": 3906,
      "##oln": 3907,
      "colors": 3908,
      "1948": 3909,
      "solar": 3910,
      "jon": 3911,
      "tall": 3912,
      "##zz": 3913,
      "##aceae": 3914,
      "##weight": 3915,
      "kim": 3916,
      "##oses": 3917,
      "usa": 3918,
      "spread": 3919,
      "##ysis": 3920,
      "1959": 3921,
      "entered": 3922,
      "mention": 3923,
      "##gl": 3924,
      "##aska": 3925,
      "regional": 3926,
      "underground": 3927,
      "necess": 3928,
      "##du": 3929,
      "thir": 3930,
      "graph": 3931,
      "cancer": 3932,
      "format": 3933,
      "edge": 3934,
      "headquar": 3935,
      "results": 3936,
      "episodes": 3937,
      "##aled": 3938,
      "##ilton": 3939,
      "flat": 3940,
      "captain": 3941,
      "georgia": 3942,
      "loss": 3943,
      "piano": 3944,
      "##unt": 3945,
      "##ishop": 3946,
      "cultural": 3947,
      "platform": 3948,
      "##ivor": 3949,
      "##soft": 3950,
      "inte": 3951,
      "guard": 3952,
      "classical": 3953,
      "organism": 3954,
      "animated": 3955,
      "challenge": 3956,
      "##usc": 3957,
      "younger": 3958,
      "crown": 3959,
      "proposed": 3960,
      "row": 3961,
      "##iny": 3962,
      "promin": 3963,
      "##oke": 3964,
      "maxim": 3965,
      "versions": 3966,
      "laws": 3967,
      "newspaper": 3968,
      "bost": 3969,
      "core": 3970,
      "##ped": 3971,
      "forced": 3972,
      "##agn": 3973,
      "hercules": 3974,
      "palace": 3975,
      "vehic": 3976,
      "principal": 3977,
      "##isp": 3978,
      "##iday": 3979,
      "##aped": 3980,
      "noted": 3981,
      "blues": 3982,
      "vote": 3983,
      "policy": 3984,
      "corporation": 3985,
      "linc": 3986,
      "##ias": 3987,
      "##leman": 3988,
      "confir": 3989,
      "swedish": 3990,
      "assembly": 3991,
      "arthur": 3992,
      "1957": 3993,
      "netherlands": 3994,
      "cha": 3995,
      "und": 3996,
      "prom": 3997,
      "counties": 3998,
      "oppos": 3999,
      "alf": 4000,
      "leaving": 4001,
      "##rug": 4002,
      "distingu": 4003,
      "continu": 4004,
      "basic": 4005,
      "legal": 4006,
      "parallel": 4007,
      "boston": 4008,
      "mm": 4009,
      "##ees": 4010,
      "##gau": 4011,
      "##oto": 4012,
      "prevent": 4013,
      "##azz": 4014,
      "quot": 4015,
      "instruct": 4016,
      "increased": 4017,
      "administration": 4018,
      "applied": 4019,
      "explorer": 4020,
      "150": 4021,
      "iran": 4022,
      "hem": 4023,
      "mamm": 4024,
      "smith": 4025,
      "authority": 4026,
      "combined": 4027,
      "microsoft": 4028,
      "kenn": 4029,
      "##inger": 4030,
      "reign": 4031,
      "fields": 4032,
      "digital": 4033,
      "65": 4034,
      "cip": 4035,
      "fat": 4036,
      "theat": 4037,
      "##astic": 4038,
      "smack": 4039,
      "additional": 4040,
      "tells": 4041,
      "dol": 4042,
      "jim": 4043,
      "self": 4044,
      "##edd": 4045,
      "##essed": 4046,
      "normally": 4047,
      "armenian": 4048,
      "fant": 4049,
      "snow": 4050,
      "levels": 4051,
      "lincoln": 4052,
      "##hol": 4053,
      "##18": 4054,
      "##inary": 4055,
      "1956": 4056,
      "races": 4057,
      "custom": 4058,
      "doll": 4059,
      "jac": 4060,
      "##ging": 4061,
      "##aki": 4062,
      "sha": 4063,
      "max": 4064,
      "covered": 4065,
      "purpose": 4066,
      "smackdown": 4067,
      "jane": 4068,
      "##state": 4069,
      "suffer": 4070,
      "pron": 4071,
      "marriage": 4072,
      "flower": 4073,
      "##aily": 4074,
      "chris": 4075,
      "apart": 4076,
      "behav": 4077,
      "sulf": 4078,
      "##wick": 4079,
      "philipp": 4080,
      "korea": 4081,
      "##asy": 4082,
      "##ington": 4083,
      "tried": 4084,
      "northcentral": 4085,
      "polish": 4086,
      "impact": 4087,
      "powerful": 4088,
      "##burgh": 4089,
      "##wich": 4090,
      "theater": 4091,
      "management": 4092,
      "increase": 4093,
      "jackson": 4094,
      "website": 4095,
      "mom": 4096,
      "##nam": 4097,
      "##ulations": 4098,
      "hero": 4099,
      "cool": 4100,
      "1953": 4101,
      "defin": 4102,
      "direction": 4103,
      "claimed": 4104,
      "ell": 4105,
      "morn": 4106,
      "##ads": 4107,
      "suff": 4108,
      "kept": 4109,
      "czech": 4110,
      "rate": 4111,
      "##mond": 4112,
      "##abor": 4113,
      "ability": 4114,
      "freed": 4115,
      "billion": 4116,
      "33": 4117,
      "ans": 4118,
      "##akh": 4119,
      "poland": 4120,
      "charl": 4121,
      "suburb": 4122,
      "attended": 4123,
      "establish": 4124,
      "fictional": 4125,
      "##ois": 4126,
      "##idents": 4127,
      "bron": 4128,
      "convention": 4129,
      "elizabeth": 4130,
      "##haps": 4131,
      "##rat": 4132,
      "##iform": 4133,
      "perhaps": 4134,
      "angl": 4135,
      "imperial": 4136,
      "daily": 4137,
      "sel": 4138,
      "##14": 4139,
      "##tered": 4140,
      "alt": 4141,
      "##vert": 4142,
      "spect": 4143,
      "pope": 4144,
      "drive": 4145,
      "serving": 4146,
      "federation": 4147,
      "##osaurus": 4148,
      "venda": 4149,
      "husband": 4150,
      "70": 4151,
      "fell": 4152,
      "habit": 4153,
      "##bre": 4154,
      "andrew": 4155,
      "singap": 4156,
      "1939": 4157,
      "harv": 4158,
      "bush": 4159,
      "punjab": 4160,
      "yet": 4161,
      "##15": 4162,
      "eld": 4163,
      "##ycl": 4164,
      "##ami": 4165,
      "##ista": 4166,
      "chos": 4167,
      "climate": 4168,
      "drink": 4169,
      "demon": 4170,
      "arrang": 4171,
      "diameter": 4172,
      "bene": 4173,
      "##alia": 4174,
      "##roll": 4175,
      "##onto": 4176,
      "programs": 4177,
      "susp": 4178,
      "subdiv": 4179,
      "nam": 4180,
      "pip": 4181,
      "orth": 4182,
      "##ustr": 4183,
      "likely": 4184,
      "medicine": 4185,
      "dim": 4186,
      "sau": 4187,
      "##70": 4188,
      "##real": 4189,
      "##ching": 4190,
      "##unity": 4191,
      "percent": 4192,
      "job": 4193,
      "families": 4194,
      "slight": 4195,
      "waters": 4196,
      "straight": 4197,
      "garden": 4198,
      "fix": 4199,
      "ip": 4200,
      "##bed": 4201,
      "##elled": 4202,
      "marc": 4203,
      "screen": 4204,
      "matter": 4205,
      "1942": 4206,
      "machine": 4207,
      "completely": 4208,
      "rise": 4209,
      "prepar": 4210,
      "cav": 4211,
      "fans": 4212,
      "hung": 4213,
      "lack": 4214,
      "tel": 4215,
      "##sa": 4216,
      "bring": 4217,
      "soccer": 4218,
      "##oa": 4219,
      "##water": 4220,
      "##xide": 4221,
      "##arian": 4222,
      "clar": 4223,
      "draw": 4224,
      "removed": 4225,
      "singapore": 4226,
      "bart": 4227,
      "sund": 4228,
      "##ila": 4229,
      "ford": 4230,
      "##abad": 4231,
      "monroe": 4232,
      "giving": 4233,
      "dvd": 4234,
      "daniel": 4235,
      "ger": 4236,
      "ru": 4237,
      "tam": 4238,
      "##rane": 4239,
      "intended": 4240,
      "mayenne": 4241,
      "1960s": 4242,
      "legend": 4243,
      "shortly": 4244,
      "powers": 4245,
      "instrument": 4246,
      "houses": 4247,
      "dna": 4248,
      "hart": 4249,
      "tic": 4250,
      "##ibly": 4251,
      "provides": 4252,
      "sixth": 4253,
      "links": 4254,
      "piece": 4255,
      "raised": 4256,
      "mouth": 4257,
      "##ione": 4258,
      "bey": 4259,
      "sexual": 4260,
      "declared": 4261,
      "bott": 4262,
      "ded": 4263,
      "##nd": 4264,
      "else": 4265,
      "legisl": 4266,
      "growth": 4267,
      "bang": 4268,
      "##200": 4269,
      "##jan": 4270,
      "1954": 4271,
      "protest": 4272,
      "frederick": 4273,
      "aube": 4274,
      "gh": 4275,
      "ww": 4276,
      "wave": 4277,
      "mans": 4278,
      "script": 4279,
      "continue": 4280,
      "historic": 4281,
      "doub": 4282,
      "ram": 4283,
      "##lement": 4284,
      "interview": 4285,
      "equal": 4286,
      "question": 4287,
      "candid": 4288,
      "bomb": 4289,
      "hair": 4290,
      "##mas": 4291,
      "##isher": 4292,
      "alone": 4293,
      "shared": 4294,
      "minutes": 4295,
      "operated": 4296,
      "symphony": 4297,
      "pier": 4298,
      "##ties": 4299,
      "##ko": 4300,
      "##etts": 4301,
      "##under": 4302,
      "exhib": 4303,
      "shr": 4304,
      "flight": 4305,
      "##ographic": 4306,
      "derived": 4307,
      "believe": 4308,
      "problem": 4309,
      "pictures": 4310,
      "##80": 4311,
      "reach": 4312,
      "goes": 4313,
      "centuries": 4314,
      "1990s": 4315,
      "1955": 4316,
      "hills": 4317,
      "junior": 4318,
      "hospital": 4319,
      "##rid": 4320,
      "##orts": 4321,
      "engines": 4322,
      "1958": 4323,
      "bands": 4324,
      "arms": 4325,
      "##bridge": 4326,
      "inhabit": 4327,
      "ain": 4328,
      "dan": 4329,
      "##40": 4330,
      "##orter": 4331,
      "ens": 4332,
      "contem": 4333,
      "relatively": 4334,
      "something": 4335,
      "templates": 4336,
      "morning": 4337,
      "##aging": 4338,
      "atom": 4339,
      "##achus": 4340,
      "##resp": 4341,
      "##based": 4342,
      "##iance": 4343,
      "gramm": 4344,
      "creation": 4345,
      "toronto": 4346,
      "agreement": 4347,
      "vocal": 4348,
      "nit": 4349,
      "sens": 4350,
      "##heim": 4351,
      "containing": 4352,
      "serve": 4353,
      "highway": 4354,
      "memorial": 4355,
      "winner": 4356,
      "##met": 4357,
      "##iced": 4358,
      "online": 4359,
      "##adel": 4360,
      "suc": 4361,
      "##izing": 4362,
      "shel": 4363,
      "message": 4364,
      "aargau": 4365,
      "occurred": 4366,
      "##eman": 4367,
      "provence": 4368,
      "universe": 4369,
      "1944": 4370,
      "borders": 4371,
      "chlor": 4372,
      "theme": 4373,
      "officer": 4374,
      "daz": 4375,
      "showed": 4376,
      "deliver": 4377,
      "massachus": 4378,
      "earliest": 4379,
      "horse": 4380,
      "budd": 4381,
      "investig": 4382,
      "##amin": 4383,
      "##una": 4384,
      "prote": 4385,
      "cooper": 4386,
      "##icted": 4387,
      "presented": 4388,
      "senior": 4389,
      "mosc": 4390,
      "selected": 4391,
      "organizations": 4392,
      "fro": 4393,
      "kansas": 4394,
      "sense": 4395,
      "comment": 4396,
      "shall": 4397,
      "entry": 4398,
      "latter": 4399,
      "ancest": 4400,
      "potential": 4401,
      "saturn": 4402,
      "arnold": 4403,
      "massachusetts": 4404,
      "ways": 4405,
      "butter": 4406,
      "##ype": 4407,
      "persian": 4408,
      "parameters": 4409,
      "activity": 4410,
      "columbia": 4411,
      "alphab": 4412,
      "chosen": 4413,
      "cel": 4414,
      "rose": 4415,
      "tower": 4416,
      "##ayer": 4417,
      "aircraft": 4418,
      "issued": 4419,
      "horn": 4420,
      "kings": 4421,
      "ray": 4422,
      "sle": 4423,
      "acting": 4424,
      "strength": 4425,
      "titles": 4426,
      "reference": 4427,
      "solo": 4428,
      "buried": 4429,
      "turb": 4430,
      "##ourt": 4431,
      "founder": 4432,
      "##ancy": 4433,
      "string": 4434,
      "organized": 4435,
      "effects": 4436,
      "eye": 4437,
      "provinces": 4438,
      "bed": 4439,
      "gi": 4440,
      "##rd": 4441,
      "sud": 4442,
      "share": 4443,
      "##ailed": 4444,
      "poly": 4445,
      "milk": 4446,
      "hosted": 4447,
      "stephen": 4448,
      "42": 4449,
      "ken": 4450,
      "ll": 4451,
      "##rain": 4452,
      "##ighth": 4453,
      "clim": 4454,
      "extended": 4455,
      "basis": 4456,
      "jean": 4457,
      "describe": 4458,
      "increasing": 4459,
      "senate": 4460,
      "##standing": 4461,
      "kash": 4462,
      "sty": 4463,
      "carry": 4464,
      "santa": 4465,
      "murder": 4466,
      "launched": 4467,
      "mun": 4468,
      "##ih": 4469,
      "##aud": 4470,
      "##uten": 4471,
      "##pped": 4472,
      "twice": 4473,
      "strik": 4474,
      "acqu": 4475,
      "1940": 4476,
      "operation": 4477,
      "represented": 4478,
      "tracks": 4479,
      "extrem": 4480,
      "300": 4481,
      "tak": 4482,
      "##add": 4483,
      "1900": 4484,
      "austrian": 4485,
      "images": 4486,
      "##ylvan": 4487,
      "eggs": 4488,
      "distribution": 4489,
      "64": 4490,
      "cass": 4491,
      "counter": 4492,
      "fresh": 4493,
      "shape": 4494,
      "##ova": 4495,
      "matches": 4496,
      "property": 4497,
      "abbre": 4498,
      "ruled": 4499,
      "bit": 4500,
      "hyp": 4501,
      "ss": 4502,
      "##13": 4503,
      "##acing": 4504,
      "cloud": 4505,
      "coal": 4506,
      "financ": 4507,
      "remaining": 4508,
      "extinct": 4509,
      "landfall": 4510,
      "soldiers": 4511,
      "measure": 4512,
      "accepted": 4513,
      "architecture": 4514,
      "diesel": 4515,
      "roughly": 4516,
      "1000": 4517,
      "##onse": 4518,
      "##elle": 4519,
      "pattern": 4520,
      "device": 4521,
      "ped": 4522,
      "##dr": 4523,
      "##ania": 4524,
      "goals": 4525,
      "sets": 4526,
      "championships": 4527,
      "becomes": 4528,
      "dazur": 4529,
      "ja": 4530,
      "mph": 4531,
      "##ny": 4532,
      "tra": 4533,
      "percy": 4534,
      "buff": 4535,
      "swiss": 4536,
      "pieces": 4537,
      "##alpesc": 4538,
      "provencealpesc": 4539,
      "dor": 4540,
      "mut": 4541,
      "rug": 4542,
      "fruit": 4543,
      "##agr": 4544,
      "objects": 4545,
      "suggested": 4546,
      "domest": 4547,
      "stanley": 4548,
      "fully": 4549,
      "ak": 4550,
      "danc": 4551,
      "som": 4552,
      "##ji": 4553,
      "##atar": 4554,
      "minnes": 4555,
      "farm": 4556,
      "ult": 4557,
      "cryst": 4558,
      "please": 4559,
      "kilometres": 4560,
      "ott": 4561,
      "##uters": 4562,
      "##icks": 4563,
      "narrow": 4564,
      "ohio": 4565,
      "behavior": 4566,
      "minnesota": 4567,
      "bible": 4568,
      "wings": 4569,
      "feed": 4570,
      "navy": 4571,
      "asteroid": 4572,
      "##ogle": 4573,
      "joint": 4574,
      "1920": 4575,
      "sites": 4576,
      "growing": 4577,
      "headquarters": 4578,
      "nag": 4579,
      "sons": 4580,
      "##lers": 4581,
      "##isa": 4582,
      "##eland": 4583,
      "marie": 4584,
      "serious": 4585,
      "writers": 4586,
      "francisco": 4587,
      "##isen": 4588,
      "asp": 4589,
      "beaut": 4590,
      "##ogen": 4591,
      "agric": 4592,
      "larg": 4593,
      "dinosaur": 4594,
      "36": 4595,
      "mes": 4596,
      "mind": 4597,
      "sides": 4598,
      "wit": 4599,
      "##bra": 4600,
      "alaska": 4601,
      "##illes": 4602,
      "formal": 4603,
      "1951": 4604,
      "student": 4605,
      "punk": 4606,
      "oxford": 4607,
      "religion": 4608,
      "respectively": 4609,
      "spoken": 4610,
      "immediately": 4611,
      "##respond": 4612,
      "##where": 4613,
      "plain": 4614,
      "traff": 4615,
      "meeting": 4616,
      "eyes": 4617,
      "crypt": 4618,
      "conflict": 4619,
      "bol": 4620,
      "gn": 4621,
      "pair": 4622,
      "##itation": 4623,
      "chocol": 4624,
      "compared": 4625,
      "##chen": 4626,
      "avoid": 4627,
      "steel": 4628,
      "controlled": 4629,
      "nazi": 4630,
      "agricult": 4631,
      "##mir": 4632,
      "##rey": 4633,
      "##aya": 4634,
      "##iab": 4635,
      "correspond": 4636,
      "hamilton": 4637,
      "fash": 4638,
      "vel": 4639,
      "##99": 4640,
      "column": 4641,
      "resist": 4642,
      "aired": 4643,
      "sky": 4644,
      "connected": 4645,
      "gained": 4646,
      "##wik": 4647,
      "##itor": 4648,
      "orange": 4649,
      "trial": 4650,
      "##ante": 4651,
      "contact": 4652,
      "google": 4653,
      "acts": 4654,
      "angle": 4655,
      "largely": 4656,
      "cm": 4657,
      "jazz": 4658,
      "##iders": 4659,
      "bright": 4660,
      "contest": 4661,
      "strip": 4662,
      "belief": 4663,
      "protect": 4664,
      "copy": 4665,
      "ticino": 4666,
      "##ylvania": 4667,
      "sin": 4668,
      "##key": 4669,
      "##ali": 4670,
      "##ims": 4671,
      "solid": 4672,
      "issue": 4673,
      "moscow": 4674,
      "37": 4675,
      "jur": 4676,
      "liver": 4677,
      "mobile": 4678,
      "vice": 4679,
      "plate": 4680,
      "##odox": 4681,
      "exclus": 4682,
      "controvers": 4683,
      "reflect": 4684,
      "alexand": 4685,
      "mixed": 4686,
      "therm": 4687,
      "lor": 4688,
      "purch": 4689,
      "##ship": 4690,
      "##con": 4691,
      "##ece": 4692,
      "brief": 4693,
      "wrestler": 4694,
      "demonstr": 4695,
      "fun": 4696,
      "walt": 4697,
      "##inated": 4698,
      "compl": 4699,
      "pole": 4700,
      "classified": 4701,
      "merc": 4702,
      "michigan": 4703,
      "ideas": 4704,
      "##anda": 4705,
      "##aga": 4706,
      "consum": 4707,
      "capac": 4708,
      "resulting": 4709,
      "require": 4710,
      "causes": 4711,
      "activities": 4712,
      "succeed": 4713,
      "dates": 4714,
      "han": 4715,
      "pul": 4716,
      "##house": 4717,
      "monarch": 4718,
      "160": 4719,
      "classic": 4720,
      "##ription": 4721,
      "closely": 4722,
      "rural": 4723,
      "##ml": 4724,
      "##37": 4725,
      "##ivity": 4726,
      "exchange": 4727,
      "##kee": 4728,
      "correct": 4729,
      "##iques": 4730,
      "victory": 4731,
      "individuals": 4732,
      "subsequently": 4733,
      "coup": 4734,
      "rum": 4735,
      "##pa": 4736,
      "weap": 4737,
      "##anning": 4738,
      "##ledge": 4739,
      "motion": 4740,
      "traditionally": 4741,
      "mythology": 4742,
      "##american": 4743,
      "giant": 4744,
      "py": 4745,
      "wel": 4746,
      "##pool": 4747,
      "saying": 4748,
      "fossil": 4749,
      "cd": 4750,
      "##orf": 4751,
      "##enz": 4752,
      "##iable": 4753,
      "shot": 4754,
      "mars": 4755,
      "circle": 4756,
      "conducted": 4757,
      "issues": 4758,
      "48": 4759,
      "lenn": 4760,
      "rare": 4761,
      "conqu": 4762,
      "##oven": 4763,
      "adj": 4764,
      "easily": 4765,
      "occur": 4766,
      "1918": 4767,
      "causing": 4768,
      "settlement": 4769,
      "fantasy": 4770,
      "kel": 4771,
      "tou": 4772,
      "##irb": 4773,
      "mah": 4774,
      "agreed": 4775,
      "fal": 4776,
      "##etime": 4777,
      "##abb": 4778,
      "spons": 4779,
      "server": 4780,
      "weight": 4781,
      "earthqu": 4782,
      "mission": 4783,
      "illustr": 4784,
      "compounds": 4785,
      "surrounding": 4786,
      "dc": 4787,
      "hat": 4788,
      "pale": 4789,
      "##rol": 4790,
      "##ulate": 4791,
      "tehs": 4792,
      "progress": 4793,
      "speech": 4794,
      "specifically": 4795,
      "dang": 4796,
      "marsh": 4797,
      "physics": 4798,
      "montreal": 4799,
      "orbit": 4800,
      "trophy": 4801,
      "39": 4802,
      "##rier": 4803,
      "##ening": 4804,
      "##aro": 4805,
      "meant": 4806,
      "1933": 4807,
      "lands": 4808,
      "occasion": 4809,
      "holly": 4810,
      "satell": 4811,
      "faith": 4812,
      "failed": 4813,
      "inhabitants": 4814,
      "dun": 4815,
      "gil": 4816,
      "##isk": 4817,
      "enj": 4818,
      "penns": 4819,
      "slightly": 4820,
      "##car": 4821,
      "join": 4822,
      "wellknown": 4823,
      "1936": 4824,
      "wrestleman": 4825,
      "##ipped": 4826,
      "ern": 4827,
      "falls": 4828,
      "confirmed": 4829,
      "opposite": 4830,
      "pin": 4831,
      "rhy": 4832,
      "roles": 4833,
      "theor": 4834,
      "ones": 4835,
      "unus": 4836,
      "pool": 4837,
      "charge": 4838,
      "movies": 4839,
      "1941": 4840,
      "chrom": 4841,
      "##book": 4842,
      "williams": 4843,
      "melbourne": 4844,
      "linux": 4845,
      "troops": 4846,
      "focus": 4847,
      "alphabet": 4848,
      "covers": 4849,
      "rand": 4850,
      "ross": 4851,
      "##then": 4852,
      "toy": 4853,
      "score": 4854,
      "carried": 4855,
      "possibly": 4856,
      "croat": 4857,
      "fashion": 4858,
      "balt": 4859,
      "fu": 4860,
      "##iat": 4861,
      "##erts": 4862,
      "apple": 4863,
      "transform": 4864,
      "protection": 4865,
      "auto": 4866,
      "advanced": 4867,
      "tribe": 4868,
      "tribes": 4869,
      "conservative": 4870,
      "darwin": 4871,
      "applications": 4872,
      "mentioned": 4873,
      "55": 4874,
      "dial": 4875,
      "liqu": 4876,
      "mit": 4877,
      "##uda": 4878,
      "intell": 4879,
      "perf": 4880,
      "longest": 4881,
      "restric": 4882,
      "44": 4883,
      "cru": 4884,
      "perman": 4885,
      "sang": 4886,
      "singers": 4887,
      "##ograp": 4888,
      "separated": 4889,
      "wrestlemania": 4890,
      "bure": 4891,
      "lith": 4892,
      "overs": 4893,
      "##25": 4894,
      "##ici": 4895,
      "trust": 4896,
      "agency": 4897,
      "quite": 4898,
      "vienna": 4899,
      "##works": 4900,
      "temple": 4901,
      "cod": 4902,
      "ib": 4903,
      "tay": 4904,
      "##usion": 4905,
      "parties": 4906,
      "1943": 4907,
      "sugar": 4908,
      "seventh": 4909,
      "bav": 4910,
      "divers": 4911,
      "gab": 4912,
      "nfl": 4913,
      "sod": 4914,
      "sell": 4915,
      "##fort": 4916,
      "forward": 4917,
      "##ache": 4918,
      "##imp": 4919,
      "enem": 4920,
      "##ello": 4921,
      "someone": 4922,
      "serves": 4923,
      "expans": 4924,
      "kmh": 4925,
      "##monic": 4926,
      "johann": 4927,
      "chocolate": 4928,
      "tib": 4929,
      "##set": 4930,
      "##asa": 4931,
      "unique": 4932,
      "try": 4933,
      "tea": 4934,
      "quality": 4935,
      "##engthen": 4936,
      "initial": 4937,
      "neighbor": 4938,
      "freedom": 4939,
      "400": 4940,
      "dal": 4941,
      "gam": 4942,
      "rav": 4943,
      "##uese": 4944,
      "coming": 4945,
      "arc": 4946,
      "##claim": 4947,
      "belg": 4948,
      "classes": 4949,
      "1938": 4950,
      "response": 4951,
      "identified": 4952,
      "portuguese": 4953,
      "lyn": 4954,
      "##oh": 4955,
      "feel": 4956,
      "brows": 4957,
      "novels": 4958,
      "austen": 4959,
      "programm": 4960,
      "nominated": 4961,
      "financial": 4962,
      "pennsylvania": 4963,
      "hay": 4964,
      "##otes": 4965,
      "##ifying": 4966,
      "exact": 4967,
      "##ections": 4968,
      "justice": 4969,
      "allowing": 4970,
      "intellig": 4971,
      "43": 4972,
      "onto": 4973,
      "feat": 4974,
      "weaken": 4975,
      "secondary": 4976,
      "repe": 4977,
      "universal": 4978,
      "encycl": 4979,
      "materials": 4980,
      "sweden": 4981,
      "moment": 4982,
      "wwf": 4983,
      "kong": 4984,
      "##more": 4985,
      "##mouth": 4986,
      "##17": 4987,
      "depending": 4988,
      "default": 4989,
      "passenger": 4990,
      "##apped": 4991,
      "attacks": 4992,
      "affairs": 4993,
      "mathematics": 4994,
      "orthodox": 4995,
      "##organ": 4996,
      "##ito": 4997,
      "hear": 4998,
      "##uki": 4999,
      "fighting": 5000,
      "extreme": 5001,
      "regarded": 5002,
      "subtropical": 5003,
      "earned": 5004,
      "bodies": 5005,
      "capacity": 5006,
      "cher": 5007,
      "lind": 5008,
      "mist": 5009,
      "yor": 5010,
      "##gers": 5011,
      "thick": 5012,
      "##agen": 5013,
      "bra": 5014,
      "transm": 5015,
      "internal": 5016,
      "copper": 5017,
      "catal": 5018,
      "##bean": 5019,
      "grown": 5020,
      "citizens": 5021,
      "teacher": 5022,
      "hers": 5023,
      "lock": 5024,
      "tend": 5025,
      "fried": 5026,
      "##ithm": 5027,
      "gray": 5028,
      "hands": 5029,
      "motors": 5030,
      "influenced": 5031,
      "frequently": 5032,
      "incorporated": 5033,
      "prominent": 5034,
      "38": 5035,
      "dod": 5036,
      "ira": 5037,
      "outer": 5038,
      "##lines": 5039,
      "##othes": 5040,
      "##uther": 5041,
      "seem": 5042,
      "##iang": 5043,
      "twel": 5044,
      "actual": 5045,
      "drama": 5046,
      "minim": 5047,
      "myster": 5048,
      "queens": 5049,
      "memory": 5050,
      "quarter": 5051,
      "cou": 5052,
      "sor": 5053,
      "##pe": 5054,
      "compar": 5055,
      "##aho": 5056,
      "equival": 5057,
      "restaur": 5058,
      "encyclop": 5059,
      "##ati": 5060,
      "##alo": 5061,
      "adapt": 5062,
      "carib": 5063,
      "chamber": 5064,
      "bishop": 5065,
      "dream": 5066,
      "18th": 5067,
      "batt": 5068,
      "tennis": 5069,
      "kashmir": 5070,
      "lov": 5071,
      "chur": 5072,
      "##oshi": 5073,
      "marine": 5074,
      "goalt": 5075,
      "gregor": 5076,
      "generation": 5077,
      "ecw": 5078,
      "##unction": 5079,
      "mississ": 5080,
      "holds": 5081,
      "instruments": 5082,
      "global": 5083,
      "lennon": 5084,
      "dub": 5085,
      "ot": 5086,
      "voy": 5087,
      "##light": 5088,
      "##je": 5089,
      "##station": 5090,
      "store": 5091,
      "neut": 5092,
      "compris": 5093,
      "##cles": 5094,
      "176": 5095,
      "assum": 5096,
      "glass": 5097,
      "sales": 5098,
      "##pro": 5099,
      "##16": 5100,
      "##road": 5101,
      "comic": 5102,
      "uncle": 5103,
      "##opp": 5104,
      "adams": 5105,
      "youth": 5106,
      "turkey": 5107,
      "offered": 5108,
      "beyond": 5109,
      "##onent": 5110,
      "##onents": 5111,
      "##anth": 5112,
      "franch": 5113,
      "height": 5114,
      "planned": 5115,
      "supre": 5116,
      "trip": 5117,
      "upd": 5118,
      "glac": 5119,
      "##hens": 5120,
      "expected": 5121,
      "marked": 5122,
      "territories": 5123,
      "picture": 5124,
      "priest": 5125,
      "##pton": 5126,
      "prefer": 5127,
      "attention": 5128,
      "##encies": 5129,
      "condition": 5130,
      "virt": 5131,
      "females": 5132,
      "caribbean": 5133,
      "##ordin": 5134,
      "formation": 5135,
      "syd": 5136,
      "##aux": 5137,
      "1930": 5138,
      "operations": 5139,
      "moz": 5140,
      "##ippi": 5141,
      "camer": 5142,
      "analysis": 5143,
      "saxony": 5144,
      "philosophy": 5145,
      "males": 5146,
      "##uate": 5147,
      "##atically": 5148,
      "##ety": 5149,
      "##ctic": 5150,
      "##vereign": 5151,
      "breed": 5152,
      "##istered": 5153,
      "potter": 5154,
      "lyric": 5155,
      "enjoy": 5156,
      "pig": 5157,
      "##oen": 5158,
      "##isation": 5159,
      "seg": 5160,
      "##ardo": 5161,
      "advert": 5162,
      "##aceous": 5163,
      "sovereign": 5164,
      "studios": 5165,
      "payper": 5166,
      "duc": 5167,
      "ov": 5168,
      "rar": 5169,
      "##stream": 5170,
      "##ela": 5171,
      "chile": 5172,
      "atm": 5173,
      "resour": 5174,
      "values": 5175,
      "merged": 5176,
      "inspired": 5177,
      "belgium": 5178,
      "sed": 5179,
      "taught": 5180,
      "##inus": 5181,
      "##itage": 5182,
      "##osl": 5183,
      "spot": 5184,
      "brad": 5185,
      "caes": 5186,
      "begins": 5187,
      "vocals": 5188,
      "contemporary": 5189,
      "tehsil": 5190,
      "payperview": 5191,
      "crow": 5192,
      "ign": 5193,
      "satur": 5194,
      "##kin": 5195,
      "##fish": 5196,
      "##oring": 5197,
      "1937": 5198,
      "elim": 5199,
      "1919": 5200,
      "villages": 5201,
      "knowledge": 5202,
      "dur": 5203,
      "fine": 5204,
      "hann": 5205,
      "vent": 5206,
      "##ext": 5207,
      "##ras": 5208,
      "##24": 5209,
      "seeds": 5210,
      "pruss": 5211,
      "marks": 5212,
      "prey": 5213,
      "survivor": 5214,
      "experience": 5215,
      "literary": 5216,
      "violin": 5217,
      "necessary": 5218,
      "maximum": 5219,
      "cipher": 5220,
      "bought": 5221,
      "density": 5222,
      "thin": 5223,
      "thunder": 5224,
      "uns": 5225,
      "crime": 5226,
      "1935": 5227,
      "credited": 5228,
      "twelve": 5229,
      "dat": 5230,
      "jump": 5231,
      "ri": 5232,
      "alle": 5233,
      "plans": 5234,
      "scene": 5235,
      "opposition": 5236,
      "methods": 5237,
      "ric": 5238,
      "##li": 5239,
      "##rie": 5240,
      "##ci": 5241,
      "brain": 5242,
      "##iba": 5243,
      "##ika": 5244,
      "alliance": 5245,
      "indones": 5246,
      "genetic": 5247,
      "anything": 5248,
      "typical": 5249,
      "functions": 5250,
      "sequel": 5251,
      "bacteria": 5252,
      "fear": 5253,
      "file": 5254,
      "nba": 5255,
      "##ador": 5256,
      "asian": 5257,
      "##uting": 5258,
      "##ills": 5259,
      "##ovak": 5260,
      "##asts": 5261,
      "playstation": 5262,
      "##landers": 5263,
      "##onds": 5264,
      "sched": 5265,
      "guest": 5266,
      "##onym": 5267,
      "skin": 5268,
      "cycle": 5269,
      "electronic": 5270,
      "sydney": 5271,
      "fellow": 5272,
      "none": 5273,
      "pear": 5274,
      "##col": 5275,
      "##itled": 5276,
      "##cha": 5277,
      "schem": 5278,
      "sciences": 5279,
      "singing": 5280,
      "implement": 5281,
      "ordered": 5282,
      "girls": 5283,
      "mexican": 5284,
      "constructed": 5285,
      "selection": 5286,
      "consisting": 5287,
      "arabic": 5288,
      "mississippi": 5289,
      "atmosp": 5290,
      "1st": 5291,
      "lew": 5292,
      "deaths": 5293,
      "scholars": 5294,
      "chairman": 5295,
      "bottom": 5296,
      "fuel": 5297,
      "##adow": 5298,
      "chanc": 5299,
      "1934": 5300,
      "suppl": 5301,
      "idaho": 5302,
      "1929": 5303,
      "titled": 5304,
      "continental": 5305,
      "combination": 5306,
      "properties": 5307,
      "translated": 5308,
      "positive": 5309,
      "safety": 5310,
      "dedicated": 5311,
      "extremely": 5312,
      "phen": 5313,
      "ron": 5314,
      "##uan": 5315,
      "##nic": 5316,
      "##mont": 5317,
      "suit": 5318,
      "newly": 5319,
      "scul": 5320,
      "drivers": 5321,
      "presence": 5322,
      "republican": 5323,
      "watch": 5324,
      "voted": 5325,
      "claims": 5326,
      "jews": 5327,
      "stopped": 5328,
      "islamic": 5329,
      "yorkshire": 5330,
      "diet": 5331,
      "tab": 5332,
      "tail": 5333,
      "##het": 5334,
      "##inth": 5335,
      "##oned": 5336,
      "ships": 5337,
      "storms": 5338,
      "replace": 5339,
      "managed": 5340,
      "molec": 5341,
      "churches": 5342,
      "fought": 5343,
      "kin": 5344,
      "kir": 5345,
      "rena": 5346,
      "##bec": 5347,
      "##fit": 5348,
      "leaf": 5349,
      "notes": 5350,
      "carn": 5351,
      "strengthen": 5352,
      "entr": 5353,
      "immunity": 5354,
      "nickel": 5355,
      "purposes": 5356,
      "ker": 5357,
      "rog": 5358,
      "##iations": 5359,
      "##ker": 5360,
      "notably": 5361,
      "warm": 5362,
      "johnson": 5363,
      "##ielder": 5364,
      "sleep": 5365,
      "95": 5366,
      "##omes": 5367,
      "##thm": 5368,
      "ark": 5369,
      "arena": 5370,
      "tram": 5371,
      "appar": 5372,
      "assigned": 5373,
      "accomp": 5374,
      "ending": 5375,
      "1932": 5376,
      "designated": 5377,
      "1912": 5378,
      "resulted": 5379,
      "economy": 5380,
      "khan": 5381,
      "kinds": 5382,
      "kid": 5383,
      "zoo": 5384,
      "##iac": 5385,
      "##fa": 5386,
      "##empl": 5387,
      "commander": 5388,
      "clay": 5389,
      "computers": 5390,
      "shell": 5391,
      "poll": 5392,
      "##ashi": 5393,
      "expanded": 5394,
      "processes": 5395,
      "figures": 5396,
      "cabinet": 5397,
      "featuring": 5398,
      "arb": 5399,
      "##alled": 5400,
      "otherwise": 5401,
      "parks": 5402,
      "resc": 5403,
      "phr": 5404,
      "bros": 5405,
      "1925": 5406,
      "request": 5407,
      "ceremony": 5408,
      "revealed": 5409,
      "organisms": 5410,
      "expansion": 5411,
      "aber": 5412,
      "cu": 5413,
      "ecl": 5414,
      "hope": 5415,
      "um": 5416,
      "##oids": 5417,
      "##90": 5418,
      "toky": 5419,
      "##star": 5420,
      "##istics": 5421,
      "##ods": 5422,
      "depend": 5423,
      "starring": 5424,
      "colorado": 5425,
      "indiana": 5426,
      "produces": 5427,
      "mcm": 5428,
      "structures": 5429,
      "mechanical": 5430,
      "nicknamed": 5431,
      "equivalent": 5432,
      "folk": 5433,
      "incl": 5434,
      "serb": 5435,
      "output": 5436,
      "170": 5437,
      "175": 5438,
      "##phia": 5439,
      "clubs": 5440,
      "experim": 5441,
      "existed": 5442,
      "heavyweight": 5443,
      "target": 5444,
      "walter": 5445,
      "thousands": 5446,
      "gregorian": 5447,
      "las": 5448,
      "tai": 5449,
      "vit": 5450,
      "##wal": 5451,
      "##org": 5452,
      "uniform": 5453,
      "trav": 5454,
      "heritage": 5455,
      "##inton": 5456,
      "finn": 5457,
      "creating": 5458,
      "designation": 5459,
      "##ranean": 5460,
      "gate": 5461,
      "pione": 5462,
      "##ds": 5463,
      "##iva": 5464,
      "universities": 5465,
      "background": 5466,
      "##harmonic": 5467,
      "statistical": 5468,
      "tu": 5469,
      "##ando": 5470,
      "comed": 5471,
      "shut": 5472,
      "##sole": 5473,
      "branc": 5474,
      "##ieval": 5475,
      "cloth": 5476,
      "recover": 5477,
      "centre": 5478,
      "songwriter": 5479,
      "lasted": 5480,
      "occurs": 5481,
      "volume": 5482,
      "flowers": 5483,
      "hugo": 5484,
      "fit": 5485,
      "lam": 5486,
      "lakes": 5487,
      "##rus": 5488,
      "##cont": 5489,
      "contained": 5490,
      "colony": 5491,
      "flows": 5492,
      "feather": 5493,
      "median": 5494,
      "details": 5495,
      "turkish": 5496,
      "tibet": 5497,
      "franchise": 5498,
      "flanders": 5499,
      "sab": 5500,
      "vul": 5501,
      "wet": 5502,
      "##mund": 5503,
      "input": 5504,
      "##lets": 5505,
      "withd": 5506,
      "##aked": 5507,
      "brook": 5508,
      "rangers": 5509,
      "goaltender": 5510,
      "codes": 5511,
      "mile": 5512,
      "viet": 5513,
      "##zy": 5514,
      "wheel": 5515,
      "teen": 5516,
      "broke": 5517,
      "veget": 5518,
      "biology": 5519,
      "reading": 5520,
      "critical": 5521,
      "beatles": 5522,
      "goth": 5523,
      "##iology": 5524,
      "##yer": 5525,
      "1910": 5526,
      "reject": 5527,
      "##aste": 5528,
      "##phone": 5529,
      "northeastern": 5530,
      "presidential": 5531,
      "standards": 5532,
      "reports": 5533,
      "hitler": 5534,
      "prefecture": 5535,
      "granted": 5536,
      "sculpt": 5537,
      "ds": 5538,
      "##roit": 5539,
      "##iven": 5540,
      "arsen": 5541,
      "greece": 5542,
      "workers": 5543,
      "##ologists": 5544,
      "philip": 5545,
      "tribal": 5546,
      "defeat": 5547,
      "ranked": 5548,
      "municipalities": 5549,
      "sain": 5550,
      "##86": 5551,
      "##onian": 5552,
      "##ellor": 5553,
      "##ternal": 5554,
      "soil": 5555,
      "medieval": 5556,
      "1924": 5557,
      "philadel": 5558,
      "detroit": 5559,
      "architect": 5560,
      "emerg": 5561,
      "locomotive": 5562,
      "sweet": 5563,
      "rugby": 5564,
      "kit": 5565,
      "sail": 5566,
      "##tes": 5567,
      "##lan": 5568,
      "##mann": 5569,
      "##45": 5570,
      "##rees": 5571,
      "##iga": 5572,
      "##agan": 5573,
      "scen": 5574,
      "phoen": 5575,
      "##grade": 5576,
      "belt": 5577,
      "1926": 5578,
      "stands": 5579,
      "observed": 5580,
      "linked": 5581,
      "sunday": 5582,
      "traffic": 5583,
      "ay": 5584,
      "##ew": 5585,
      "##aling": 5586,
      "alp": 5587,
      "teach": 5588,
      "abd": 5589,
      "ministry": 5590,
      "reprod": 5591,
      "accident": 5592,
      "supply": 5593,
      "encour": 5594,
      "ferr": 5595,
      "captured": 5596,
      "subsequent": 5597,
      "felt": 5598,
      "philadelphia": 5599,
      "wine": 5600,
      "##fr": 5601,
      "##iled": 5602,
      "chain": 5603,
      "check": 5604,
      "portion": 5605,
      "midf": 5606,
      "literally": 5607,
      "uran": 5608,
      "orbits": 5609,
      "poetry": 5610,
      "locomotives": 5611,
      "##rig": 5612,
      "##inations": 5613,
      "grav": 5614,
      "grass": 5615,
      "##ogy": 5616,
      "noble": 5617,
      "owner": 5618,
      "avatar": 5619,
      "clean": 5620,
      "insects": 5621,
      "armenia": 5622,
      "definition": 5623,
      "bes": 5624,
      "##tv": 5625,
      "why": 5626,
      "coff": 5627,
      "ages": 5628,
      "relative": 5629,
      "remember": 5630,
      "reduced": 5631,
      "invented": 5632,
      "paid": 5633,
      "##iscons": 5634,
      "wiscons": 5635,
      "##wall": 5636,
      "stu": 5637,
      "prost": 5638,
      "##iful": 5639,
      "brid": 5640,
      "nothing": 5641,
      "deput": 5642,
      "recip": 5643,
      "soul": 5644,
      "pepper": 5645,
      "boys": 5646,
      "evil": 5647,
      "imag": 5648,
      "obl": 5649,
      "1923": 5650,
      "standing": 5651,
      "performing": 5652,
      "hyper": 5653,
      "hotel": 5654,
      "entirely": 5655,
      "choice": 5656,
      "celebrated": 5657,
      "hawai": 5658,
      "taylor": 5659,
      "tokyo": 5660,
      "aang": 5661,
      "dio": 5662,
      "germ": 5663,
      "ry": 5664,
      "rud": 5665,
      "##has": 5666,
      "##ishes": 5667,
      "##osis": 5668,
      "pros": 5669,
      "recomm": 5670,
      "##ropri": 5671,
      "follows": 5672,
      "officers": 5673,
      "protocol": 5674,
      "authors": 5675,
      "existence": 5676,
      "abbey": 5677,
      "banks": 5678,
      "escape": 5679,
      "pronounced": 5680,
      "succeeded": 5681,
      "47": 5682,
      "mol": 5683,
      "mak": 5684,
      "ow": 5685,
      "vary": 5686,
      "wag": 5687,
      "##yst": 5688,
      "recon": 5689,
      "disapp": 5690,
      "joe": 5691,
      "1950s": 5692,
      "mediter": 5693,
      "creek": 5694,
      "fab": 5695,
      "hell": 5696,
      "##found": 5697,
      "##asm": 5698,
      "abst": 5699,
      "aband": 5700,
      "knight": 5701,
      "councils": 5702,
      "keys": 5703,
      "summ": 5704,
      "lieuten": 5705,
      "domestic": 5706,
      "46": 5707,
      "bh": 5708,
      "ku": 5709,
      "lanc": 5710,
      "oak": 5711,
      "pav": 5712,
      "##urer": 5713,
      "items": 5714,
      "brian": 5715,
      "visited": 5716,
      "quebec": 5717,
      "declar": 5718,
      "contrast": 5719,
      "mediterranean": 5720,
      "aw": 5721,
      "##feld": 5722,
      "stay": 5723,
      "decor": 5724,
      "##ruction": 5725,
      "protected": 5726,
      "1917": 5727,
      "refused": 5728,
      "lightning": 5729,
      "baby": 5730,
      "aer": 5731,
      "ahead": 5732,
      "drop": 5733,
      "vic": 5734,
      "##iy": 5735,
      "##ek": 5736,
      "##order": 5737,
      "convers": 5738,
      "##ordan": 5739,
      "metres": 5740,
      "16th": 5741,
      "anna": 5742,
      "popularity": 5743,
      "existing": 5744,
      "karl": 5745,
      "distributed": 5746,
      "corner": 5747,
      "abbrevi": 5748,
      "earthquake": 5749,
      "bath": 5750,
      "bund": 5751,
      "tas": 5752,
      "yam": 5753,
      "##uins": 5754,
      "##cano": 5755,
      "##enue": 5756,
      "##level": 5757,
      "trail": 5758,
      "autonom": 5759,
      "journey": 5760,
      "dogs": 5761,
      "hollywood": 5762,
      "wisconsin": 5763,
      "lap": 5764,
      "lib": 5765,
      "##vement": 5766,
      "##olis": 5767,
      "worth": 5768,
      "teaching": 5769,
      "vert": 5770,
      "setting": 5771,
      "1922": 5772,
      "florence": 5773,
      "attacked": 5774,
      "application": 5775,
      "occupied": 5776,
      "liberal": 5777,
      "mammals": 5778,
      "bureau": 5779,
      "duch": 5780,
      "ech": 5781,
      "gust": 5782,
      "jess": 5783,
      "kon": 5784,
      "save": 5785,
      "##ray": 5786,
      "clock": 5787,
      "##angel": 5788,
      "parent": 5789,
      "founding": 5790,
      "attrib": 5791,
      "165": 5792,
      "interstate": 5793,
      "extra": 5794,
      "importance": 5795,
      "politics": 5796,
      "advance": 5797,
      "technical": 5798,
      "cambridge": 5799,
      "cuba": 5800,
      "bag": 5801,
      "fern": 5802,
      "##inity": 5803,
      "##rov": 5804,
      "seb": 5805,
      "norwe": 5806,
      "##aws": 5807,
      "albany": 5808,
      "canadiens": 5809,
      "christmas": 5810,
      "stream": 5811,
      "palm": 5812,
      "rhine": 5813,
      "lists": 5814,
      "mort": 5815,
      "niger": 5816,
      "##din": 5817,
      "geomet": 5818,
      "competed": 5819,
      "##helm": 5820,
      "walls": 5821,
      "treatment": 5822,
      "electrical": 5823,
      "perfect": 5824,
      "gabri": 5825,
      "wins": 5826,
      "unknown": 5827,
      "playoff": 5828,
      "decision": 5829,
      "musicians": 5830,
      "rocks": 5831,
      "antar": 5832,
      "1913": 5833,
      "1901": 5834,
      "critics": 5835,
      "happened": 5836,
      "assistant": 5837,
      "styles": 5838,
      "midfielder": 5839,
      "bos": 5840,
      "##fam": 5841,
      "ina": 5842,
      "##icient": 5843,
      "scored": 5844,
      "##ieties": 5845,
      "adding": 5846,
      "1928": 5847,
      "basil": 5848,
      "godd": 5849,
      "conservation": 5850,
      "##town": 5851,
      "##right": 5852,
      "gran": 5853,
      "induct": 5854,
      "floor": 5855,
      "ends": 5856,
      "moore": 5857,
      "starred": 5858,
      "billboard": 5859,
      "ah": 5860,
      "fitz": 5861,
      "gosp": 5862,
      "##su": 5863,
      "##aver": 5864,
      "##haus": 5865,
      "inner": 5866,
      "andor": 5867,
      "nep": 5868,
      "weak": 5869,
      "matthe": 5870,
      "offices": 5871,
      "alongside": 5872,
      "archae": 5873,
      "votes": 5874,
      "degrees": 5875,
      "fleet": 5876,
      "hub": 5877,
      "rival": 5878,
      "wolf": 5879,
      "##bu": 5880,
      "##een": 5881,
      "##rest": 5882,
      "##ication": 5883,
      "##anta": 5884,
      "scar": 5885,
      "reserve": 5886,
      "smok": 5887,
      "descend": 5888,
      "needs": 5889,
      "synt": 5890,
      "slowly": 5891,
      "printed": 5892,
      "phoenix": 5893,
      "norwegian": 5894,
      "sher": 5895,
      "tube": 5896,
      "##oir": 5897,
      "##rom": 5898,
      "##iti": 5899,
      "##utation": 5900,
      "##apes": 5901,
      "##sex": 5902,
      "simpl": 5903,
      "glas": 5904,
      "moons": 5905,
      "1914": 5906,
      "projects": 5907,
      "dropped": 5908,
      "permanent": 5909,
      "##gow": 5910,
      "##kins": 5911,
      "##75": 5912,
      "##iring": 5913,
      "consequ": 5914,
      "dragon": 5915,
      "signal": 5916,
      "1927": 5917,
      "railways": 5918,
      "everything": 5919,
      "arrived": 5920,
      "immigr": 5921,
      "flowering": 5922,
      "buddh": 5923,
      "satellite": 5924,
      "bapt": 5925,
      "lion": 5926,
      "si": 5927,
      "tip": 5928,
      "vanc": 5929,
      "##ture": 5930,
      "anch": 5931,
      "console": 5932,
      "firm": 5933,
      "medium": 5934,
      "harrison": 5935,
      "begin": 5936,
      "advis": 5937,
      "traveled": 5938,
      "hundreds": 5939,
      "munich": 5940,
      "gets": 5941,
      "josa": 5942,
      "pel": 5943,
      "pull": 5944,
      "##eor": 5945,
      "##28": 5946,
      "##wald": 5947,
      "##36": 5948,
      "##ouver": 5949,
      "##olas": 5950,
      "##tery": 5951,
      "ariz": 5952,
      "partner": 5953,
      "resemb": 5954,
      "warning": 5955,
      "maintain": 5956,
      "models": 5957,
      "##obox": 5958,
      "developing": 5959,
      "classification": 5960,
      "equator": 5961,
      "losing": 5962,
      "collabor": 5963,
      "achieved": 5964,
      "integr": 5965,
      "kor": 5966,
      "##bro": 5967,
      "##arm": 5968,
      "seed": 5969,
      "adap": 5970,
      "##cluded": 5971,
      "agent": 5972,
      "##text": 5973,
      "undert": 5974,
      "useful": 5975,
      "solution": 5976,
      "philharmonic": 5977,
      "camps": 5978,
      "producing": 5979,
      "looking": 5980,
      "samuel": 5981,
      "liquid": 5982,
      "sodium": 5983,
      "caesar": 5984,
      "saturday": 5985,
      "gord": 5986,
      "hid": 5987,
      "hip": 5988,
      "##ho": 5989,
      "##zen": 5990,
      "##38": 5991,
      "##inals": 5992,
      "lev": 5993,
      "shoot": 5994,
      "##ighter": 5995,
      "##athan": 5996,
      "elections": 5997,
      "showing": 5998,
      "##oba": 5999,
      "armed": 6000,
      "coastal": 6001,
      "volcano": 6002,
      "ultr": 6003,
      "boundary": 6004,
      "sacr": 6005,
      "protestant": 6006,
      "vancouver": 6007,
      "arizona": 6008,
      "cena": 6009,
      "hans": 6010,
      "kaz": 6011,
      "##35": 6012,
      "ingr": 6013,
      "##entric": 6014,
      "##acement": 6015,
      "reaching": 6016,
      "heb": 6017,
      "prais": 6018,
      "evolved": 6019,
      "doing": 6020,
      "subs": 6021,
      "attend": 6022,
      "entitled": 6023,
      "equip": 6024,
      "authorities": 6025,
      "michel": 6026,
      "##general": 6027,
      "oxide": 6028,
      "birming": 6029,
      "wilhelm": 6030,
      "dominican": 6031,
      "bowl": 6032,
      "birmingham": 6033,
      "cad": 6034,
      "ft": 6035,
      "lav": 6036,
      "pian": 6037,
      "tick": 6038,
      "##oral": 6039,
      "##orage": 6040,
      "orton": 6041,
      "##opes": 6042,
      "coordin": 6043,
      "simon": 6044,
      "signature": 6045,
      "campus": 6046,
      "successor": 6047,
      "advant": 6048,
      "techniques": 6049,
      "concentration": 6050,
      "bronze": 6051,
      "lux": 6052,
      "selling": 6053,
      "##jo": 6054,
      "##eration": 6055,
      "##lyn": 6056,
      "plane": 6057,
      "currency": 6058,
      "extension": 6059,
      "invasion": 6060,
      "publication": 6061,
      "officials": 6062,
      "categories": 6063,
      "couple": 6064,
      "rarely": 6065,
      "hong": 6066,
      "mong": 6067,
      "mike": 6068,
      "ok": 6069,
      "por": 6070,
      "sisters": 6071,
      "##eg": 6072,
      "##estone": 6073,
      "decre": 6074,
      "meteor": 6075,
      "represents": 6076,
      "representatives": 6077,
      "encry": 6078,
      "horiz": 6079,
      "reaction": 6080,
      "sequence": 6081,
      "challeng": 6082,
      "households": 6083,
      "##ladesh": 6084,
      "bangladesh": 6085,
      "bavaria": 6086,
      "tiss": 6087,
      "##ns": 6088,
      "inher": 6089,
      "##uri": 6090,
      "reward": 6091,
      "##agues": 6092,
      "##artney": 6093,
      "##sey": 6094,
      "composition": 6095,
      "forming": 6096,
      "preced": 6097,
      "swim": 6098,
      "mainland": 6099,
      "168": 6100,
      "obtained": 6101,
      "miller": 6102,
      "experiment": 6103,
      "constitu": 6104,
      "translation": 6105,
      "displayed": 6106,
      "drummer": 6107,
      "rhythm": 6108,
      "arkansas": 6109,
      "eclip": 6110,
      "deputy": 6111,
      "dj": 6112,
      "mp": 6113,
      "pad": 6114,
      "##raine": 6115,
      "iso": 6116,
      "stret": 6117,
      "##igen": 6118,
      "##ogue": 6119,
      "meters": 6120,
      "finish": 6121,
      "defender": 6122,
      "steve": 6123,
      "##minster": 6124,
      "youngest": 6125,
      "confeder": 6126,
      "scientists": 6127,
      "sharp": 6128,
      "painter": 6129,
      "geneva": 6130,
      "filled": 6131,
      "mercury": 6132,
      "hence": 6133,
      "tun": 6134,
      "##room": 6135,
      "reasons": 6136,
      "external": 6137,
      "teeth": 6138,
      "warri": 6139,
      "throne": 6140,
      "attached": 6141,
      "occas": 6142,
      "1911": 6143,
      "charts": 6144,
      "gardens": 6145,
      "muslims": 6146,
      "alfred": 6147,
      "kennedy": 6148,
      "weapons": 6149,
      "iraq": 6150,
      "sid": 6151,
      "##ev": 6152,
      "##no": 6153,
      "##lete": 6154,
      "asc": 6155,
      "displ": 6156,
      "pret": 6157,
      "genera": 6158,
      "chronic": 6159,
      "difference": 6160,
      "receive": 6161,
      "galax": 6162,
      "magnetic": 6163,
      "hydrogen": 6164,
      "rolling": 6165,
      "rebu": 6166,
      "converted": 6167,
      "transferred": 6168,
      "bobby": 6169,
      "jefferson": 6170,
      "atomic": 6171,
      "abstract": 6172,
      "00": 6173,
      "eric": 6174,
      "xx": 6175,
      "##cw": 6176,
      "##21": 6177,
      "##icut": 6178,
      "##ucing": 6179,
      "flash": 6180,
      "describes": 6181,
      "rapidly": 6182,
      "85": 6183,
      "buck": 6184,
      "lem": 6185,
      "migr": 6186,
      "ng": 6187,
      "sie": 6188,
      "##uits": 6189,
      "plot": 6190,
      "dram": 6191,
      "1921": 6192,
      "cultiv": 6193,
      "historically": 6194,
      "connection": 6195,
      "opposed": 6196,
      "affected": 6197,
      "painting": 6198,
      "argentina": 6199,
      "candidate": 6200,
      "occasionally": 6201,
      "chancellor": 6202,
      "dipl": 6203,
      "nut": 6204,
      "ton": 6205,
      "wound": 6206,
      "##bird": 6207,
      "##part": 6208,
      "##34": 6209,
      "##anna": 6210,
      "starts": 6211,
      "1931": 6212,
      "changing": 6213,
      "visual": 6214,
      "chemistry": 6215,
      "laboratory": 6216,
      "hebrew": 6217,
      "sind": 6218,
      "vau": 6219,
      "##dam": 6220,
      "##mith": 6221,
      "stages": 6222,
      "rein": 6223,
      "flo": 6224,
      "120": 6225,
      "crust": 6226,
      "##alty": 6227,
      "gods": 6228,
      "physic": 6229,
      "connecticut": 6230,
      "unusual": 6231,
      "branches": 6232,
      "ale": 6233,
      "eag": 6234,
      "f1": 6235,
      "tunn": 6236,
      "##uv": 6237,
      "##hamm": 6238,
      "##rad": 6239,
      "##39": 6240,
      "shore": 6241,
      "grace": 6242,
      "interp": 6243,
      "interact": 6244,
      "hurricanes": 6245,
      "survived": 6246,
      "homes": 6247,
      "contributions": 6248,
      "belongs": 6249,
      "thousand": 6250,
      "beautiful": 6251,
      "taiwan": 6252,
      "##mat": 6253,
      "##ori": 6254,
      "##ares": 6255,
      "##rell": 6256,
      "##agu": 6257,
      "##uma": 6258,
      "sole": 6259,
      "inches": 6260,
      "##ographical": 6261,
      "approach": 6262,
      "technique": 6263,
      "malays": 6264,
      "graduated": 6265,
      "##cluse": 6266,
      "fossils": 6267,
      "philosopher": 6268,
      "huge": 6269,
      "tools": 6270,
      "supreme": 6271,
      "mond": 6272,
      "pir": 6273,
      "anime": 6274,
      "##icts": 6275,
      "##otte": 6276,
      "algor": 6277,
      "##essee": 6278,
      "pra": 6279,
      "abol": 6280,
      "##oker": 6281,
      "saff": 6282,
      "governments": 6283,
      "continues": 6284,
      "radiation": 6285,
      "getting": 6286,
      "rainfall": 6287,
      "temperatures": 6288,
      "distinguished": 6289,
      "hang": 6290,
      "pas": 6291,
      "ske": 6292,
      "sections": 6293,
      "zero": 6294,
      "afgh": 6295,
      "##amps": 6296,
      "extensive": 6297,
      "denmark": 6298,
      "holding": 6299,
      "cyclones": 6300,
      "failure": 6301,
      "facilities": 6302,
      "tennessee": 6303,
      "fixed": 6304,
      "renault": 6305,
      "##ropriate": 6306,
      "glasgow": 6307,
      "vaucluse": 6308,
      "bour": 6309,
      "bald": 6310,
      "cot": 6311,
      "wond": 6312,
      "##uge": 6313,
      "##ients": 6314,
      "##ading": 6315,
      "reality": 6316,
      "depos": 6317,
      "broken": 6318,
      "matt": 6319,
      "leaders": 6320,
      "periods": 6321,
      "communities": 6322,
      "influential": 6323,
      "suggests": 6324,
      "franklin": 6325,
      "argentine": 6326,
      "abbreviated": 6327,
      "equipment": 6328,
      "nel": 6329,
      "senna": 6330,
      "##27": 6331,
      "##oted": 6332,
      "monte": 6333,
      "subm": 6334,
      "instance": 6335,
      "temporary": 6336,
      "easy": 6337,
      "##uka": 6338,
      "surrounded": 6339,
      "intelligence": 6340,
      "resources": 6341,
      "cric": 6342,
      "rid": 6343,
      "veter": 6344,
      "wides": 6345,
      "yank": 6346,
      "##bach": 6347,
      "##han": 6348,
      "tob": 6349,
      "stores": 6350,
      "forests": 6351,
      "friday": 6352,
      "resident": 6353,
      "feud": 6354,
      "amate": 6355,
      "verte": 6356,
      "westminster": 6357,
      "impl": 6358,
      "##spe": 6359,
      "performances": 6360,
      "1908": 6361,
      "institutions": 6362,
      "baden": 6363,
      "drafted": 6364,
      "ethnic": 6365,
      "favorite": 6366,
      "lieutenant": 6367,
      "goddess": 6368,
      "berm": 6369,
      "rice": 6370,
      "##top": 6371,
      "##lar": 6372,
      "##hard": 6373,
      "ana": 6374,
      "stick": 6375,
      "orient": 6376,
      "usage": 6377,
      "norway": 6378,
      "quart": 6379,
      "##aiss": 6380,
      "evening": 6381,
      "volcan": 6382,
      "hamburg": 6383,
      "institution": 6384,
      "wilson": 6385,
      "layer": 6386,
      "settled": 6387,
      "suffered": 6388,
      "hors": 6389,
      "##gard": 6390,
      "sta": 6391,
      "stayed": 6392,
      "##umber": 6393,
      "nept": 6394,
      "residents": 6395,
      "carp": 6396,
      "meets": 6397,
      "harm": 6398,
      "academic": 6399,
      "striker": 6400,
      "comedian": 6401,
      "coffee": 6402,
      "2nd": 6403,
      "eug": 6404,
      "jones": 6405,
      "zo": 6406,
      "clinton": 6407,
      "roots": 6408,
      "howard": 6409,
      "crim": 6410,
      "leadership": 6411,
      "returns": 6412,
      "supporting": 6413,
      "confused": 6414,
      "oxy": 6415,
      "discussion": 6416,
      "gather": 6417,
      "rna": 6418,
      "sort": 6419,
      "##life": 6420,
      "##elect": 6421,
      "isol": 6422,
      "appe": 6423,
      "actions": 6424,
      "window": 6425,
      "massive": 6426,
      "infobox": 6427,
      "representative": 6428,
      "journalist": 6429,
      "napole": 6430,
      "afghan": 6431,
      "54": 6432,
      "jar": 6433,
      "mall": 6434,
      "ni": 6435,
      "pant": 6436,
      "tong": 6437,
      "##sk": 6438,
      "##card": 6439,
      "##etr": 6440,
      "##ushed": 6441,
      "heard": 6442,
      "sust": 6443,
      "trying": 6444,
      "adam": 6445,
      "##prise": 6446,
      "phase": 6447,
      "guine": 6448,
      "originated": 6449,
      "principle": 6450,
      "compete": 6451,
      "historian": 6452,
      "audience": 6453,
      "negative": 6454,
      "thirty": 6455,
      "lyrics": 6456,
      "airb": 6457,
      "mask": 6458,
      "ves": 6459,
      "##arp": 6460,
      "##aca": 6461,
      "really": 6462,
      "##imens": 6463,
      "##erse": 6464,
      "##opher": 6465,
      "shadow": 6466,
      "calls": 6467,
      "desert": 6468,
      "offers": 6469,
      "finland": 6470,
      "differences": 6471,
      "invited": 6472,
      "##engers": 6473,
      "revol": 6474,
      "devices": 6475,
      "socialist": 6476,
      "zeus": 6477,
      "illeg": 6478,
      "pilot": 6479,
      "adventures": 6480,
      "vehicles": 6481,
      "grammy": 6482,
      "kelly": 6483,
      "friedrich": 6484,
      "matthew": 6485,
      "##aissance": 6486,
      "eighth": 6487,
      "kal": 6488,
      "rib": 6489,
      "##icial": 6490,
      "frame": 6491,
      "chose": 6492,
      "unable": 6493,
      "arist": 6494,
      "whereas": 6495,
      "retro": 6496,
      "130": 6497,
      "1916": 6498,
      "virus": 6499,
      "eleph": 6500,
      "heavily": 6501,
      "honey": 6502,
      "factory": 6503,
      "economics": 6504,
      "senator": 6505,
      "views": 6506,
      "fishing": 6507,
      "mathematical": 6508,
      "burg": 6509,
      "cin": 6510,
      "iod": 6511,
      "kiss": 6512,
      "rio": 6513,
      "sad": 6514,
      "sight": 6515,
      "##pread": 6516,
      "##king": 6517,
      "##oro": 6518,
      "##isted": 6519,
      "exists": 6520,
      "margar": 6521,
      "##ocks": 6522,
      "##teenth": 6523,
      "austin": 6524,
      "legs": 6525,
      "downlo": 6526,
      "circum": 6527,
      "utah": 6528,
      "billy": 6529,
      "ecc": 6530,
      "jama": 6531,
      "##sons": 6532,
      "##via": 6533,
      "##29": 6534,
      "##avia": 6535,
      "seats": 6536,
      "##izard": 6537,
      "formally": 6538,
      "##ahon": 6539,
      "instant": 6540,
      "roads": 6541,
      "madison": 6542,
      "dynam": 6543,
      "flooding": 6544,
      "philippines": 6545,
      "cards": 6546,
      "gon": 6547,
      "hamp": 6548,
      "mik": 6549,
      "pc": 6550,
      "##dale": 6551,
      "##wart": 6552,
      "##sters": 6553,
      "waste": 6554,
      "##iration": 6555,
      "##char": 6556,
      "spa": 6557,
      "resort": 6558,
      "wealth": 6559,
      "struck": 6560,
      "remove": 6561,
      "reduce": 6562,
      "treas": 6563,
      "circulation": 6564,
      "limit": 6565,
      "mathematic": 6566,
      "negot": 6567,
      "vehicle": 6568,
      "hemisp": 6569,
      "##ographer": 6570,
      "weakened": 6571,
      "widespread": 6572,
      "cable": 6573,
      "uef": 6574,
      "anat": 6575,
      "thing": 6576,
      "##uls": 6577,
      "chance": 6578,
      "demand": 6579,
      "visible": 6580,
      "requires": 6581,
      "missour": 6582,
      "weekly": 6583,
      "ranging": 6584,
      "absor": 6585,
      "chapel": 6586,
      "kilometers": 6587,
      "instructions": 6588,
      "theatre": 6589,
      "vocalist": 6590,
      "jenn": 6591,
      "luther": 6592,
      "mud": 6593,
      "soph": 6594,
      "##anks": 6595,
      "##orph": 6596,
      "toward": 6597,
      "##eline": 6598,
      "brab": 6599,
      "##geon": 6600,
      "##assic": 6601,
      "americans": 6602,
      "17th": 6603,
      "passing": 6604,
      "characteristics": 6605,
      "1905": 6606,
      "goods": 6607,
      "situation": 6608,
      "surviving": 6609,
      "colonial": 6610,
      "environmental": 6611,
      "paintings": 6612,
      "resistance": 6613,
      "programming": 6614,
      "vietnam": 6615,
      "emergency": 6616,
      "neptune": 6617,
      "eccentric": 6618,
      "drug": 6619,
      "##iated": 6620,
      "##gie": 6621,
      "##rum": 6622,
      "##omy": 6623,
      "grah": 6624,
      "greg": 6625,
      "polar": 6626,
      "metro": 6627,
      "##obe": 6628,
      "organic": 6629,
      "magic": 6630,
      "patrick": 6631,
      "determined": 6632,
      "subdivision": 6633,
      "dinosaurs": 6634,
      "hawaii": 6635,
      "beng": 6636,
      "cous": 6637,
      "hiro": 6638,
      "ky": 6639,
      "nat": 6640,
      "pink": 6641,
      "send": 6642,
      "##bi": 6643,
      "##err": 6644,
      "##lying": 6645,
      "plus": 6646,
      "##apers": 6647,
      "enfor": 6648,
      "sho": 6649,
      "166": 6650,
      "concerts": 6651,
      "speaking": 6652,
      "christianity": 6653,
      "recognition": 6654,
      "licens": 6655,
      "attempted": 6656,
      "asteroids": 6657,
      "uefa": 6658,
      "3rd": 6659,
      "cem": 6660,
      "fan": 6661,
      "ian": 6662,
      "ny": 6663,
      "wy": 6664,
      "##aels": 6665,
      "##rix": 6666,
      "##97": 6667,
      "reich": 6668,
      "whit": 6669,
      "claud": 6670,
      "canon": 6671,
      "##ensions": 6672,
      "1903": 6673,
      "introduction": 6674,
      "paulo": 6675,
      "attempts": 6676,
      "benj": 6677,
      "drums": 6678,
      "orders": 6679,
      "bermuda": 6680,
      "cemeter": 6681,
      "51": 6682,
      "##sky": 6683,
      "##master": 6684,
      "##85": 6685,
      "##erals": 6686,
      "##orters": 6687,
      "strug": 6688,
      "livingstone": 6689,
      "crossing": 6690,
      "urdu": 6691,
      "automatically": 6692,
      "evolutionary": 6693,
      "nickname": 6694,
      "threatened": 6695,
      "accompan": 6696,
      "dorm": 6697,
      "ti": 6698,
      "waves": 6699,
      "##26": 6700,
      "thro": 6701,
      "##agne": 6702,
      "174": 6703,
      "maintained": 6704,
      "##gerald": 6705,
      "efforts": 6706,
      "reviews": 6707,
      "eaten": 6708,
      "learned": 6709,
      "acquired": 6710,
      "fitzgerald": 6711,
      "adapted": 6712,
      "interpret": 6713,
      "oxygen": 6714,
      "missouri": 6715,
      "dating": 6716,
      "gael": 6717,
      "mant": 6718,
      "pure": 6719,
      "tony": 6720,
      "witch": 6721,
      "##bar": 6722,
      "##come": 6723,
      "##wing": 6724,
      "##oming": 6725,
      "##oli": 6726,
      "cream": 6727,
      "emot": 6728,
      "persons": 6729,
      "##amental": 6730,
      "policies": 6731,
      "carlos": 6732,
      "dioxide": 6733,
      "gian": 6734,
      "gang": 6735,
      "gund": 6736,
      "forec": 6737,
      "chick": 6738,
      "meg": 6739,
      "decades": 6740,
      "door": 6741,
      "assass": 6742,
      "milan": 6743,
      "##enez": 6744,
      "hunt": 6745,
      "egyptian": 6746,
      "romantic": 6747,
      "observations": 6748,
      "spiritual": 6749,
      "lewis": 6750,
      "amateur": 6751,
      "aim": 6752,
      "dia": 6753,
      "mail": 6754,
      "##inum": 6755,
      "##ilo": 6756,
      "##uto": 6757,
      "price": 6758,
      "##ruption": 6759,
      "164": 6760,
      "anyone": 6761,
      "damaged": 6762,
      "homer": 6763,
      "consisted": 6764,
      "mcmahon": 6765,
      "abandoned": 6766,
      "advantage": 6767,
      "kur": 6768,
      "rene": 6769,
      "##tml": 6770,
      "##fs": 6771,
      "##adu": 6772,
      "##ulus": 6773,
      "heir": 6774,
      "##ongwriter": 6775,
      "driving": 6776,
      "1930s": 6777,
      "holiday": 6778,
      "michaels": 6779,
      "horror": 6780,
      "madrid": 6781,
      "violence": 6782,
      "narr": 6783,
      "colonies": 6784,
      "essay": 6785,
      "elder": 6786,
      "indonesia": 6787,
      "phrase": 6788,
      "strugg": 6789,
      "66": 6790,
      "bach": 6791,
      "golf": 6792,
      "rick": 6793,
      "##fe": 6794,
      "tox": 6795,
      "storage": 6796,
      "##acle": 6797,
      "##emen": 6798,
      "##utt": 6799,
      "##illed": 6800,
      "consult": 6801,
      "warner": 6802,
      "amaz": 6803,
      "empt": 6804,
      "laur": 6805,
      "crash": 6806,
      "juan": 6807,
      "designs": 6808,
      "passes": 6809,
      "editors": 6810,
      "capture": 6811,
      "pitts": 6812,
      "##yearold": 6813,
      "springs": 6814,
      "jacob": 6815,
      "habitat": 6816,
      "benjamin": 6817,
      "cemetery": 6818,
      "56": 6819,
      "800": 6820,
      "dick": 6821,
      "gm": 6822,
      "##uy": 6823,
      "##33": 6824,
      "##aven": 6825,
      "##iph": 6826,
      "##ective": 6827,
      "index": 6828,
      "maine": 6829,
      "defend": 6830,
      "corps": 6831,
      "skull": 6832,
      "christopher": 6833,
      "##erto": 6834,
      "communist": 6835,
      "turns": 6836,
      "renaissance": 6837,
      "louisiana": 6838,
      "exception": 6839,
      "bulgar": 6840,
      "browser": 6841,
      "aid": 6842,
      "hou": 6843,
      "lan": 6844,
      "lud": 6845,
      "##ocated": 6846,
      "##ears": 6847,
      "partn": 6848,
      "herb": 6849,
      "specified": 6850,
      "poison": 6851,
      "##rows": 6852,
      "factor": 6853,
      "transportation": 6854,
      "lotus": 6855,
      "luke": 6856,
      "repeated": 6857,
      "molecular": 6858,
      "aberde": 6859,
      "mongol": 6860,
      "afghanistan": 6861,
      "graham": 6862,
      "bone": 6863,
      "lis": 6864,
      "ms": 6865,
      "pont": 6866,
      "rabb": 6867,
      "##77": 6868,
      "##tha": 6869,
      "shir": 6870,
      "warn": 6871,
      "##spec": 6872,
      "supposed": 6873,
      "divor": 6874,
      "1907": 6875,
      "lesser": 6876,
      "editing": 6877,
      "involving": 6878,
      "##ascar": 6879,
      "powder": 6880,
      "housing": 6881,
      "antonio": 6882,
      "purchased": 6883,
      "dangerous": 6884,
      "withdra": 6885,
      "jordan": 6886,
      "kan": 6887,
      "lug": 6888,
      "tat": 6889,
      "wo": 6890,
      "##pher": 6891,
      "##erate": 6892,
      "##ema": 6893,
      "disk": 6894,
      "meat": 6895,
      "genet": 6896,
      "populations": 6897,
      "drom": 6898,
      "moves": 6899,
      "sword": 6900,
      "invent": 6901,
      "250": 6902,
      "cattle": 6903,
      "helps": 6904,
      "balls": 6905,
      "julian": 6906,
      "communication": 6907,
      "ceremon": 6908,
      "singersongwriter": 6909,
      "datab": 6910,
      "inclination": 6911,
      "cricket": 6912,
      "bib": 6913,
      "ivan": 6914,
      "lob": 6915,
      "risk": 6916,
      "sart": 6917,
      "wants": 6918,
      "##iate": 6919,
      "##eenth": 6920,
      "##core": 6921,
      "##erb": 6922,
      "##arus": 6923,
      "##lem": 6924,
      "##aments": 6925,
      "##umes": 6926,
      "seal": 6927,
      "lear": 6928,
      "context": 6929,
      "flavor": 6930,
      "root": 6931,
      "shear": 6932,
      "genre": 6933,
      "##ahn": 6934,
      "guy": 6935,
      "slovak": 6936,
      "annually": 6937,
      "basin": 6938,
      "exped": 6939,
      "1915": 6940,
      "arrested": 6941,
      "libert": 6942,
      "hunting": 6943,
      "doctr": 6944,
      "eleven": 6945,
      "anthony": 6946,
      "diplom": 6947,
      "hemisphere": 6948,
      "49": 6949,
      "600": 6950,
      "faster": 6951,
      "herman": 6952,
      "sul": 6953,
      "vision": 6954,
      "wes": 6955,
      "wcw": 6956,
      "##law": 6957,
      "##gio": 6958,
      "##haw": 6959,
      "##entially": 6960,
      "sup": 6961,
      "neither": 6962,
      "lea": 6963,
      "##sea": 6964,
      "##place": 6965,
      "carter": 6966,
      "edmund": 6967,
      "seconds": 6968,
      "155": 6969,
      "shortened": 6970,
      "anthem": 6971,
      "representing": 6972,
      "survey": 6973,
      "expressed": 6974,
      "vacc": 6975,
      "##what": 6976,
      "inducted": 6977,
      "cave": 6978,
      "gay": 6979,
      "lt": 6980,
      "nest": 6981,
      "pock": 6982,
      "tang": 6983,
      "task": 6984,
      "yug": 6985,
      "##uz": 6986,
      "##dd": 6987,
      "##fly": 6988,
      "##rete": 6989,
      "##uled": 6990,
      "hein": 6991,
      "suce": 6992,
      "worship": 6993,
      "severe": 6994,
      "animation": 6995,
      "tribut": 6996,
      "mosque": 6997,
      "routes": 6998,
      "improve": 6999,
      "puerto": 7000,
      "prussia": 7001,
      "bones": 7002,
      "cert": 7003,
      "option": 7004,
      "rc": 7005,
      "##ui": 7006,
      "##uro": 7007,
      "##po": 7008,
      "##zburg": 7009,
      "tries": 7010,
      "leap": 7011,
      "manner": 7012,
      "##onda": 7013,
      "scr": 7014,
      "somewhat": 7015,
      "actors": 7016,
      "poem": 7017,
      "airlines": 7018,
      "slide": 7019,
      "announc": 7020,
      "childhood": 7021,
      "succession": 7022,
      "croc": 7023,
      "electricity": 7024,
      "strait": 7025,
      "artistic": 7026,
      "indicate": 7027,
      "hindu": 7028,
      "liverpool": 7029,
      "volcanic": 7030,
      "danish": 7031,
      "gim": 7032,
      "haz": 7033,
      "##ran": 7034,
      "##pass": 7035,
      "##fc": 7036,
      "##father": 7037,
      "##78": 7038,
      "##orig": 7039,
      "##chi": 7040,
      "##oster": 7041,
      "canal": 7042,
      "decade": 7043,
      "mining": 7044,
      "publishing": 7045,
      "##atherine": 7046,
      "retire": 7047,
      "catch": 7048,
      "emphas": 7049,
      "timber": 7050,
      "promote": 7051,
      "convection": 7052,
      "pleas": 7053,
      "flying": 7054,
      "cock": 7055,
      "dum": 7056,
      "erect": 7057,
      "gor": 7058,
      "nik": 7059,
      "pup": 7060,
      "rb": 7061,
      "tusc": 7062,
      "ward": 7063,
      "##23": 7064,
      "isle": 7065,
      "thor": 7066,
      "##igi": 7067,
      "##essions": 7068,
      "##auge": 7069,
      "preserved": 7070,
      "baron": 7071,
      "statement": 7072,
      "1890": 7073,
      "affect": 7074,
      "testament": 7075,
      "peters": 7076,
      "navig": 7077,
      "ranges": 7078,
      "revolutionary": 7079,
      "axis": 7080,
      "telephone": 7081,
      "statistics": 7082,
      "sauce": 7083,
      "buffalo": 7084,
      "saints": 7085,
      "duchy": 7086,
      "fia": 7087,
      "fold": 7088,
      "kg": 7089,
      "lon": 7090,
      "session": 7091,
      "torn": 7092,
      "vamp": 7093,
      "##gate": 7094,
      "##vis": 7095,
      "##kh": 7096,
      "##furt": 7097,
      "##eless": 7098,
      "proved": 7099,
      "mineral": 7100,
      "guide": 7101,
      "recordings": 7102,
      "variation": 7103,
      "descent": 7104,
      "christians": 7105,
      "networks": 7106,
      "davis": 7107,
      "ballet": 7108,
      "globe": 7109,
      "maple": 7110,
      "arranged": 7111,
      "##claimed": 7112,
      "nelson": 7113,
      "dir": 7114,
      "hollow": 7115,
      "tin": 7116,
      "##aco": 7117,
      "##apolis": 7118,
      "gra": 7119,
      "manh": 7120,
      "appropriate": 7121,
      "charter": 7122,
      "##hesis": 7123,
      "finishing": 7124,
      "headed": 7125,
      "tourist": 7126,
      "lawr": 7127,
      "##apping": 7128,
      "processing": 7129,
      "egg": 7130,
      "walloon": 7131,
      "finds": 7132,
      "documents": 7133,
      "sarah": 7134,
      "##break": 7135,
      "chromos": 7136,
      "##hammad": 7137,
      "suceava": 7138,
      "dru": 7139,
      "gent": 7140,
      "##sch": 7141,
      "trou": 7142,
      "brun": 7143,
      "bruce": 7144,
      "aborig": 7145,
      "##ucks": 7146,
      "blind": 7147,
      "impress": 7148,
      "interested": 7149,
      "opin": 7150,
      "operates": 7151,
      "personality": 7152,
      "berger": 7153,
      "copyr": 7154,
      "1895": 7155,
      "hosts": 7156,
      "billi": 7157,
      "width": 7158,
      "##borough": 7159,
      "choose": 7160,
      "winners": 7161,
      "mccartney": 7162,
      "nitro": 7163,
      "herself": 7164,
      "encyclopedia": 7165,
      "entrance": 7166,
      "guinea": 7167,
      "fisher": 7168,
      "jam": 7169,
      "junction": 7170,
      "kl": 7171,
      "mouse": 7172,
      "vs": 7173,
      "ya": 7174,
      "##vens": 7175,
      "##95": 7176,
      "##asian": 7177,
      "exerc": 7178,
      "brom": 7179,
      "notice": 7180,
      "strat": 7181,
      "switch": 7182,
      "easier": 7183,
      "expand": 7184,
      "terror": 7185,
      "productions": 7186,
      "delta": 7187,
      "1904": 7188,
      "experi": 7189,
      "##track": 7190,
      "visitors": 7191,
      "feathers": 7192,
      "wagner": 7193,
      "cord": 7194,
      "crop": 7195,
      "hes": 7196,
      "hud": 7197,
      "vest": 7198,
      "##gart": 7199,
      "##nor": 7200,
      "##cious": 7201,
      "##itals": 7202,
      "##aman": 7203,
      "##ilation": 7204,
      "encl": 7205,
      "##emberg": 7206,
      "##orship": 7207,
      "mode": 7208,
      "landsc": 7209,
      "1902": 7210,
      "louise": 7211,
      "encounter": 7212,
      "logic": 7213,
      "##attan": 7214,
      "typh": 7215,
      "scheme": 7216,
      "gordon": 7217,
      "bond": 7218,
      "dh": 7219,
      "eisen": 7220,
      "gone": 7221,
      "hits": 7222,
      "lun": 7223,
      "rtt": 7224,
      "sr": 7225,
      "sick": 7226,
      "locations": 7227,
      "14th": 7228,
      "providing": 7229,
      "accur": 7230,
      "15th": 7231,
      "##ifications": 7232,
      "laid": 7233,
      "engineer": 7234,
      "missing": 7235,
      "seattle": 7236,
      "crossed": 7237,
      "predators": 7238,
      "magnitude": 7239,
      "township": 7240,
      "newspapers": 7241,
      "##keeper": 7242,
      "5th": 7243,
      "##iary": 7244,
      "##di": 7245,
      "##ystem": 7246,
      "##inate": 7247,
      "andre": 7248,
      "##usal": 7249,
      "spaces": 7250,
      "##assium": 7251,
      "scout": 7252,
      "dism": 7253,
      "evac": 7254,
      "##inner": 7255,
      "treated": 7256,
      "receiving": 7257,
      "killing": 7258,
      "##heless": 7259,
      "contributed": 7260,
      "##regon": 7261,
      "observatory": 7262,
      "portugal": 7263,
      "charlotte": 7264,
      "touch": 7265,
      "inaug": 7266,
      "lawrence": 7267,
      "nich": 7268,
      "ninet": 7269,
      "osc": 7270,
      "oregon": 7271,
      "tie": 7272,
      "xbox": 7273,
      "##iot": 7274,
      "##rent": 7275,
      "##eries": 7276,
      "##atl": 7277,
      "##stad": 7278,
      "##rot": 7279,
      "cancel": 7280,
      "twin": 7281,
      "guerr": 7282,
      "files": 7283,
      "fifa": 7284,
      "executed": 7285,
      "audio": 7286,
      "adults": 7287,
      "cartoon": 7288,
      "protein": 7289,
      "crystal": 7290,
      "roger": 7291,
      "autonomous": 7292,
      "pittsburgh": 7293,
      "bun": 7294,
      "gain": 7295,
      "gif": 7296,
      "gym": 7297,
      "hide": 7298,
      "kak": 7299,
      "mtv": 7300,
      "pitch": 7301,
      "util": 7302,
      "##gas": 7303,
      "##fellow": 7304,
      "##erl": 7305,
      "##unte": 7306,
      "athens": 7307,
      "plastic": 7308,
      "spelled": 7309,
      "grade": 7310,
      "intel": 7311,
      "##achi": 7312,
      "reputation": 7313,
      "remark": 7314,
      "interf": 7315,
      "passengers": 7316,
      "steam": 7317,
      "drawn": 7318,
      "hole": 7319,
      "expression": 7320,
      "diego": 7321,
      "criticism": 7322,
      "quantum": 7323,
      "athletes": 7324,
      "prepared": 7325,
      "sudden": 7326,
      "declaration": 7327,
      "41": 7328,
      "caught": 7329,
      "nash": 7330,
      "##rill": 7331,
      "##wig": 7332,
      "##98": 7333,
      "##folk": 7334,
      "##urance": 7335,
      "##idel": 7336,
      "##oche": 7337,
      "triang": 7338,
      "leo": 7339,
      "roof": 7340,
      "monaster": 7341,
      "consec": 7342,
      "dress": 7343,
      "##anni": 7344,
      "appearing": 7345,
      "particles": 7346,
      "##ipping": 7347,
      "volunte": 7348,
      "debate": 7349,
      "sounds": 7350,
      "novelist": 7351,
      "regularly": 7352,
      "promoted": 7353,
      "wildlife": 7354,
      "##iliar": 7355,
      "mechanics": 7356,
      "chapter": 7357,
      "##related": 7358,
      "answer": 7359,
      "agriculture": 7360,
      "neutral": 7361,
      "gp": 7362,
      "hipp": 7363,
      "##bes": 7364,
      "##cr": 7365,
      "##page": 7366,
      "##wers": 7367,
      "##ede": 7368,
      "##igur": 7369,
      "leeds": 7370,
      "shorter": 7371,
      "residence": 7372,
      "##ocked": 7373,
      "poems": 7374,
      "cret": 7375,
      "##obi": 7376,
      "incident": 7377,
      "designer": 7378,
      "##script": 7379,
      "returning": 7380,
      "explos": 7381,
      "potassium": 7382,
      "lowest": 7383,
      "choir": 7384,
      "##clusion": 7385,
      "promotion": 7386,
      "analog": 7387,
      "frequency": 7388,
      "sindh": 7389,
      "brabant": 7390,
      "bid": 7391,
      "dave": 7392,
      "ridge": 7393,
      "wire": 7394,
      "wii": 7395,
      "tok": 7396,
      "bever": 7397,
      "##allas": 7398,
      "brig": 7399,
      "##elli": 7400,
      "##anny": 7401,
      "interior": 7402,
      "smallest": 7403,
      "augustus": 7404,
      "operate": 7405,
      "ports": 7406,
      "wrong": 7407,
      "debuted": 7408,
      "1889": 7409,
      "covering": 7410,
      "##world": 7411,
      "mixture": 7412,
      "naval": 7413,
      "judge": 7414,
      "subjects": 7415,
      "birthday": 7416,
      "cooking": 7417,
      "adventure": 7418,
      "##hausen": 7419,
      "monday": 7420,
      "kam": 7421,
      "##uke": 7422,
      "##iad": 7423,
      "##ingly": 7424,
      "##imb": 7425,
      "##imately": 7426,
      "##abi": 7427,
      "partly": 7428,
      "serial": 7429,
      "scales": 7430,
      "provision": 7431,
      "simpsons": 7432,
      "survive": 7433,
      "##century": 7434,
      "educational": 7435,
      "testing": 7436,
      "ferdin": 7437,
      "homo": 7438,
      "effective": 7439,
      "sacred": 7440,
      "installed": 7441,
      "enemy": 7442,
      "learning": 7443,
      "tamp": 7444,
      "##onts": 7445,
      "##aren": 7446,
      "##icide": 7447,
      "frag": 7448,
      "alice": 7449,
      "##oca": 7450,
      "prayer": 7451,
      "commons": 7452,
      "boat": 7453,
      "drives": 7454,
      "capable": 7455,
      "##phal": 7456,
      "##phalia": 7457,
      "transc": 7458,
      "batista": 7459,
      "raid": 7460,
      "strongly": 7461,
      "looks": 7462,
      "painted": 7463,
      "croatian": 7464,
      "houston": 7465,
      "68": 7466,
      "bm": 7467,
      "liv": 7468,
      "mend": 7469,
      "nons": 7470,
      "oz": 7471,
      "rip": 7472,
      "ub": 7473,
      "##km": 7474,
      "##inks": 7475,
      "##ifies": 7476,
      "shah": 7477,
      "worn": 7478,
      "centers": 7479,
      "desk": 7480,
      "understand": 7481,
      "interm": 7482,
      "bassist": 7483,
      "oxid": 7484,
      "questions": 7485,
      "winger": 7486,
      "utc": 7487,
      "ecliptic": 7488,
      "manhattan": 7489,
      "lia": 7490,
      "lingu": 7491,
      "rings": 7492,
      "##bell": 7493,
      "##wright": 7494,
      "rever": 7495,
      "##emor": 7496,
      "org": 7497,
      "##osing": 7498,
      "planning": 7499,
      "syl": 7500,
      "genes": 7501,
      "understanding": 7502,
      "strike": 7503,
      "relatives": 7504,
      "##elsh": 7505,
      "##fully": 7506,
      "bread": 7507,
      "ski": 7508,
      "streets": 7509,
      "infr": 7510,
      "readers": 7511,
      "grounds": 7512,
      "hearts": 7513,
      "amounts": 7514,
      "agricultural": 7515,
      "briefly": 7516,
      "voyager": 7517,
      "gospel": 7518,
      "pianist": 7519,
      "cousin": 7520,
      "rttemberg": 7521,
      "cul": 7522,
      "font": 7523,
      "moth": 7524,
      "rig": 7525,
      "##rist": 7526,
      "##96": 7527,
      "##atch": 7528,
      "reef": 7529,
      "##eston": 7530,
      "##iki": 7531,
      "##ensis": 7532,
      "maur": 7533,
      "smo": 7534,
      "artific": 7535,
      "epic": 7536,
      "specialized": 7537,
      "colored": 7538,
      "opport": 7539,
      "purs": 7540,
      "identity": 7541,
      "gradually": 7542,
      "traveling": 7543,
      "measured": 7544,
      "mechanism": 7545,
      "chloride": 7546,
      "clothing": 7547,
      "vertical": 7548,
      "margaret": 7549,
      "3000": 7550,
      "cake": 7551,
      "hab": 7552,
      "kang": 7553,
      "mcl": 7554,
      "pound": 7555,
      "sale": 7556,
      "za": 7557,
      "##ni": 7558,
      "##ram": 7559,
      "theod": 7560,
      "##isch": 7561,
      "##amoto": 7562,
      "##urh": 7563,
      "trig": 7564,
      "shield": 7565,
      "norfolk": 7566,
      "knew": 7567,
      "longfellow": 7568,
      "cheese": 7569,
      "heads": 7570,
      "1892": 7571,
      "heaven": 7572,
      "strongest": 7573,
      "graduate": 7574,
      "machines": 7575,
      "substit": 7576,
      "concerns": 7577,
      "fluid": 7578,
      "jonathan": 7579,
      "comprises": 7580,
      "crowd": 7581,
      "gothic": 7582,
      "copyright": 7583,
      "98": 7584,
      "bil": 7585,
      "hend": 7586,
      "miam": 7587,
      "##sburg": 7588,
      "##nia": 7589,
      "##mes": 7590,
      "##mart": 7591,
      "##22": 7592,
      "##wil": 7593,
      "##isf": 7594,
      "##icit": 7595,
      "##ingham": 7596,
      "##acco": 7597,
      "##avian": 7598,
      "##berry": 7599,
      "##ogne": 7600,
      "scand": 7601,
      "##anca": 7602,
      "extrat": 7603,
      "apost": 7604,
      "1865": 7605,
      "closest": 7606,
      "ruler": 7607,
      "flem": 7608,
      "neck": 7609,
      "carbonate": 7610,
      "speakers": 7611,
      "coalition": 7612,
      "##iciency": 7613,
      "queensland": 7614,
      "phenomen": 7615,
      "malaysia": 7616,
      "cotton": 7617,
      "extratropical": 7618,
      "110": 7619,
      "fib": 7620,
      "kurt": 7621,
      "lang": 7622,
      "vik": 7623,
      "vinc": 7624,
      "##body": 7625,
      "anast": 7626,
      "##ingen": 7627,
      "##eto": 7628,
      "scoring": 7629,
      "afterwards": 7630,
      "##acht": 7631,
      "phill": 7632,
      "modified": 7633,
      "chel": 7634,
      "trek": 7635,
      "##odeon": 7636,
      "1899": 7637,
      "##after": 7638,
      "constitutional": 7639,
      "diseases": 7640,
      "occupation": 7641,
      "bernard": 7642,
      "communications": 7643,
      "athletic": 7644,
      "restaurant": 7645,
      "hidden": 7646,
      "napoleon": 7647,
      "pp": 7648,
      "peng": 7649,
      "##die": 7650,
      "##pan": 7651,
      "##92": 7652,
      "##oria": 7653,
      "##eton": 7654,
      "##ceived": 7655,
      "spelling": 7656,
      "resolution": 7657,
      "peru": 7658,
      "disturb": 7659,
      "pregn": 7660,
      "edin": 7661,
      "remn": 7662,
      "transition": 7663,
      "slav": 7664,
      "effort": 7665,
      "sporting": 7666,
      "1861": 7667,
      "daughters": 7668,
      "texts": 7669,
      "absol": 7670,
      "dispute": 7671,
      "dissip": 7672,
      "indicates": 7673,
      "lifetime": 7674,
      "astronomer": 7675,
      "##rupted": 7676,
      "distinguish": 7677,
      "ottoman": 7678,
      "alleged": 7679,
      "saffron": 7680,
      "baker": 7681,
      "herm": 7682,
      "murr": 7683,
      "rising": 7684,
      "vlad": 7685,
      "##do": 7686,
      "##ses": 7687,
      "##gae": 7688,
      "##net": 7689,
      "##oit": 7690,
      "##vements": 7691,
      "suz": 7692,
      "sure": 7693,
      "trio": 7694,
      "commemor": 7695,
      "norman": 7696,
      "joining": 7697,
      "crew": 7698,
      "appearances": 7699,
      "13th": 7700,
      "kevin": 7701,
      "courts": 7702,
      "similarly": 7703,
      "1894": 7704,
      "10000": 7705,
      "finding": 7706,
      "talent": 7707,
      "molecules": 7708,
      "quotation": 7709,
      "establishment": 7710,
      "doubles": 7711,
      "exclusively": 7712,
      "atmosphere": 7713,
      "rescue": 7714,
      "ferrari": 7715,
      "eccentricity": 7716,
      "5000": 7717,
      "cp": 7718,
      "fed": 7719,
      "venez": 7720,
      "##uh": 7721,
      "##wic": 7722,
      "##fri": 7723,
      "##olve": 7724,
      "ali": 7725,
      "##imore": 7726,
      "shakes": 7727,
      "##owned": 7728,
      "depth": 7729,
      "##ublin": 7730,
      "##ologies": 7731,
      "158": 7732,
      "santos": 7733,
      "principles": 7734,
      "launch": 7735,
      "telesc": 7736,
      "ultimately": 7737,
      "witness": 7738,
      "marshall": 7739,
      "nickelodeon": 7740,
      "uranus": 7741,
      "horizont": 7742,
      "mathematician": 7743,
      "database": 7744,
      "aub": 7745,
      "banned": 7746,
      "gross": 7747,
      "ye": 7748,
      "##eas": 7749,
      "##zant": 7750,
      "##94": 7751,
      "##eria": 7752,
      "##ivals": 7753,
      "unless": 7754,
      "grame": 7755,
      "##ogs": 7756,
      "colomb": 7757,
      "apply": 7758,
      "##graded": 7759,
      "movements": 7760,
      "leads": 7761,
      "glad": 7762,
      "harbor": 7763,
      "rocky": 7764,
      "defeating": 7765,
      "closer": 7766,
      "regarding": 7767,
      "romans": 7768,
      "boundaries": 7769,
      "manufacturing": 7770,
      "aspects": 7771,
      "gnu": 7772,
      "neighborhood": 7773,
      "gundam": 7774,
      "cretaceous": 7775,
      "dish": 7776,
      "drew": 7777,
      "html": 7778,
      "kids": 7779,
      "pomp": 7780,
      "sic": 7781,
      "##pur": 7782,
      "inland": 7783,
      "##ithe": 7784,
      "alco": 7785,
      "beer": 7786,
      "unn": 7787,
      "##udi": 7788,
      "cla": 7789,
      "##enders": 7790,
      "blank": 7791,
      "mainstream": 7792,
      "1500": 7793,
      "generated": 7794,
      "estate": 7795,
      "owners": 7796,
      "greatly": 7797,
      "respond": 7798,
      "approved": 7799,
      "derby": 7800,
      "atlanta": 7801,
      "involves": 7802,
      "frontier": 7803,
      "purple": 7804,
      "shares": 7805,
      "essential": 7806,
      "determine": 7807,
      "injury": 7808,
      "sulfur": 7809,
      "controversy": 7810,
      "restrict": 7811,
      "strengthened": 7812,
      "reconst": 7813,
      "accompanied": 7814,
      "expedition": 7815,
      "74": 7816,
      "dwar": 7817,
      "pist": 7818,
      "rit": 7819,
      "tyr": 7820,
      "##rical": 7821,
      "##pear": 7822,
      "##point": 7823,
      "##76": 7824,
      "##oric": 7825,
      "##rose": 7826,
      "##imal": 7827,
      "##osph": 7828,
      "seems": 7829,
      "truth": 7830,
      "##udes": 7831,
      "secure": 7832,
      "accel": 7833,
      "releases": 7834,
      "loy": 7835,
      "millenn": 7836,
      "11th": 7837,
      "railroad": 7838,
      "1909": 7839,
      "bigger": 7840,
      "hardy": 7841,
      "soundtrack": 7842,
      "improved": 7843,
      "safe": 7844,
      "fundamental": 7845,
      "muhammad": 7846,
      "mansell": 7847,
      "investigation": 7848,
      "giov": 7849,
      "baltimore": 7850,
      "enjoyed": 7851,
      "brooklyn": 7852,
      "algorithm": 7853,
      "aboriginal": 7854,
      "anastasia": 7855,
      "shakespear": 7856,
      "4th": 7857,
      "fol": 7858,
      "gib": 7859,
      "jura": 7860,
      "sap": 7861,
      "tort": 7862,
      "##ez": 7863,
      "##durh": 7864,
      "stric": 7865,
      "##ader": 7866,
      "reun": 7867,
      "##oga": 7868,
      "allied": 7869,
      "rook": 7870,
      "140": 7871,
      "description": 7872,
      "antic": 7873,
      "friendly": 7874,
      "clevel": 7875,
      "##iii": 7876,
      "fifteen": 7877,
      "composers": 7878,
      "photograph": 7879,
      "responsibility": 7880,
      "documentary": 7881,
      "substant": 7882,
      "positions": 7883,
      "manufacturer": 7884,
      "scholar": 7885,
      "delivered": 7886,
      "##wikipedia": 7887,
      "germans": 7888,
      "drugs": 7889,
      "rou": 7890,
      "tables": 7891,
      "vince": 7892,
      "##ayan": 7893,
      "##idency": 7894,
      "franz": 7895,
      "alan": 7896,
      "proport": 7897,
      "##oda": 7898,
      "##abited": 7899,
      "##phan": 7900,
      "defensive": 7901,
      "supporters": 7902,
      "scientist": 7903,
      "provincial": 7904,
      "bouches": 7905,
      "dolj": 7906,
      "beliefs": 7907,
      "empty": 7908,
      "experienced": 7909,
      "edinburgh": 7910,
      "venezuel": 7911,
      "grameen": 7912,
      "cleveland": 7913,
      "3d": 7914,
      "700": 7915,
      "dre": 7916,
      "dated": 7917,
      "gill": 7918,
      "huss": 7919,
      "htt": 7920,
      "lung": 7921,
      "rup": 7922,
      "rating": 7923,
      "tub": 7924,
      "##eb": 7925,
      "##otype": 7926,
      "##imir": 7927,
      "##unc": 7928,
      "deuts": 7929,
      "components": 7930,
      "##roph": 7931,
      "acted": 7932,
      "strings": 7933,
      "125": 7934,
      "varies": 7935,
      "divisions": 7936,
      "mid19": 7937,
      "trading": 7938,
      "viruses": 7939,
      "1898": 7940,
      "cultures": 7941,
      "processor": 7942,
      "infant": 7943,
      "destruction": 7944,
      "honorary": 7945,
      "fairly": 7946,
      "participated": 7947,
      "exactly": 7948,
      "physicist": 7949,
      "yugosl": 7950,
      "bouchesdurh": 7951,
      "360": 7952,
      "88": 7953,
      "faced": 7954,
      "gast": 7955,
      "jay": 7956,
      "nerv": 7957,
      "sought": 7958,
      "##uous": 7959,
      "##itting": 7960,
      "##acent": 7961,
      "##esty": 7962,
      "##othurn": 7963,
      "publisher": 7964,
      "emir": 7965,
      "signs": 7966,
      "passage": 7967,
      "hardware": 7968,
      "senators": 7969,
      "dougl": 7970,
      "collaps": 7971,
      "predomin": 7972,
      "practical": 7973,
      "maryland": 7974,
      "significantly": 7975,
      "keeping": 7976,
      "innov": 7977,
      "employed": 7978,
      "botan": 7979,
      "dollars": 7980,
      "##family": 7981,
      "wonder": 7982,
      "6th": 7983,
      "bug": 7984,
      "kart": 7985,
      "pand": 7986,
      "rico": 7987,
      "welsh": 7988,
      "##lie": 7989,
      "##cell": 7990,
      "##mus": 7991,
      "##fin": 7992,
      "##storm": 7993,
      "frances": 7994,
      "concluded": 7995,
      "##verty": 7996,
      "##apse": 7997,
      "exile": 7998,
      "bruins": 7999,
      "intens": 8000,
      "cris": 8001,
      "exposed": 8002,
      "patri": 8003,
      "downtown": 8004,
      "##iquet": 8005,
      "supports": 8006,
      "1896": 8007,
      "turning": 8008,
      "historians": 8009,
      "successfully": 8010,
      "burned": 8011,
      "hampshire": 8012,
      "shakespeare": 8013,
      "ble": 8014,
      "duck": 8015,
      "hob": 8016,
      "nbc": 8017,
      "rhe": 8018,
      "vast": 8019,
      "##ju": 8020,
      "##hew": 8021,
      "##esco": 8022,
      "##esmar": 8023,
      "##itimes": 8024,
      "ist": 8025,
      "##leans": 8026,
      "thread": 8027,
      "##emic": 8028,
      "byzant": 8029,
      "##ipel": 8030,
      "knights": 8031,
      "allies": 8032,
      "aged": 8033,
      "amster": 8034,
      "minute": 8035,
      "buy": 8036,
      "154": 8037,
      "emmy": 8038,
      "loan": 8039,
      "loop": 8040,
      "estonia": 8041,
      "idol": 8042,
      "avenue": 8043,
      "references": 8044,
      "solothurn": 8045,
      "runner": 8046,
      "considerable": 8047,
      "membership": 8048,
      "everyone": 8049,
      "1906": 8050,
      "competitions": 8051,
      "morgan": 8052,
      "rebell": 8053,
      "citizen": 8054,
      "corresponding": 8055,
      "tuscany": 8056,
      "petersburg": 8057,
      "bin": 8058,
      "pine": 8059,
      "zinc": 8060,
      "##dy": 8061,
      "##32": 8062,
      "##reat": 8063,
      "##lee": 8064,
      "bryan": 8065,
      "manson": 8066,
      "margin": 8067,
      "1800": 8068,
      "intensity": 8069,
      "resigned": 8070,
      "thereafter": 8071,
      "variations": 8072,
      "##oyd": 8073,
      "seeing": 8074,
      "tourism": 8075,
      "victims": 8076,
      "argued": 8077,
      "concerto": 8078,
      "excell": 8079,
      "jimmy": 8080,
      "eldest": 8081,
      "hungary": 8082,
      "pierre": 8083,
      "hypothes": 8084,
      "undertaker": 8085,
      "retrograde": 8086,
      "ltd": 8087,
      "bout": 8088,
      "wol": 8089,
      "##eed": 8090,
      "##oons": 8091,
      "##inter": 8092,
      "##itors": 8093,
      "##eta": 8094,
      "client": 8095,
      "flour": 8096,
      "studying": 8097,
      "endang": 8098,
      "retail": 8099,
      "extract": 8100,
      "bestknown": 8101,
      "1920s": 8102,
      "easter": 8103,
      "continent": 8104,
      "skating": 8105,
      "cyber": 8106,
      "1891": 8107,
      "1893": 8108,
      "connects": 8109,
      "primitive": 8110,
      "foods": 8111,
      "predec": 8112,
      "cosm": 8113,
      "arrangement": 8114,
      "veloc": 8115,
      "random": 8116,
      "ravens": 8117,
      "assumed": 8118,
      "glacier": 8119,
      "hack": 8120,
      "kane": 8121,
      "pump": 8122,
      "##four": 8123,
      "##icle": 8124,
      "##ingo": 8125,
      "orn": 8126,
      "##opter": 8127,
      "prol": 8128,
      "usd": 8129,
      "spy": 8130,
      "##ovich": 8131,
      "phyl": 8132,
      "poverty": 8133,
      "metall": 8134,
      "105": 8135,
      "10th": 8136,
      "barcel": 8137,
      "moist": 8138,
      "##ception": 8139,
      "begun": 8140,
      "competing": 8141,
      "illness": 8142,
      "##iece": 8143,
      "##chers": 8144,
      "suffolk": 8145,
      "increasingly": 8146,
      "ernest": 8147,
      "##contin": 8148,
      "alpesmar": 8149,
      "stuart": 8150,
      "amsterdam": 8151,
      "alpesmaritimes": 8152,
      "ck": 8153,
      "gur": 8154,
      "tan": 8155,
      "tenth": 8156,
      "yas": 8157,
      "##ei": 8158,
      "##oration": 8159,
      "##leton": 8160,
      "orleans": 8161,
      "##antly": 8162,
      "##eller": 8163,
      "##pping": 8164,
      "flav": 8165,
      "##active": 8166,
      "governing": 8167,
      "annivers": 8168,
      "particle": 8169,
      "archipel": 8170,
      "1857": 8171,
      "collapse": 8172,
      "execution": 8173,
      "weekend": 8174,
      "ranking": 8175,
      "symbols": 8176,
      "achieve": 8177,
      "nomination": 8178,
      "toyota": 8179,
      "scheduled": 8180,
      "geometry": 8181,
      "tunnel": 8182,
      "gaelic": 8183,
      "renew": 8184,
      "flemish": 8185,
      "bce": 8186,
      "ig": 8187,
      "kre": 8188,
      "lane": 8189,
      "pent": 8190,
      "sag": 8191,
      "tale": 8192,
      "##ding": 8193,
      "##cons": 8194,
      "asks": 8195,
      "##iaa": 8196,
      "##abl": 8197,
      "leagues": 8198,
      "##ourg": 8199,
      "transit": 8200,
      "expect": 8201,
      "topics": 8202,
      "archive": 8203,
      "keyboard": 8204,
      "replacing": 8205,
      "morph": 8206,
      "factors": 8207,
      "hammer": 8208,
      "blocked": 8209,
      "raise": 8210,
      "distinctive": 8211,
      "admitted": 8212,
      "permission": 8213,
      "picked": 8214,
      "##while": 8215,
      "drawing": 8216,
      "disappear": 8217,
      "attributed": 8218,
      "##restrial": 8219,
      "praised": 8220,
      "tissue": 8221,
      "anniversary": 8222,
      "cay": 8223,
      "ia": 8224,
      "jet": 8225,
      "sony": 8226,
      "tales": 8227,
      "##bing": 8228,
      "##boy": 8229,
      "##greg": 8230,
      "##iner": 8231,
      "##orus": 8232,
      "##eda": 8233,
      "thy": 8234,
      "thames": 8235,
      "thomp": 8236,
      "##oly": 8237,
      "##imedia": 8238,
      "bears": 8239,
      "clothes": 8240,
      "allen": 8241,
      "recre": 8242,
      "footn": 8243,
      "resign": 8244,
      "evangel": 8245,
      "presidency": 8246,
      "subspec": 8247,
      "origins": 8248,
      "explained": 8249,
      "describing": 8250,
      "advice": 8251,
      "attacking": 8252,
      "collected": 8253,
      "producers": 8254,
      "punish": 8255,
      "planets": 8256,
      "rulers": 8257,
      "happy": 8258,
      "rhodes": 8259,
      "focused": 8260,
      "jerry": 8261,
      "controversial": 8262,
      "funeral": 8263,
      "rumble": 8264,
      "finnish": 8265,
      "scenes": 8266,
      "jamaica": 8267,
      "thompson": 8268,
      "76": 8269,
      "wider": 8270,
      "##bit": 8271,
      "##nie": 8272,
      "##enza": 8273,
      "##itis": 8274,
      "reserv": 8275,
      "##aware": 8276,
      "charged": 8277,
      "156": 8278,
      "chev": 8279,
      "socalled": 8280,
      "##atsu": 8281,
      "wrestlers": 8282,
      "traded": 8283,
      "physiology": 8284,
      "silk": 8285,
      "ukraine": 8286,
      "minority": 8287,
      "estimates": 8288,
      "broadcasting": 8289,
      "platforms": 8290,
      "proteins": 8291,
      "celest": 8292,
      "carrying": 8293,
      "dancing": 8294,
      "subsid": 8295,
      "dromae": 8296,
      "artificial": 8297,
      "barcelona": 8298,
      "dot": 8299,
      "gaz": 8300,
      "hr": 8301,
      "hired": 8302,
      "##uing": 8303,
      "##ben": 8304,
      "##tw": 8305,
      "##nab": 8306,
      "##nik": 8307,
      "##zing": 8308,
      "##fried": 8309,
      "##inian": 8310,
      "##asaki": 8311,
      "suicide": 8312,
      "commod": 8313,
      "##ugg": 8314,
      "drag": 8315,
      "preserv": 8316,
      "quint": 8317,
      "stress": 8318,
      "patr": 8319,
      "refuge": 8320,
      "replacement": 8321,
      "biological": 8322,
      "propos": 8323,
      "dominated": 8324,
      "rotation": 8325,
      "bringing": 8326,
      "ernst": 8327,
      "adaptation": 8328,
      "aberdeen": 8329,
      "gymn": 8330,
      "douglas": 8331,
      "archipelago": 8332,
      "bits": 8333,
      "gauge": 8334,
      "lime": 8335,
      "pm": 8336,
      "##person": 8337,
      "##kes": 8338,
      "##inia": 8339,
      "##aters": 8340,
      "##itoba": 8341,
      "##icate": 8342,
      "##iling": 8343,
      "rept": 8344,
      "arctic": 8345,
      "export": 8346,
      "##ovic": 8347,
      "##ubs": 8348,
      "manitoba": 8349,
      "##oku": 8350,
      "perry": 8351,
      "calling": 8352,
      "grey": 8353,
      "##ilde": 8354,
      "outstanding": 8355,
      "internation": 8356,
      "obtain": 8357,
      "barry": 8358,
      "breaking": 8359,
      "patron": 8360,
      "vii": 8361,
      "squad": 8362,
      "##cedes": 8363,
      "woods": 8364,
      "effectively": 8365,
      "domain": 8366,
      "surrender": 8367,
      "happens": 8368,
      "icon": 8369,
      "jerusal": 8370,
      "tamil": 8371,
      "legislature": 8372,
      "progressive": 8373,
      "sebast": 8374,
      "abolished": 8375,
      "pocket": 8376,
      "smooth": 8377,
      "subspecies": 8378,
      "jerusalem": 8379,
      "tiger": 8380,
      "##uff": 8381,
      "##alf": 8382,
      "##oust": 8383,
      "##emann": 8384,
      "deleg": 8385,
      "##ocy": 8386,
      "##illo": 8387,
      "soap": 8388,
      "germanic": 8389,
      "##aneously": 8390,
      "creatures": 8391,
      "writings": 8392,
      "explain": 8393,
      "1897": 8394,
      "insect": 8395,
      "ukrain": 8396,
      "1878": 8397,
      "haiti": 8398,
      "credit": 8399,
      "continuing": 8400,
      "patterns": 8401,
      "battles": 8402,
      "tibetan": 8403,
      "galaxy": 8404,
      "appeal": 8405,
      "tampa": 8406,
      "miami": 8407,
      "phenomenon": 8408,
      "giovanni": 8409,
      "78": 8410,
      "7th": 8411,
      "lens": 8412,
      "mb": 8413,
      "tiny": 8414,
      "wool": 8415,
      "##oys": 8416,
      "##pace": 8417,
      "##74": 8418,
      "stating": 8419,
      "stones": 8420,
      "deer": 8421,
      "##abled": 8422,
      "spac": 8423,
      "##orney": 8424,
      "component": 8425,
      "partially": 8426,
      "##away": 8427,
      "monkey": 8428,
      "generations": 8429,
      "12th": 8430,
      "interchange": 8431,
      "cruc": 8432,
      "##ribed": 8433,
      "##flies": 8434,
      "##rowing": 8435,
      "##otto": 8436,
      "coron": 8437,
      "##odynam": 8438,
      "irreg": 8439,
      "circular": 8440,
      "amongst": 8441,
      "raf": 8442,
      "reactions": 8443,
      "benef": 8444,
      "piper": 8445,
      "exhibition": 8446,
      "ancestor": 8447,
      "##garden": 8448,
      "criminal": 8449,
      "illegal": 8450,
      "##stadt": 8451,
      "husserl": 8452,
      "96": 8453,
      "mick": 8454,
      "rush": 8455,
      "vin": 8456,
      "wish": 8457,
      "##ti": 8458,
      "##rate": 8459,
      "##rayed": 8460,
      "##winning": 8461,
      "##xx": 8462,
      "##fast": 8463,
      "theories": 8464,
      "##erated": 8465,
      "##ashed": 8466,
      "anderson": 8467,
      "stem": 8468,
      "##adesh": 8469,
      "##ophy": 8470,
      "##abil": 8471,
      "marily": 8472,
      "compact": 8473,
      "finals": 8474,
      "creates": 8475,
      "extent": 8476,
      "##brid": 8477,
      "lawyer": 8478,
      "berg": 8479,
      "restored": 8480,
      "russell": 8481,
      "100000": 8482,
      "ready": 8483,
      "1881": 8484,
      "soundgarden": 8485,
      "denomin": 8486,
      "abbott": 8487,
      "masters": 8488,
      "accounts": 8489,
      "saved": 8490,
      "walking": 8491,
      "dancer": 8492,
      "minimum": 8493,
      "pioneer": 8494,
      "rebuilt": 8495,
      "toxic": 8496,
      "vampire": 8497,
      "canceled": 8498,
      "crisis": 8499,
      "internationally": 8500,
      "cum": 8501,
      "catherine": 8502,
      "dublin": 8503,
      "fey": 8504,
      "piquet": 8505,
      "tent": 8506,
      "vector": 8507,
      "##73": 8508,
      "##oni": 8509,
      "forum": 8510,
      "##ithic": 8511,
      "chak": 8512,
      "dean": 8513,
      "clark": 8514,
      "syria": 8515,
      "##ierra": 8516,
      "laure": 8517,
      "fourteen": 8518,
      "portra": 8519,
      "powered": 8520,
      "##ammu": 8521,
      "characterized": 8522,
      "salam": 8523,
      "precip": 8524,
      "guns": 8525,
      "sulfate": 8526,
      "marcus": 8527,
      "ottawa": 8528,
      "restricted": 8529,
      "enemies": 8530,
      "suitable": 8531,
      "experiments": 8532,
      "isolated": 8533,
      "endangered": 8534,
      "irregular": 8535,
      "52": 8536,
      "mast": 8537,
      "malt": 8538,
      "ryan": 8539,
      "##hum": 8540,
      "##ye": 8541,
      "##osystem": 8542,
      "prox": 8543,
      "marl": 8544,
      "charges": 8545,
      "ministers": 8546,
      "slam": 8547,
      "valenc": 8548,
      "humor": 8549,
      "publicly": 8550,
      "farming": 8551,
      "configur": 8552,
      "multipl": 8553,
      "administered": 8554,
      "soldier": 8555,
      "increases": 8556,
      "1870": 8557,
      "affili": 8558,
      "wooden": 8559,
      "bordered": 8560,
      "panel": 8561,
      "budget": 8562,
      "concepts": 8563,
      "columbus": 8564,
      "clearly": 8565,
      "goalkeeper": 8566,
      "concerned": 8567,
      "barbara": 8568,
      "rubber": 8569,
      "teachers": 8570,
      "##ivorous": 8571,
      "harvard": 8572,
      "exclusive": 8573,
      "diverse": 8574,
      "cameron": 8575,
      "duchess": 8576,
      "##hawks": 8577,
      "opinion": 8578,
      "58": 8579,
      "cache": 8580,
      "diction": 8581,
      "hain": 8582,
      "kick": 8583,
      "ment": 8584,
      "maps": 8585,
      "rif": 8586,
      "yes": 8587,
      "##burn": 8588,
      "##non": 8589,
      "##word": 8590,
      "##31": 8591,
      "##eness": 8592,
      "andra": 8593,
      "stored": 8594,
      "brack": 8595,
      "gren": 8596,
      "##iko": 8597,
      "##wned": 8598,
      "coat": 8599,
      "monument": 8600,
      "##anche": 8601,
      "britann": 8602,
      "geographic": 8603,
      "referring": 8604,
      "concrete": 8605,
      "arrival": 8606,
      "collections": 8607,
      "voting": 8608,
      "mosques": 8609,
      "substance": 8610,
      "hydroxide": 8611,
      "injured": 8612,
      "autoed": 8613,
      "overseas": 8614,
      "serbia": 8615,
      "consecutive": 8616,
      "ferdinand": 8617,
      "9th": 8618,
      "kara": 8619,
      "pse": 8620,
      "##hand": 8621,
      "##ridge": 8622,
      "##enh": 8623,
      "##aly": 8624,
      "##style": 8625,
      "stall": 8626,
      "dee": 8627,
      "seas": 8628,
      "usual": 8629,
      "##orne": 8630,
      "##elles": 8631,
      "abund": 8632,
      "maid": 8633,
      "imprison": 8634,
      "creative": 8635,
      "electro": 8636,
      "sixteen": 8637,
      "mercedes": 8638,
      "advoc": 8639,
      "sanct": 8640,
      "symmet": 8641,
      "##comm": 8642,
      "brands": 8643,
      "olive": 8644,
      "##aptor": 8645,
      "automobile": 8646,
      "leonese": 8647,
      "odd": 8648,
      "false": 8649,
      "otto": 8650,
      "eagle": 8651,
      "typhoon": 8652,
      "marilyn": 8653,
      "cash": 8654,
      "dallas": 8655,
      "eating": 8656,
      "josh": 8657,
      "nas": 8658,
      "pon": 8659,
      "ted": 8660,
      "vess": 8661,
      "wed": 8662,
      "wedd": 8663,
      "##bow": 8664,
      "##ele": 8665,
      "##vo": 8666,
      "##ulu": 8667,
      "##heric": 8668,
      "##agre": 8669,
      "manusc": 8670,
      "##izz": 8671,
      "quad": 8672,
      "guar": 8673,
      "relief": 8674,
      "retained": 8675,
      "armor": 8676,
      "backing": 8677,
      "tourists": 8678,
      "steven": 8679,
      "romanian": 8680,
      "stronger": 8681,
      "1885": 8682,
      "1879": 8683,
      "martial": 8684,
      "industries": 8685,
      "1848": 8686,
      "messages": 8687,
      "sussex": 8688,
      "admir": 8689,
      "package": 8690,
      "anthrop": 8691,
      "shawn": 8692,
      "segment": 8693,
      "supplies": 8694,
      "experimental": 8695,
      "gabriel": 8696,
      "playoffs": 8697,
      "baptist": 8698,
      "encryption": 8699,
      "download": 8700,
      "guerrero": 8701,
      "strict": 8702,
      "8th": 8703,
      "cere": 8704,
      "dale": 8705,
      "fis": 8706,
      "fart": 8707,
      "hir": 8708,
      "lect": 8709,
      "maced": 8710,
      "sung": 8711,
      "##bel": 8712,
      "##ozo": 8713,
      "##rac": 8714,
      "##mo": 8715,
      "##mates": 8716,
      "##wind": 8717,
      "##iser": 8718,
      "thail": 8719,
      "thurg": 8720,
      "ster": 8721,
      "##agi": 8722,
      "plural": 8723,
      "uss": 8724,
      "spin": 8725,
      "##ibi": 8726,
      "scat": 8727,
      "phosph": 8728,
      "smash": 8729,
      "familiar": 8730,
      "minerals": 8731,
      "strateg": 8732,
      "##insky": 8733,
      "followers": 8734,
      "euro": 8735,
      "stewart": 8736,
      "batter": 8737,
      "merch": 8738,
      "colleges": 8739,
      "superior": 8740,
      "presentday": 8741,
      "expert": 8742,
      "argument": 8743,
      "falling": 8744,
      "recognize": 8745,
      "logo": 8746,
      "frankfurt": 8747,
      "substances": 8748,
      "embry": 8749,
      "hawks": 8750,
      "fastest": 8751,
      "jacques": 8752,
      "caval": 8753,
      "legendary": 8754,
      "ensure": 8755,
      "comprising": 8756,
      "##onymous": 8757,
      "recommended": 8758,
      "sarthe": 8759,
      "hudson": 8760,
      "mclaren": 8761,
      "thailand": 8762,
      "dos": 8763,
      "hess": 8764,
      "jas": 8765,
      "jav": 8766,
      "lod": 8767,
      "nh": 8768,
      "ninth": 8769,
      "render": 8770,
      "##theless": 8771,
      "##run": 8772,
      "##yd": 8773,
      "##inch": 8774,
      "##ilst": 8775,
      "##roke": 8776,
      "##acher": 8777,
      "rear": 8778,
      "alps": 8779,
      "deem": 8780,
      "##umps": 8781,
      "usb": 8782,
      "pradesh": 8783,
      "##ifer": 8784,
      "trump": 8785,
      "##ornis": 8786,
      "cliff": 8787,
      "wheat": 8788,
      "indeed": 8789,
      "peoples": 8790,
      "nova": 8791,
      "##issions": 8792,
      "interests": 8793,
      "##ennial": 8794,
      "valid": 8795,
      "titan": 8796,
      "blackhawks": 8797,
      "terry": 8798,
      "loud": 8799,
      "snake": 8800,
      "1867": 8801,
      "controls": 8802,
      "nevertheless": 8803,
      "sympt": 8804,
      "##ascript": 8805,
      "parliamentary": 8806,
      "identical": 8807,
      "happen": 8808,
      "spiral": 8809,
      "analy": 8810,
      "mrs": 8811,
      "subdivided": 8812,
      "sauber": 8813,
      "juris": 8814,
      "adjacent": 8815,
      "croatia": 8816,
      "transmission": 8817,
      "mozart": 8818,
      "eliminated": 8819,
      "descendants": 8820,
      "retirement": 8821,
      "billiards": 8822,
      "##friend": 8823,
      "pseud": 8824,
      "99": 8825,
      "bic": 8826,
      "ions": 8827,
      "kern": 8828,
      "mul": 8829,
      "##gi": 8830,
      "##pg": 8831,
      "##yard": 8832,
      "stir": 8833,
      "stim": 8834,
      "whilst": 8835,
      "##ulating": 8836,
      "heating": 8837,
      "##opl": 8838,
      "##ortion": 8839,
      "newfound": 8840,
      "##igny": 8841,
      "attorney": 8842,
      "swan": 8843,
      "swit": 8844,
      "remote": 8845,
      "defines": 8846,
      "expensive": 8847,
      "##inoff": 8848,
      "characteristic": 8849,
      "flora": 8850,
      "meanwhile": 8851,
      "additionally": 8852,
      "grows": 8853,
      "properly": 8854,
      "oliv": 8855,
      "boxing": 8856,
      "platinum": 8857,
      "measures": 8858,
      "burning": 8859,
      "burnham": 8860,
      "iceland": 8861,
      "emerged": 8862,
      "commissioned": 8863,
      "astronomers": 8864,
      "tallest": 8865,
      "frost": 8866,
      "breeding": 8867,
      "advertising": 8868,
      "bundes": 8869,
      "tasman": 8870,
      "vertebr": 8871,
      "elephant": 8872,
      "lugano": 8873,
      "genetics": 8874,
      "tributary": 8875,
      "bold": 8876,
      "cors": 8877,
      "eb": 8878,
      "ek": 8879,
      "mys": 8880,
      "tig": 8881,
      "##bishop": 8882,
      "##cus": 8883,
      "##vant": 8884,
      "##jima": 8885,
      "tril": 8886,
      "##iev": 8887,
      "abuse": 8888,
      "##pted": 8889,
      "perp": 8890,
      "145": 8891,
      "ammon": 8892,
      "simult": 8893,
      "verb": 8894,
      "writes": 8895,
      "1940s": 8896,
      "wells": 8897,
      "slip": 8898,
      "geographical": 8899,
      "millions": 8900,
      "breast": 8901,
      "error": 8902,
      "silva": 8903,
      "sentence": 8904,
      "tomb": 8905,
      "orbital": 8906,
      "##iji": 8907,
      "convert": 8908,
      "thirteen": 8909,
      "hungarian": 8910,
      "rejected": 8911,
      "gravity": 8912,
      "cats": 8913,
      "jason": 8914,
      "kle": 8915,
      "tape": 8916,
      "##uations": 8917,
      "##rh": 8918,
      "toys": 8919,
      "##leys": 8920,
      "##ampton": 8921,
      "thumb": 8922,
      "##olo": 8923,
      "##otam": 8924,
      "chop": 8925,
      "##osure": 8926,
      "sees": 8927,
      "##ternoon": 8928,
      "register": 8929,
      "departments": 8930,
      "blow": 8931,
      "##iley": 8932,
      "monster": 8933,
      "consp": 8934,
      "creator": 8935,
      "guilt": 8936,
      "128": 8937,
      "traditions": 8938,
      "cauc": 8939,
      "##ripts": 8940,
      "salzburg": 8941,
      "ferry": 8942,
      "paste": 8943,
      "donald": 8944,
      "belonging": 8945,
      "optional": 8946,
      "motorsport": 8947,
      "##opping": 8948,
      "occasions": 8949,
      "bengal": 8950,
      "organs": 8951,
      "alcohol": 8952,
      "millennium": 8953,
      "86": 8954,
      "kos": 8955,
      "pasc": 8956,
      "rer": 8957,
      "sample": 8958,
      "##ban": 8959,
      "##case": 8960,
      "##prod": 8961,
      "##72": 8962,
      "##etta": 8963,
      "##andy": 8964,
      "##unes": 8965,
      "comics": 8966,
      "conj": 8967,
      "##umin": 8968,
      "enh": 8969,
      "##ourse": 8970,
      "##ubb": 8971,
      "##uba": 8972,
      "mann": 8973,
      "eddie": 8974,
      "slave": 8975,
      "tops": 8976,
      "representation": 8977,
      "1882": 8978,
      "linear": 8979,
      "petro": 8980,
      "orbiting": 8981,
      "oliver": 8982,
      "dominant": 8983,
      "paraly": 8984,
      "baha": 8985,
      "selen": 8986,
      "drinking": 8987,
      "thermal": 8988,
      "##emplate": 8989,
      "interpretation": 8990,
      "chicken": 8991,
      "ludwig": 8992,
      "nicholas": 8993,
      "telescope": 8994,
      "bened": 8995,
      "cbs": 8996,
      "dart": 8997,
      "dak": 8998,
      "nascar": 8999,
      "tact": 9000,
      "##79": 9001,
      "inters": 9002,
      "##arin": 9003,
      "##rec": 9004,
      "stable": 9005,
      "##ocene": 9006,
      "prohib": 9007,
      "plains": 9008,
      "shif": 9009,
      "##oked": 9010,
      "serge": 9011,
      "indigen": 9012,
      "reliable": 9013,
      "valu": 9014,
      "lineup": 9015,
      "versus": 9016,
      "markets": 9017,
      "err": 9018,
      "1863": 9019,
      "##certain": 9020,
      "educated": 9021,
      "alternate": 9022,
      "lucy": 9023,
      "##agonist": 9024,
      "frequent": 9025,
      "suburban": 9026,
      "##wiki": 9027,
      "hearing": 9028,
      "leafs": 9029,
      "luxemb": 9030,
      "doctrine": 9031,
      "monastery": 9032,
      "horizontal": 9033,
      "59": 9034,
      "diver": 9035,
      "lask": 9036,
      "pie": 9037,
      "tap": 9038,
      "tied": 9039,
      "##hour": 9040,
      "##ping": 9041,
      "##71": 9042,
      "##athe": 9043,
      "##omer": 9044,
      "##etical": 9045,
      "##idian": 9046,
      "##istle": 9047,
      "chit": 9048,
      "neu": 9049,
      "afternoon": 9050,
      "marry": 9051,
      "parad": 9052,
      "disaster": 9053,
      "popul": 9054,
      "edits": 9055,
      "edwards": 9056,
      "calvin": 9057,
      "emm": 9058,
      "defenc": 9059,
      "loos": 9060,
      "##asha": 9061,
      "115": 9062,
      "simpson": 9063,
      "##ukas": 9064,
      "independently": 9065,
      "diagn": 9066,
      "1876": 9067,
      "structural": 9068,
      "activist": 9069,
      "looked": 9070,
      "galile": 9071,
      "balance": 9072,
      "blocks": 9073,
      "reformed": 9074,
      "craig": 9075,
      "dollar": 9076,
      "legislative": 9077,
      "candidates": 9078,
      "restaurants": 9079,
      "sculpture": 9080,
      "ticket": 9081,
      "landscape": 9082,
      "rebellion": 9083,
      "thurgau": 9084,
      "72": 9085,
      "ced": 9086,
      "dm": 9087,
      "eur": 9088,
      "gear": 9089,
      "rats": 9090,
      "sut": 9091,
      "sard": 9092,
      "tul": 9093,
      "wake": 9094,
      "##eing": 9095,
      "##des": 9096,
      "##gon": 9097,
      "##kary": 9098,
      "##etes": 9099,
      "##ige": 9100,
      "##opotam": 9101,
      "enth": 9102,
      "excess": 9103,
      "##oves": 9104,
      "griff": 9105,
      "sheep": 9106,
      "##grad": 9107,
      "##ieth": 9108,
      "johnny": 9109,
      "hyder": 9110,
      "putting": 9111,
      "violent": 9112,
      "layout": 9113,
      "absence": 9114,
      "adopt": 9115,
      "relationships": 9116,
      "prisoners": 9117,
      "taxonom": 9118,
      "employees": 9119,
      "concentrated": 9120,
      "##edded": 9121,
      "ghost": 9122,
      "encouraged": 9123,
      "intellect": 9124,
      "absolute": 9125,
      "indigenous": 9126,
      "lasker": 9127,
      "53": 9128,
      "bast": 9129,
      "bish": 9130,
      "css": 9131,
      "gum": 9132,
      "ion": 9133,
      "jung": 9134,
      "pia": 9135,
      "sans": 9136,
      "##hall": 9137,
      "##hop": 9138,
      "##mberg": 9139,
      "forty": 9140,
      "##term": 9141,
      "reaches": 9142,
      "fred": 9143,
      "##cht": 9144,
      "suite": 9145,
      "trained": 9146,
      "##ardi": 9147,
      "leop": 9148,
      "manga": 9149,
      "##uces": 9150,
      "##anger": 9151,
      "phon": 9152,
      "consort": 9153,
      "caps": 9154,
      "matters": 9155,
      "guild": 9156,
      "accom": 9157,
      "accused": 9158,
      "interc": 9159,
      "crus": 9160,
      "crab": 9161,
      "##inae": 9162,
      "airline": 9163,
      "filmed": 9164,
      "bark": 9165,
[...]
