[PAD]
[UNK]
[CLS]
[SEP]
[MASK]
0
1
2
3
4
5
6
7
8
9
a
b
c
d
e
f
g
h
i
j
k
l
m
n
o
p
q
r
s
t
u
v
w
x
y
z
##u
##b
##t
##i
##l
##e
##d
##s
##g
##n
##a
##o
##h
##r
##c
##m
##p
##z
##y
##v
##2
##k
##w
##0
##6
##5
##4
##1
##q
##9
##j
##x
##f
##7
##8
##3
##he
the
##er
##in
##on
##an
##or
##ed
##es
in
##at
##en
##ar
of
##al
an
##it
##as
##is
##ic
and
##rb
##ou
##ing
##re
is
to
##ion
##om
##le
##ent
##am
##il
##st
##el
th
##ro
##ec
##et
st
for
lrb
##ol
rrb
on
was
##ur
##ac
##ot
##ad
##ly
as
##ay
##ir
##iv
it
##ter
##id
19
##ow
re
fr
al
##ation
##ig
##im
##em
##th
##us
##ce
##and
be
##ch
##oun
##ut
##ith
##un
##ers
wh
by
##ul
##00
##ist
with
##her
com
or
he
ch
##ag
##est
##os
##ct
con
un
##all
##art
de
##um
##ain
##ver
at
that
are
##op
##oc
##av
pro
##ity
pl
##ia
se
##ap
##od
from
##ber
##ian
##ies
##ess
##ate
us
##ip
su
en
##ak
##ab
##ich
ne
pr
ar
sp
##if
##ill
his
##ort
##ame
tr
##ant
200
##ard
le
##ld
##ated
##ment
##ud
ex
sh
##ov
##ound
##igh
wor
##ast
comm
which
##ish
##ost
##so
br
##ary
##ie
##gh
##orn
##ally
##ge
##ere
##ell
play
##ear
##ust
##ong
##ther
##ive
##our
##ore
##mer
##se
also
this
not
##ount
##ance
##ect
cl
##pp
##qu
##ine
were
##end
whe
##land
has
te
##own
##ub
af
fir
##ave
gr
##og
##ib
##ical
man
mar
##ome
nor
##ial
##ough
first
comp
##cl
##ates
one
18
ab
##pt
##ight
part
##ass
##ric
can
##age
##ember
ad
##ous
##ond
##ack
##per
##une
its
##ok
##out
##tern
born
##iz
##ue
##der
##ions
##uc
##ited
count
bec
##ure
new
##erm
##ire
##ik
kn
fo
city
ser
sc
tw
all
##ans
who
other
have
int
but
##ang
they
##ide
##ry
cont
##ord
reg
dep
##ey
##pl
##ater
##ball
after
##wn
##cc
rec
##ra
##orm
col
her
##ied
had
go
##ach
##ign
their
##ational
par
foot
cent
year
##ace
united
##ree
sou
res
ind
north
most
##we
##ime
##amp
##fer
fl
##ade
fe
ro
dis
known
##mp
found
##ock
pe
##rop
she
france
football
199
states
car
per
##ult
##ens
used
##hed
may
two
me
##ence
when
##act
##clud
eng
##rit
##ory
bo
form
##ice
co
##ru
##ould
amer
app
commune
americ
sy
includ
ev
##ail
##les
there
depart
198
##ind
world
call
been
department
bl
##ks
ag
##ations
##ile
##ition
loc
197
##ince
##ely
dist
##ug
some
##aw
act
into
gen
des
dec
sec
bet
##ubl
##ased
##ts
##lect
##pr
##te
region
##io
ma
##ral
##ff
##one
ph
county
jo
called
##ons
mus
we
gre
so
mon
##ors
##uring
##aus
##ten
ear
more
##ose
off
many
over
lar
south
##ite
##ward
##old
pop
##ake
##ild
about
made
##gan
time
14
##au
team
out
pre
only
such
up
##ents
national
spec
prov
##ath
pol
##able
##ick
##ix
american
sm
cons
##anc
##ivers
##ase
name
dr
##az
during
ed
peop
player
will
war
pres
##int
po
am
##ween
##ah
##ular
qu
between
##oll
people
##ft
##erman
##vel
fam
do
##ames
196
##urr
##gr
##ings
than
no
char
20
under
mov
cap
##ese
sch
##oth
sub
state
min
bu
num
##eld
##ne
prod
##form
##ays
art
str
##hes
met
##ily
##ict
##urn
##iver
became
##als
17
bel
##ton
where
##ph
serv
work
publ
ac
sing
former
##apan
sa
thr
german
##hip
how
cal
japan
att
##olog
##ane
bro
brit
imp
##hn
years
ass
nov
him
##ike
##enc
##ais
##ep
fin
mat
sw
second
rep
these
main
##ium
##oup
cre
##ics
gu
##ier
sim
##iss
univers
##up
rel
town
acc
three
##ished
##amed
15
##ters
##ious
em
##ually
##ific
ver
aust
la
rele
##stem
##ins
##ason
##ision
them
writ
##vern
gener
##uct
alb
through
##ann
##yp
inst
##ause
use
##ys
rem
195
later
##ood
located
##imes
king
194
would
system
stud
west
then
##ather
distric
16
def
##fore
end
12
##ool
##ork
##ury
dif
##ll
four
ret
well
##ower
music
elect
govern
group
##ating
##ession
mod
fil
series
##ently
##way
##gest
inter
##til
island
show
##ale
record
##ative
while
long
orig
##ern
tem
trans
##lish
##ob
area
##are
##ss
##ollow
aug
common
##ife
##estern
med
##co
number
cr
##ina
##man
small
curr
##ank
##rib
##ont
high
##ual
air
intern
##ement
ju
##its
august
##omet
british
##inc
again
sl
sept
both
im
origin
##atur
start
##iam
before
che
##ains
##irect
district
##iet
##other
##ever
inc
band
##ality
follow
##air
jan
any
##oss
september
since
##ted
##ism
ge
set
##enn
until
because
oct
add
##unic
##velop
##ve
##ley
10
being
##ities
##ague
book
##ject
##ident
##ital
ob
op
champ
if
school
often
season
##ird
song
eu
##ution
university
##ger
##tle
however
maj
direct
sever
##uary
arm
nort
named
played
film
english
game
chr
develop
##ounc
river
near
##ober
differ
##ists
##emb
october
red
album
hist
east
including
##inn
january
class
##ines
##ouse
##und
##xt
major
old
prof
ext
##ived
inv
each
july
##ulation
##red
june
march
lead
offic
typ
league
sur
193
##uss
bar
##sp
released
pers
family
##fl
##ke
var
sign
##oman
lond
organ
##0s
oper
##tain
land
lo
london
several
japanese
##ages
like
mil
##10
same
award
december
val
term
november
john
est
##ient
##che
gl
el
##ized
now
austral
##lev
const
##son
##ae
##ange
own
##ved
mill
apr
##ash
##ruct
best
april
##any
##ially
##unicip
##ants
early
municip
supp
##row
back
##ise
ever
very
##eng
won
div
ann
##ield
##uced
appear
har
giv
##bru
government
id
soc
##rope
great
##angu
##bruary
##ron
##dec
13
february
port
species
192
##ined
##alais
##let
line
ii
11
water
mo
##ropical
##ature
##ink
##ull
2007
##ible
province
##asdec
##asdecalais
##uch
##ri
day
child
europe
design
##els
##ster
##ble
different
open
you
though
##ider
##eter
rail
langu
tit
population
##aking
##ling
century
hum
around
wr
ital
eas
large
rock
##ilt
mid
##urg
##ross
lit
hur
star
##elf
##aph
president
##iew
champions
hel
##west
##hern
charac
##000
##ful
##ize
##ench
bre
england
head
contin
pass
##ets
##ott
2008
public
somet
last
##port
canad
bas
northern
rev
cor
##itz
house
2006
international
##ister
tre
##ology
plays
##ony
##ode
##cept
occ
##omin
desc
york
##led
##aint
based
ang
av
usually
refer
municipality
center
word
##oy
import
##gy
##get
see
stand
25
alth
##alt
##osed
vers
##bert
##ided
games
##ired
although
sk
##day
club
##hen
place
against
order
sol
perform
began
profession
##ows
##ai
##ives
short
wind
##br
##par
christ
##uth
prot
did
capital
ant
death
hurric
##ats
tour
along
##ior
##ula
leg
french
exp
just
championship
##sh
power
mag
grand
##akes
##iod
list
ste
##ales
my
##ically
191
##ress
ent
km
tropical
anim
home
2000
##vent
ep
##bo
cy
##ody
following
make
vill
##ark
black
##ret
##ene
polit
ter
run
life
roman
ec
memb
##iving
artic
dem
##oci
##ians
##ator
storm
right
##uck
##ries
##ino
professional
souther
another
##aced
templ
bus
##min
event
law
2009
company
said
mark
largest
top
je
##ove
2005
southern
associ
succ
##ures
bat
##ockey
cond
central
##ues
##ama
##ogr
##ained
##ney
third
park
built
30
consider
much
even
##urch
##ren
popular
hockey
conc
result
##ting
sometimes
hurricane
period
contro
partic
##eder
phil
million
single
include
telev
germany
members
camp
pa
progr
died
##dom
country
six
could
youn
##istan
person
general
wrest
##by
trad
chang
bor
##ified
##ner
currently
rad
24
son
given
##rod
##lex
within
##erv
##ius
pat
ber
mount
ref
left
##sc
television
resp
down
##cess
product
geor
western
started
##ute
station
build
net
spe
member
##burg
##amm
##na
counc
mer
rece
da
still
published
##ample
##app
written
##side
##ides
##ty
party
##augh
2010
modern
success
ke
every
important
##aving
##ech
cour
del
##por
colle
##ices
##yn
cir
##iqu
vir
language
auth
cop
eff
way
##res
those
cat
using
##ief
##western
lab
##ung
council
return
age
hy
character
##ended
super
##cover
kingdom
help
enter
aut
##ata
took
famous
fre
held
sea
lat
##ison
##atic
created
equ
##ler
##ments
ir
##alk
##ilar
what
far
##ival
wik
example
times
##ection
bass
republ
five
history
vi
##ert
rac
simp
21
roy
australia
##ued
win
flor
##ces
##ipp
##aur
support
190
##pres
##uk
23
live
##ald
formed
similar
##ract
rest
det
##ense
eastern
father
##ara
##ively
arch
##ility
republic
##ena
cant
key
post
##ille
repl
##itzer
accord
russ
##hem
america
children
##ried
title
expl
template
##edia
cell
circ
22
william
become
hol
church
mean
conf
afric
##aster
2004
light
earth
gir
coast
moved
stat
ca
point
describ
vis
##ization
##ograph
##ham
189
##onom
##ately
##osition
vide
vol
##ience
cult
discover
present
special
process
##inning
hal
sport
##ida
##omen
princ
##lin
original
requ
##be
##ency
##ars
produced
##epend
pak
beg
arr
mult
que
color
hand
emp
##ana
according
due
vict
among
care
author
stre
union
adv
switzer
compet
match
switzerland
repres
commun
saint
##yl
##ories
##ected
big
few
##aken
hig
should
poss
##hing
##ford
tot
caus
white
##reek
independ
college
##ids
##azil
##ax
let
mot
lou
##echn
##iple
##ones
##ning
royal
##ven
pal
god
##ico
good
road
body
mic
mass
##ches
sit
##ateg
countries
field
brazil
official
26
##hy
local
works
cer
estab
anc
phys
##idge
considered
mor
version
cast
pakistan
canton
##bs
##aim
nord
100
host
village
late
du
gold
sum
admin
##ases
appro
manag
turn
next
##ms
video
##olution
italian
##rip
came
toget
together
bill
ele
histor
##ves
##unct
##ural
allow
final
human
27
kill
without
bur
pic
2001
2003
##alth
##ams
founded
squ
##hl
##work
##rote
engine
attack
##iction
service
report
pasdecalais
##aining
techn
##hel
##itions
28
##read
##istr
tradition
lim
deb
dev
##omot
brother
conn
sold
##anish
less
prim
developed
led
ra
living
##ither
does
##ged
opp
##ument
featur
james
##ules
##iety
ve
inf
current
der
days
sal
northwest
##eth
india
miss
disc
wee
##ards
er
page
fri
heav
29
##ps
##ought
base
ice
sil
chem
role
green
young
prev
free
hon
side
##ica
bi
women
infl
ill
mich
means
natur
pot
sat
##uter
##line
represent
inform
##ects
##ender
##gin
##ared
friend
pur
need
included
wrote
cup
cle
##vad
areas
sn
##gen
formula
dra
san
strong
low
categ
##urb
islands
separ
##itar
nordp
went
##iforn
dam
californ
imm
nordpasdecalais
##lo
atl
##ences
get
served
incre
##yle
read
non
##uted
seat
level
##ength
##ka
type
hall
##ances
ap
lake
epis
fact
188
surv
##most
addition
originally
administr
feder
greek
california
ce
eg
##berg
sug
cro
men
##ring
##me
secret
night
##ergy
rich
##cent
##ma
oly
##aine
having
olymp
##ised
track
exper
army
enc
##antic
total
31
##ipedia
186
particular
sun
received
must
##ness
2002
di
sour
cam
various
hit
##ux
ais
trib
today
month
scott
##ee
george
##xim
34
##arch
take
european
railway
##ville
##umb
1999
dav
##ensus
hard
pen
##ounced
fur
ins
##ander
beh
association
##ying
playing
##itary
introd
##wards
story
##oma
cross
##ware
uk
##ots
##ced
187
collect
indian
crit
civ
natural
earl
##ead
fa
making
project
comb
##ape
real
exist
##ript
##ways
##osp
mother
wat
##avel
##ogn
##to
aisne
others
##ably
econom
political
full
hen
names
##dle
spanish
appl
parts
produc
florida
##af
picard
sen
aff
##ached
##ago
mc
##aff
##aces
##play
office
dest
mal
##ael
influ
grow
wall
minister
either
energy
development
control
pun
ren
wood
rob
185
##ii
cover
##de
edit
christian
commonly
prop
##ta
##ored
sound
text
paul
press
comple
never
includes
##yr
scot
resear
vot
wrestling
division
##ox
##esh
##ican
##vados
calvados
dou
##lished
##arn
mart
##uce
plan
arg
northwestern
mex
ide
##heast
empire
ham
stad
##iness
##ints
##ament
territ
career
census
footballer
indust
canada
married
previous
little
food
ox
##cer
ball
param
article
race
civil
view
##ba
##ulf
plant
##ination
ha
##uel
##ano
##aper
singer
instead
referred
once
ten
belie
liter
bay
sent
alex
fire
##ky
movie
##oon
network
wikipedia
esp
sym
hor
##ha
##vers
daugh
soft
##uit
##mon
guitar
##ule
broad
social
mel
constit
canadian
novel
fall
##odes
mater
radio
mac
##aves
australian
conduct
established
force
##gian
iss
books
##andie
generally
##ude
educ
charles
stadium
find
put
##ological
##ened
parl
##enorm
claim
##pper
oce
##ending
##enormandie
fem
object
bassenormandie
hot
##rew
fif
wife
##kl
##anch
##aps
information
bir
lin
test
##com
tur
ba
##inct
##owa
den
instit
bank
seen
brand
##ellow
construct
half
changed
aqu
middle
taken
##ched
nhl
invol
##ators
##osaur
##lands
meaning
lost
players
##ges
proper
hill
li
los
##ention
science
mem
sout
wwe
##ured
recogn
thought
louis
iowa
virgin
##ivid
obs
##11
battle
norm
hold
##asc
184
nick
##adem
material
##iter
brazilian
##of
seven
##ission
site
mont
across
coll
tor
recorded
articles
parliam
wid
struct
individ
mos
ancient
##bers
##ani
emper
almost
standard
ur
##iest
italy
##olic
cycl
military
dut
##etic
##chest
metal
category
fer
##hest
franc
init
orchest
units
##tt
##den
##oint
blue
africa
lower
actor
##ional
activ
range
chemical
director
##ucle
scotland
##kn
angel
pet
round
##eds
research
parliament
##ops
minor
bad
business
hom
##ocr
##ube
change
##oph
jack
ze
building
look
fig
queen
ast
pac
ocean
front
exec
position
##onde
academ
atlantic
paris
court
##here
tex
street
further
##omb
worked
##iec
pred
relig
victor
et
hun
tim
vo
##da
chin
##que
doc
plants
surf
##wor
sports
funct
space
##iation
ground
miles
ident
##ibr
defe
simply
china
throughout
fiction
##ria
##empt
##hi
##za
priv
micro
cur
syn
daughter
want
week
aver
##erc
systems
discovered
##ope
below
##nes
fort
gal
sant
teams
points
treat
ul
1998
gro
leader
described
mad
sam
better
program
cath
continued
eight
gave
nt
announced
joined
link
becom
jew
##ya
appeared
##ze
pract
hour
study
organization
fourth
away
robert
records
types
abb
tom
electric
heavy
orb
##go
thus
proble
bird
183
log
ta
grad
computer
retired
racing
suggest
##ician
valley
animals
nucle
##wer
avail
wil
##omp
related
espec
##aker
above
services
kore
past
##bc
emperor
especially
50
uses
##bor
##ket
close
##gar
release
bc
don
compos
airport
david
contains
replaced
kar
na
##field
travel
mess
ol
##less
mary
rain
songs
##oid
itself
outside
bal
##cle
movement
ire
##used
events
henry
##ests
##ips
talk
prize
meth
clos
1997
viol
##uated
least
size
##ming
##ij
come
labor
community
##self
##ga
##ota
caused
ho
##inal
block
purp
available
ga
heart
added
opened
##eign
except
##hess
awards
mostly
##ification
independent
ven
##19
##ential
mix
say
working
highest
expr
russian
nav
style
prem
gironde
data
rather
##itch
temper
1996
entire
domin
entertain
scient
flag
##bol
altern
jour
##hire
select
southwest
sex
upon
software
effect
summer
introduced
lic
stra
cho
##sequ
artist
production
successful
sus
##edy
actress
code
##clus
hyd
cit
##ari
mexico
pacific
kh
stage
prime
society
latin
episode
dig
kind
know
numbers
attempt
kil
meet
##ique
signed
##ona
chic
groups
ring
tro
##itan
##elling
signific
features
soon
##bon
##ca
##wood
multiple
chinese
jud
##edi
##atory
##apt
##ua
##uf
##cher
prince
windows
##urs
##0000
transl
cities
##vir
orchestra
box
os
prob
specific
ireland
fish
##asons
distrib
corn
ey
cents
officially
##like
your
fest
##view
##outh
##ground
got
##iers
##lor
##ption
forms
1981
length
##oo
agre
himself
case
chief
decl
##val
##ush
##ump
##tr
1995
certain
rang
##ression
theory
stop
##ura
market
average
carol
border
lines
chann
user
1986
upper
returned
##ris
##ental
michael
regular
able
1980
possible
40
rul
##erson
champion
dom
oil
##va
nob
##abit
peter
##writ
comes
shows
words
performed
##cy
love
rout
elected
democr
##acy
disney
ben
honor
washing
studio
scottish
ach
##iro
##ex
##fall
##imate
eventually
federal
method
lived
surr
##ores
consist
##idence
genus
okl
pay
sand
governor
##head
##ites
asia
promot
languages
cost
sir
shar
rights
surface
##heas
##ested
iii
##off
##ck
1994
##known
happ
##erous
##ask
##oms
muse
diff
oklah
rh
beginning
nar
sem
1979
cry
lord
secretary
pays
##aged
1974
##utes
designed
duke
unit
square
oklahoma
mountain
dark
might
plat
capt
princip
months
cab
##ls
frank
spir
transport
traditional
fut
##50
magaz
##sel
1982
cele
entertainment
##lim
meas
wild
##for
forces
news
berlin
makes
conserv
killed
##har
1990
chart
model
lot
table
##mar
pan
voc
anal
##itive
##ems
followed
washington
thom
##cast
whose
museum
here
##itted
approxim
catholic
lay
##ements
182
conv
step
source
ly
ps
##la
media
luc
tar
phot
larger
writer
leading
##heastern
1993
relations
baseball
fight
piec
britain
characters
armen
loire
##att
##mph
subject
##gs
too
swed
dar
rank
quick
kent
##oka
respons
burn
gar
raw
##esc
symbol
fail
territory
virginia
date
dyn
lad
##tic
deg
arab
smaller
terms
##olf
1992
##rect
react
180
1976
mathem
1983
doct
card
##ropol
police
##arily
gard
cells
##itaine
##icated
aquitaine
mach
users
bridge
significant
##ery
opera
##avor
prix
##lam
##ini
envir
1984
##ography
appoint
internet
##utions
colon
winter
jose
divided
borough
##ita
sequ
##enced
awarded
bac
mur
reached
display
##van
separate
pow
##ils
exam
1985
reported
education
birth
fac
rap
saw
web
belgian
van
##ki
##essor
compound
magn
contrib
lu
##ste
money
chess
##idae
##ecture
beat
##ference
starting
keep
pict
##enth
chall
accept
dutch
##ett
texas
environ
native
1970
festival
bab
##iff
##bour
mainly
calend
document
fle
##ream
richard
aud
ple
wales
polic
##gypt
1975
1977
desp
celebr
nec
section
##roy
##igr
##oviet
1987
performance
express
tell
1978
sax
##ering
1991
thomas
##ef
##ensive
brown
academy
##ror
##wa
instr
##rian
ess
##endo
##raft
boy
1973
##ili
archit
##agon
decided
##iding
african
rais
##ima
placed
blood
1972
remained
turk
takes
break
chicago
hous
##down
##aries
thre
constitution
##echan
debut
ae
egypt
##ends
create
towns
philos
bud
cut
commerc
##aching
greater
approximately
tal
##olk
students
1989
poet
dog
tree
##wide
1969
dead
1967
mountains
##amb
##utive
##iano
behind
nation
soviet
##eral
ask
##shire
beach
libr
##reg
southwestern
tourn
pressure
private
elev
##isc
always
writing
extre
culture
friends
channel
regard
move
changes
refers
##nal
##ising
shown
mario
flow
peace
health
##put
subst
applic
ka
spain
metropol
revolution
female
give
mechan
##anded
draft
amount
higher
calendar
##ume
frequ
es
hydro
cause
il
nations
##men
associated
1971
speed
ban
pit
##stand
individual
achie
magazine
##uments
##iant
longer
dise
board
directly
nint
woman
##hold
##ola
active
ended
##ym
179
jun
##enna
animal
letter
angeles
##erved
1988
widely
rule
inh
depression
rome
##ify
##awa
winds
##ote
##inson
surround
nintendo
ic
##rial
belong
image
politician
dro
typically
bell
##12
cold
despite
rom
##ario
offer
##itude
##hers
spl
quest
impro
visit
bound
manager
ros
sar
winn
election
respect
picardy
nuclear
esc
rod
##aut
##atively
paral
distance
francis
remains
particularly
##ero
##airs
martin
##ingu
abs
twent
gas
roll
action
##onic
##str
wal
trade
compan
estim
occup
lik
nine
nature
##win
victoria
mir
pos
stock
stone
##orial
##ato
##ples
disp
distinct
driver
autom
##igned
remov
pain
##gor
##cules
nomin
ath
aster
commit
newsp
musical
foc
##ocol
##writer
environment
winning
##uation
things
neg
future
limited
chap
convent
complex
connect
jes
##aland
invest
moon
explor
motor
##ios
##med
##ving
reb
##ansas
contain
##hedral
passed
##ja
##istic
hours
##ych
nobel
arts
cook
russia
fair
wing
diam
earlier
our
saf
stars
ut
##abeth
##ucky
##60
note
fame
##urity
older
##board
##ws
##ala
contract
cand
brought
subsequ
oldest
kilomet
##ufact
metropolitan
romania
allowed
administrative
bul
parameter
##ole
true
adop
feature
sister
##ston
deep
calc
laun
schools
fund
jer
concept
cathedral
##can
##ades
access
cust
emer
done
manufact
structure
##chester
forest
drum
edward
acid
illino
function
alab
##ands
seasons
consists
##gress
films
##asion
##icult
##stone
controll
observ
32
cas
##my
##unk
whole
destroy
illinois
wide
empl
##uction
master
stan
##istry
35
enough
commercial
train
recent
glob
basket
believed
fifth
becoming
composer
operating
featured
bbc
owned
buildings
poka
##atives
##reen
towards
branch
appears
az
pages
yellow
##oud
foreign
corpor
medic
##box
competition
elements
previously
carolina
##oe
##alp
##selves
eth
hund
##leg
themselves
professor
household
bon
ran
rules
##ado
damage
probably
bow
foss
carbon
electr
philosop
pu
paint
##enne
##ava
primary
recognized
inn
rat
##over
##ceed
spring
wars
##the
diss
finally
independence
planet
alabama
jup
peak
studied
jul
##iment
myth
industry
##well
albert
lee
evolution
##teen
provinc
emb
cred
##inet
##asing
prior
formerly
hu
wa
##don
##och
##zo
##gn
##ora
stated
1968
##ready
opt
via
##anz
##ounter
columb
olympic
mas
##bur
conver
spent
adm
physical
urb
directed
jupiter
prec
georg
joseph
60
tag
flood
20th
concert
status
picardie
relationship
hundred
inside
complet
muslim
account
medical
producer
mu
security
##ights
quickly
##stein
haw
##sen
already
##obile
review
astron
aar
naz
whom
adult
occurr
premier
##ulated
composed
slow
institute
##ining
stations
##thing
harry
appointed
taking
##oles
places
webs
library
##hib
##itt
spok
##illa
parish
bern
tenn
commission
gene
northeast
nearly
value
label
golden
idea
difficult
von
locomot
##ologist
finished
annual
500
perm
tv
clear
ty
insp
##ires
##ails
provide
lies
districts
trees
problems
##ros
indic
produce
manchester
required
iron
##era
##aka
prison
ship
regions
situated
silver
penins
complete
journal
kentucky
cases
##year
assemb
broadcast
southeast
##gu
##orpor
interest
basketball
cub
##umn
arn
edition
economic
tournament
##rich
2011
completed
construction
die
fc
alph
##uses
alexander
lif
##ada
##anned
dynast
hind
##iel
##ager
committe
##oor
running
nickn
##enge
simple
mathemat
ax
gulf
jr
##unn
location
##riage
irish
##ilities
element
181
determ
sac
##back
##illy
stories
search
177
tax
##pre
##ability
provided
quar
assist
gall
ie
paper
##aign
appearance
eat
attract
rot
weather
helped
sav
##20
19th
##quar
numerous
religious
##oul
critic
robinson
urban
astronom
45
pil
conference
print
bull
##isions
reason
tele
amb
zealand
partement
fox
1947
studies
humans
ts
recording
iv
mr
pap
pick
1945
collection
fly
penn
##hs
##hic
##war
deal
municipal
circuit
dry
pack
##bl
islam
peninsula
ful
##bury
##ault
##iting
##ersey
subt
albums
employ
vend
##vi
##vin
##aches
reform
earn
##wan
##porary
trains
install
electron
favor
les
pref
transfer
organiz
speak
fel
therefore
worldwide
jesus
era
arth
##aught
liber
says
goal
figure
male
##mark
##iger
majority
variety
##iber
##cel
##entr
confl
grant
1963
route
walk
##aa
##ira
congress
##ella
ago
executive
alternative
80
cart
rivers
salt
feet
##ension
1980s
portug
zone
##onia
##ables
neigh
scale
personal
##rison
think
medal
discuss
responsible
hus
##ken
thous
carl
coach
castle
##oot
actually
1949
settle
campaign
psych
committee
##ises
leaves
bob
1961
listed
wanted
##ented
sett
involved
##overs
statist
dies
map
##isters
##omm
learn
notable
concern
argent
schol
barb
defeated
treaty
##band
spr
symph
1965
1964
democratic
ther
arda
foundation
overall
particip
copies
spirit
##ered
communic
recently
##atures
oh
anton
##ership
cham
allows
constant
southeastern
etc
voice
cos
fill
rub
##30
##lel
##rael
mayor
##ffer
##kshire
remain
told
address
kma
dynasty
##igan
##ishing
##wealth
concentr
turned
birds
om
vac
##craft
bear
leon
subd
mole
temperature
##change
closed
brothers
##iles
##uries
heat
##izes
commonwealth
bacter
##isl
ont
dance
##ayed
chair
##anced
write
imper
influence
##olved
##oper
artists
renamed
90
trop
##hr
engineering
disease
tool
sevent
1952
command
jeff
lie
##ipl
advent
1966
immedi
##worth
split
fast
hop
hosp
flu
room
degree
##time
staff
ord
maria
musician
discovery
primarily
license
##amer
##urt
whether
cerem
##central
korean
doctor
##ift
evidence
1962
moving
##ector
nearby
kr
rough
##iences
##enger
##use
cape
sources
##yan
##vd
princess
lady
cow
face
gun
kat
##lad
##enburg
freder
singles
opening
mcc
od
##wise
##anes
1960
178
temp
scientific
destroyed
swe
##jab
anth
##ques
parents
poor
historical
double
initially
citiz
examples
ko
##erve
##otic
comedy
##iana
##rick
cars
joh
##ilies
leave
##orders
##ensity
highly
lives
reve
defense
##tained
va
##born
israel
##eck
##osa
content
1946
normal
threat
estimated
##aria
grew
letters
practice
asked
bod
coc
mand
nic
##hood
##rel
holy
##wh
quant
income
ontario
path
##uals
##roe
##aded
rapid
##bourne
##ien
inj
unlike
going
##iens
##uts
supported
##aniel
cyclone
bot
wear
ash
training
1950
runs
technology
olympics
conductor
companies
cra
##ibility
incorpor
greatest
products
conditions
##eters
teac
contr
##action
bah
##osh
austria
editor
industrial
jewish
hug
nap
1970s
nether
literature
75
defined
eliz
biggest
jersey
exc
weeks
guitarist
din
anne
##asia
##rupt
course
adopted
cz
mi
triple
qual
gives
needed
bou
##66
##ously
girl
twenty
athlet
mis
##ette
##oln
colors
1948
solar
jon
tall
##zz
##aceae
##weight
kim
##oses
usa
spread
##ysis
1959
entered
mention
##gl
##aska
regional
underground
necess
##du
thir
graph
cancer
format
edge
headquar
results
episodes
##aled
##ilton
flat
captain
georgia
loss
piano
##unt
##ishop
cultural
platform
##ivor
##soft
inte
guard
classical
organism
animated
challenge
##usc
younger
crown
proposed
row
##iny
promin
##oke
maxim
versions
laws
newspaper
bost
core
##ped
forced
##agn
hercules
palace
vehic
principal
##isp
##iday
##aped
noted
blues
vote
policy
corporation
linc
##ias
##leman
confir
swedish
assembly
arthur
1957
netherlands
cha
und
prom
counties
oppos
alf
leaving
##rug
distingu
continu
basic
legal
parallel
boston
mm
##ees
##gau
##oto
prevent
##azz
quot
instruct
increased
administration
applied
explorer
150
iran
hem
mamm
smith
authority
combined
microsoft
kenn
##inger
reign
fields
digital
65
cip
fat
theat
##astic
smack
additional
tells
dol
jim
self
##edd
##essed
normally
armenian
fant
snow
levels
lincoln
##hol
##18
##inary
1956
races
custom
doll
jac
##ging
##aki
sha
max
covered
purpose
smackdown
jane
##state
suffer
pron
marriage
flower
##aily
chris
apart
behav
sulf
##wick
philipp
korea
##asy
##ington
tried
northcentral
polish
impact
powerful
##burgh
##wich
theater
management
increase
jackson
website
mom
##nam
##ulations
hero
cool
1953
defin
direction
claimed
ell
morn
##ads
suff
kept
czech
rate
##mond
##abor
ability
freed
billion
33
ans
##akh
poland
charl
suburb
attended
establish
fictional
##ois
##idents
bron
convention
elizabeth
##haps
##rat
##iform
perhaps
angl
imperial
daily
sel
##14
##tered
alt
##vert
spect
pope
drive
serving
federation
##osaurus
venda
husband
70
fell
habit
##bre
andrew
singap
1939
harv
bush
punjab
yet
##15
eld
##ycl
##ami
##ista
chos
climate
drink
demon
arrang
diameter
bene
##alia
##roll
##onto
programs
susp
subdiv
nam
pip
orth
##ustr
likely
medicine
dim
sau
##70
##real
##ching
##unity
percent
job
families
slight
waters
straight
garden
fix
ip
##bed
##elled
marc
screen
matter
1942
machine
completely
rise
prepar
cav
fans
hung
lack
tel
##sa
bring
soccer
##oa
##water
##xide
##arian
clar
draw
removed
singapore
bart
sund
##ila
ford
##abad
monroe
giving
dvd
daniel
ger
ru
tam
##rane
intended
mayenne
1960s
legend
shortly
powers
instrument
houses
dna
hart
tic
##ibly
provides
sixth
links
piece
raised
mouth
##ione
bey
sexual
declared
bott
ded
##nd
else
legisl
growth
bang
##200
##jan
1954
protest
frederick
aube
gh
ww
wave
mans
script
continue
historic
doub
ram
##lement
interview
equal
question
candid
bomb
hair
##mas
##isher
alone
shared
minutes
operated
symphony
pier
##ties
##ko
##etts
##under
exhib
shr
flight
##ographic
derived
believe
problem
pictures
##80
reach
goes
centuries
1990s
1955
hills
junior
hospital
##rid
##orts
engines
1958
bands
arms
##bridge
inhabit
ain
dan
##40
##orter
ens
contem
relatively
something
templates
morning
##aging
atom
##achus
##resp
##based
##iance
gramm
creation
toronto
agreement
vocal
nit
sens
##heim
containing
serve
highway
memorial
winner
##met
##iced
online
##adel
suc
##izing
shel
message
aargau
occurred
##eman
provence
universe
1944
borders
chlor
theme
officer
daz
showed
deliver
massachus
earliest
horse
budd
investig
##amin
##una
prote
cooper
##icted
presented
senior
mosc
selected
organizations
fro
kansas
sense
comment
shall
entry
latter
ancest
potential
saturn
arnold
massachusetts
ways
butter
##ype
persian
parameters
activity
columbia
alphab
chosen
cel
rose
tower
##ayer
aircraft
issued
horn
kings
ray
sle
acting
strength
titles
reference
solo
buried
turb
##ourt
founder
##ancy
string
organized
effects
eye
provinces
bed
gi
##rd
sud
share
##ailed
poly
milk
hosted
stephen
42
ken
ll
##rain
##ighth
clim
extended
basis
jean
describe
increasing
senate
##standing
kash
sty
carry
santa
murder
launched
mun
##ih
##aud
##uten
##pped
twice
strik
acqu
1940
operation
represented
tracks
extrem
300
tak
##add
1900
austrian
images
##ylvan
eggs
distribution
64
cass
counter
fresh
shape
##ova
matches
property
abbre
ruled
bit
hyp
ss
##13
##acing
cloud
coal
financ
remaining
extinct
landfall
soldiers
measure
accepted
architecture
diesel
roughly
1000
##onse
##elle
pattern
device
ped
##dr
##ania
goals
sets
championships
becomes
dazur
ja
mph
##ny
tra
percy
buff
swiss
pieces
##alpesc
provencealpesc
dor
mut
rug
fruit
##agr
objects
suggested
domest
stanley
fully
ak
danc
som
##ji
##atar
minnes
farm
ult
cryst
please
kilometres
ott
##uters
##icks
narrow
ohio
behavior
minnesota
bible
wings
feed
navy
asteroid
##ogle
joint
1920
sites
growing
headquarters
nag
sons
##lers
##isa
##eland
marie
serious
writers
francisco
##isen
asp
beaut
##ogen
agric
larg
dinosaur
36
mes
mind
sides
wit
##bra
alaska
##illes
formal
1951
student
punk
oxford
religion
respectively
spoken
immediately
##respond
##where
plain
traff
meeting
eyes
crypt
conflict
bol
gn
pair
##itation
chocol
compared
##chen
avoid
steel
controlled
nazi
agricult
##mir
##rey
##aya
##iab
correspond
hamilton
fash
vel
##99
column
resist
aired
sky
connected
gained
##wik
##itor
orange
trial
##ante
contact
google
acts
angle
largely
cm
jazz
##iders
bright
contest
strip
belief
protect
copy
ticino
##ylvania
sin
##key
##ali
##ims
solid
issue
moscow
37
jur
liver
mobile
vice
plate
##odox
exclus
controvers
reflect
alexand
mixed
therm
lor
purch
##ship
##con
##ece
brief
wrestler
demonstr
fun
walt
##inated
compl
pole
classified
merc
michigan
ideas
##anda
##aga
consum
capac
resulting
require
causes
activities
succeed
dates
han
pul
##house
monarch
160
classic
##ription
closely
rural
##ml
##37
##ivity
exchange
##kee
correct
##iques
victory
individuals
subsequently
coup
rum
##pa
weap
##anning
##ledge
motion
traditionally
mythology
##american
giant
py
wel
##pool
saying
fossil
cd
##orf
##enz
##iable
shot
mars
circle
conducted
issues
48
lenn
rare
conqu
##oven
adj
easily
occur
1918
causing
settlement
fantasy
kel
tou
##irb
mah
agreed
fal
##etime
##abb
spons
server
weight
earthqu
mission
illustr
compounds
surrounding
dc
hat
pale
##rol
##ulate
tehs
progress
speech
specifically
dang
marsh
physics
montreal
orbit
trophy
39
##rier
##ening
##aro
meant
1933
lands
occasion
holly
satell
faith
failed
inhabitants
dun
gil
##isk
enj
penns
slightly
##car
join
wellknown
1936
wrestleman
##ipped
ern
falls
confirmed
opposite
pin
rhy
roles
theor
ones
unus
pool
charge
movies
1941
chrom
##book
williams
melbourne
linux
troops
focus
alphabet
covers
rand
ross
##then
toy
score
carried
possibly
croat
fashion
balt
fu
##iat
##erts
apple
transform
protection
auto
advanced
tribe
tribes
conservative
darwin
applications
mentioned
55
dial
liqu
mit
##uda
intell
perf
longest
restric
44
cru
perman
sang
singers
##ograp
separated
wrestlemania
bure
lith
overs
##25
##ici
trust
agency
quite
vienna
##works
temple
cod
ib
tay
##usion
parties
1943
sugar
seventh
bav
divers
gab
nfl
sod
sell
##fort
forward
##ache
##imp
enem
##ello
someone
serves
expans
kmh
##monic
johann
chocolate
tib
##set
##asa
unique
try
tea
quality
##engthen
initial
neighbor
freedom
400
dal
gam
rav
##uese
coming
arc
##claim
belg
classes
1938
response
identified
portuguese
lyn
##oh
feel
brows
novels
austen
programm
nominated
financial
pennsylvania
hay
##otes
##ifying
exact
##ections
justice
allowing
intellig
43
onto
feat
weaken
secondary
repe
universal
encycl
materials
sweden
moment
wwf
kong
##more
##mouth
##17
depending
default
passenger
##apped
attacks
affairs
mathematics
orthodox
##organ
##ito
hear
##uki
fighting
extreme
regarded
subtropical
earned
bodies
capacity
cher
lind
mist
yor
##gers
thick
##agen
bra
transm
internal
copper
catal
##bean
grown
citizens
teacher
hers
lock
tend
fried
##ithm
gray
hands
motors
influenced
frequently
incorporated
prominent
38
dod
ira
outer
##lines
##othes
##uther
seem
##iang
twel
actual
drama
minim
myster
queens
memory
quarter
cou
sor
##pe
compar
##aho
equival
restaur
encyclop
##ati
##alo
adapt
carib
chamber
bishop
dream
18th
batt
tennis
kashmir
lov
chur
##oshi
marine
goalt
gregor
generation
ecw
##unction
mississ
holds
instruments
global
lennon
dub
ot
voy
##light
##je
##station
store
neut
compris
##cles
176
assum
glass
sales
##pro
##16
##road
comic
uncle
##opp
adams
youth
turkey
offered
beyond
##onent
##onents
##anth
franch
height
planned
supre
trip
upd
glac
##hens
expected
marked
territories
picture
priest
##pton
prefer
attention
##encies
condition
virt
females
caribbean
##ordin
formation
syd
##aux
1930
operations
moz
##ippi
camer
analysis
saxony
philosophy
males
##uate
##atically
##ety
##ctic
##vereign
breed
##istered
potter
lyric
enjoy
pig
##oen
##isation
seg
##ardo
advert
##aceous
sovereign
studios
payper
duc
ov
rar
##stream
##ela
chile
atm
resour
values
merged
inspired
belgium
sed
taught
##inus
##itage
##osl
spot
brad
caes
begins
vocals
contemporary
tehsil
payperview
crow
ign
satur
##kin
##fish
##oring
1937
elim
1919
villages
knowledge
dur
fine
hann
vent
##ext
##ras
##24
seeds
pruss
marks
prey
survivor
experience
literary
violin
necessary
maximum
cipher
bought
density
thin
thunder
uns
crime
1935
credited
twelve
dat
jump
ri
alle
plans
scene
opposition
methods
ric
##li
##rie
##ci
brain
##iba
##ika
alliance
indones
genetic
anything
typical
functions
sequel
bacteria
fear
file
nba
##ador
asian
##uting
##ills
##ovak
##asts
playstation
##landers
##onds
sched
guest
##onym
skin
cycle
electronic
sydney
fellow
none
pear
##col
##itled
##cha
schem
sciences
singing
implement
ordered
girls
mexican
constructed
selection
consisting
arabic
mississippi
atmosp
1st
lew
deaths
scholars
chairman
bottom
fuel
##adow
chanc
1934
suppl
idaho
1929
titled
continental
combination
properties
translated
positive
safety
dedicated
extremely
phen
ron
##uan
##nic
##mont
suit
newly
scul
drivers
presence
republican
watch
voted
claims
jews
stopped
islamic
yorkshire
diet
tab
tail
##het
##inth
##oned
ships
storms
replace
managed
molec
churches
fought
kin
kir
rena
##bec
##fit
leaf
notes
carn
strengthen
entr
immunity
nickel
purposes
ker
rog
##iations
##ker
notably
warm
johnson
##ielder
sleep
95
##omes
##thm
ark
arena
tram
appar
assigned
accomp
ending
1932
designated
1912
resulted
economy
khan
kinds
kid
zoo
##iac
##fa
##empl
commander
clay
computers
shell
poll
##ashi
expanded
processes
figures
cabinet
featuring
arb
##alled
otherwise
parks
resc
phr
bros
1925
request
ceremony
revealed
organisms
expansion
aber
cu
ecl
hope
um
##oids
##90
toky
##star
##istics
##ods
depend
starring
colorado
indiana
produces
mcm
structures
mechanical
nicknamed
equivalent
folk
incl
serb
output
170
175
##phia
clubs
experim
existed
heavyweight
target
walter
thousands
gregorian
las
tai
vit
##wal
##org
uniform
trav
heritage
##inton
finn
creating
designation
##ranean
gate
pione
##ds
##iva
universities
background
##harmonic
statistical
tu
##ando
comed
shut
##sole
branc
##ieval
cloth
recover
centre
songwriter
lasted
occurs
volume
flowers
hugo
fit
lam
lakes
##rus
##cont
contained
colony
flows
feather
median
details
turkish
tibet
franchise
flanders
sab
vul
wet
##mund
input
##lets
withd
##aked
brook
rangers
goaltender
codes
mile
viet
##zy
wheel
teen
broke
veget
biology
reading
critical
beatles
goth
##iology
##yer
1910
reject
##aste
##phone
northeastern
presidential
standards
reports
hitler
prefecture
granted
sculpt
ds
##roit
##iven
arsen
greece
workers
##ologists
philip
tribal
defeat
ranked
municipalities
sain
##86
##onian
##ellor
##ternal
soil
medieval
1924
philadel
detroit
architect
emerg
locomotive
sweet
rugby
kit
sail
##tes
##lan
##mann
##45
##rees
##iga
##agan
scen
phoen
##grade
belt
1926
stands
observed
linked
sunday
traffic
ay
##ew
##aling
alp
teach
abd
ministry
reprod
accident
supply
encour
ferr
captured
subsequent
felt
philadelphia
wine
##fr
##iled
chain
check
portion
midf
literally
uran
orbits
poetry
locomotives
##rig
##inations
grav
grass
##ogy
noble
owner
avatar
clean
insects
armenia
definition
bes
##tv
why
coff
ages
relative
remember
reduced
invented
paid
##iscons
wiscons
##wall
stu
prost
##iful
brid
nothing
deput
recip
soul
pepper
boys
evil
imag
obl
1923
standing
performing
hyper
hotel
entirely
choice
celebrated
hawai
taylor
tokyo
aang
dio
germ
ry
rud
##has
##ishes
##osis
pros
recomm
##ropri
follows
officers
protocol
authors
existence
abbey
banks
escape
pronounced
succeeded
47
mol
mak
ow
vary
wag
##yst
recon
disapp
joe
1950s
mediter
creek
fab
hell
##found
##asm
abst
aband
knight
councils
keys
summ
lieuten
domestic
46
bh
ku
lanc
oak
pav
##urer
items
brian
visited
quebec
declar
contrast
mediterranean
aw
##feld
stay
decor
##ruction
protected
1917
refused
lightning
baby
aer
ahead
drop
vic
##iy
##ek
##order
convers
##ordan
metres
16th
anna
popularity
existing
karl
distributed
corner
abbrevi
earthquake
bath
bund
tas
yam
##uins
##cano
##enue
##level
trail
autonom
journey
dogs
hollywood
wisconsin
lap
lib
##vement
##olis
worth
teaching
vert
setting
1922
florence
attacked
application
occupied
liberal
mammals
bureau
duch
ech
gust
jess
kon
save
##ray
clock
##angel
parent
founding
attrib
165
interstate
extra
importance
politics
advance
technical
cambridge
cuba
bag
fern
##inity
##rov
seb
norwe
##aws
albany
canadiens
christmas
stream
palm
rhine
lists
mort
niger
##din
geomet
competed
##helm
walls
treatment
electrical
perfect
gabri
wins
unknown
playoff
decision
musicians
rocks
antar
1913
1901
critics
happened
assistant
styles
midfielder
bos
##fam
ina
##icient
scored
##ieties
adding
1928
basil
godd
conservation
##town
##right
gran
induct
floor
ends
moore
starred
billboard
ah
fitz
gosp
##su
##aver
##haus
inner
andor
nep
weak
matthe
offices
alongside
archae
votes
degrees
fleet
hub
rival
wolf
##bu
##een
##rest
##ication
##anta
scar
reserve
smok
descend
needs
synt
slowly
printed
phoenix
norwegian
sher
tube
##oir
##rom
##iti
##utation
##apes
##sex
simpl
glas
moons
1914
projects
dropped
permanent
##gow
##kins
##75
##iring
consequ
dragon
signal
1927
railways
everything
arrived
immigr
flowering
buddh
satellite
bapt
lion
si
tip
vanc
##ture
anch
console
firm
medium
harrison
begin
advis
traveled
hundreds
munich
gets
josa
pel
pull
##eor
##28
##wald
##36
##ouver
##olas
##tery
ariz
partner
resemb
warning
maintain
models
##obox
developing
classification
equator
losing
collabor
achieved
integr
kor
##bro
##arm
seed
adap
##cluded
agent
##text
undert
useful
solution
philharmonic
camps
producing
looking
samuel
liquid
sodium
caesar
saturday
gord
hid
hip
##ho
##zen
##38
##inals
lev
shoot
##ighter
##athan
elections
showing
##oba
armed
coastal
volcano
ultr
boundary
sacr
protestant
vancouver
arizona
cena
hans
kaz
##35
ingr
##entric
##acement
reaching
heb
prais
evolved
doing
subs
attend
entitled
equip
authorities
michel
##general
oxide
birming
wilhelm
dominican
bowl
birmingham
cad
ft
lav
pian
tick
##oral
##orage
orton
##opes
coordin
simon
signature
campus
successor
advant
techniques
concentration
bronze
lux
selling
##jo
##eration
##lyn
plane
currency
extension
invasion
publication
officials
categories
couple
rarely
hong
mong
mike
ok
por
sisters
##eg
##estone
decre
meteor
represents
representatives
encry
horiz
reaction
sequence
challeng
households
##ladesh
bangladesh
bavaria
tiss
##ns
inher
##uri
reward
##agues
##artney
##sey
composition
forming
preced
swim
mainland
168
obtained
miller
experiment
constitu
translation
displayed
drummer
rhythm
arkansas
eclip
deputy
dj
mp
pad
##raine
iso
stret
##igen
##ogue
meters
finish
defender
steve
##minster
youngest
confeder
scientists
sharp
painter
geneva
filled
mercury
hence
tun
##room
reasons
external
teeth
warri
throne
attached
occas
1911
charts
gardens
muslims
alfred
kennedy
weapons
iraq
sid
##ev
##no
##lete
asc
displ
pret
genera
chronic
difference
receive
galax
magnetic
hydrogen
rolling
rebu
converted
transferred
bobby
jefferson
atomic
abstract
00
eric
xx
##cw
##21
##icut
##ucing
flash
describes
rapidly
85
buck
lem
migr
ng
sie
##uits
plot
dram
1921
cultiv
historically
connection
opposed
affected
painting
argentina
candidate
occasionally
chancellor
dipl
nut
ton
wound
##bird
##part
##34
##anna
starts
1931
changing
visual
chemistry
laboratory
hebrew
sind
vau
##dam
##mith
stages
rein
flo
120
crust
##alty
gods
physic
connecticut
unusual
branches
ale
eag
f1
tunn
##uv
##hamm
##rad
##39
shore
grace
interp
interact
hurricanes
survived
homes
contributions
belongs
thousand
beautiful
taiwan
##mat
##ori
##ares
##rell
##agu
##uma
sole
inches
##ographical
approach
technique
malays
graduated
##cluse
fossils
philosopher
huge
tools
supreme
mond
pir
anime
##icts
##otte
algor
##essee
pra
abol
##oker
saff
governments
continues
radiation
getting
rainfall
temperatures
distinguished
hang
pas
ske
sections
zero
afgh
##amps
extensive
denmark
holding
cyclones
failure
facilities
tennessee
fixed
renault
##ropriate
glasgow
vaucluse
bour
bald
cot
wond
##uge
##ients
##ading
reality
depos
broken
matt
leaders
periods
communities
influential
suggests
franklin
argentine
abbreviated
equipment
nel
senna
##27
##oted
monte
subm
instance
temporary
easy
##uka
surrounded
intelligence
resources
cric
rid
veter
wides
yank
##bach
##han
tob
stores
forests
friday
resident
feud
amate
verte
westminster
impl
##spe
performances
1908
institutions
baden
drafted
ethnic
favorite
lieutenant
goddess
berm
rice
##top
##lar
##hard
ana
stick
orient
usage
norway
quart
##aiss
evening
volcan
hamburg
institution
wilson
layer
settled
suffered
hors
##gard
sta
stayed
##umber
nept
residents
carp
meets
harm
academic
striker
comedian
coffee
2nd
eug
jones
zo
clinton
roots
howard
crim
leadership
returns
supporting
confused
oxy
discussion
gather
rna
sort
##life
##elect
isol
appe
actions
window
massive
infobox
representative
journalist
napole
afghan
54
jar
mall
ni
pant
tong
##sk
##card
##etr
##ushed
heard
sust
trying
adam
##prise
phase
guine
originated
principle
compete
historian
audience
negative
thirty
lyrics
airb
mask
ves
##arp
##aca
really
##imens
##erse
##opher
shadow
calls
desert
offers
finland
differences
invited
##engers
revol
devices
socialist
zeus
illeg
pilot
adventures
vehicles
grammy
kelly
friedrich
matthew
##aissance
eighth
kal
rib
##icial
frame
chose
unable
arist
whereas
retro
130
1916
virus
eleph
heavily
honey
factory
economics
senator
views
fishing
mathematical
burg
cin
iod
kiss
rio
sad
sight
##pread
##king
##oro
##isted
exists
margar
##ocks
##teenth
austin
legs
downlo
circum
utah
billy
ecc
jama
##sons
##via
##29
##avia
seats
##izard
formally
##ahon
instant
roads
madison
dynam
flooding
philippines
cards
gon
hamp
mik
pc
##dale
##wart
##sters
waste
##iration
##char
spa
resort
wealth
struck
remove
reduce
treas
circulation
limit
mathematic
negot
vehicle
hemisp
##ographer
weakened
widespread
cable
uef
anat
thing
##uls
chance
demand
visible
requires
missour
weekly
ranging
absor
chapel
kilometers
instructions
theatre
vocalist
jenn
luther
mud
soph
##anks
##orph
toward
##eline
brab
##geon
##assic
americans
17th
passing
characteristics
1905
goods
situation
surviving
colonial
environmental
paintings
resistance
programming
vietnam
emergency
neptune
eccentric
drug
##iated
##gie
##rum
##omy
grah
greg
polar
metro
##obe
organic
magic
patrick
determined
subdivision
dinosaurs
hawaii
beng
cous
hiro
ky
nat
pink
send
##bi
##err
##lying
plus
##apers
enfor
sho
166
concerts
speaking
christianity
recognition
licens
attempted
asteroids
uefa
3rd
cem
fan
ian
ny
wy
##aels
##rix
##97
reich
whit
claud
canon
##ensions
1903
introduction
paulo
attempts
benj
drums
orders
bermuda
cemeter
51
##sky
##master
##85
##erals
##orters
strug
livingstone
crossing
urdu
automatically
evolutionary
nickname
threatened
accompan
dorm
ti
waves
##26
thro
##agne
174
maintained
##gerald
efforts
reviews
eaten
learned
acquired
fitzgerald
adapted
interpret
oxygen
missouri
dating
gael
mant
pure
tony
witch
##bar
##come
##wing
##oming
##oli
cream
emot
persons
##amental
policies
carlos
dioxide
gian
gang
gund
forec
chick
meg
decades
door
assass
milan
##enez
hunt
egyptian
romantic
observations
spiritual
lewis
amateur
aim
dia
mail
##inum
##ilo
##uto
price
##ruption
164
anyone
damaged
homer
consisted
mcmahon
abandoned
advantage
kur
rene
##tml
##fs
##adu
##ulus
heir
##ongwriter
driving
1930s
holiday
michaels
horror
madrid
violence
narr
colonies
essay
elder
indonesia
phrase
strugg
66
bach
golf
rick
##fe
tox
storage
##acle
##emen
##utt
##illed
consult
warner
amaz
empt
laur
crash
juan
designs
passes
editors
capture
pitts
##yearold
springs
jacob
habitat
benjamin
cemetery
56
800
dick
gm
##uy
##33
##aven
##iph
##ective
index
maine
defend
corps
skull
christopher
##erto
communist
turns
renaissance
louisiana
exception
bulgar
browser
aid
hou
lan
lud
##ocated
##ears
partn
herb
specified
poison
##rows
factor
transportation
lotus
luke
repeated
molecular
aberde
mongol
afghanistan
graham
bone
lis
ms
pont
rabb
##77
##tha
shir
warn
##spec
supposed
divor
1907
lesser
editing
involving
##ascar
powder
housing
antonio
purchased
dangerous
withdra
jordan
kan
lug
tat
wo
##pher
##erate
##ema
disk
meat
genet
populations
drom
moves
sword
invent
250
cattle
helps
balls
julian
communication
ceremon
singersongwriter
datab
inclination
cricket
bib
ivan
lob
risk
sart
wants
##iate
##eenth
##core
##erb
##arus
##lem
##aments
##umes
seal
lear
context
flavor
root
shear
genre
##ahn
guy
slovak
annually
basin
exped
1915
arrested
libert
hunting
doctr
eleven
anthony
diplom
hemisphere
49
600
faster
herman
sul
vision
wes
wcw
##law
##gio
##haw
##entially
sup
neither
lea
##sea
##place
carter
edmund
seconds
155
shortened
anthem
representing
survey
expressed
vacc
##what
inducted
cave
gay
lt
nest
pock
tang
task
yug
##uz
##dd
##fly
##rete
##uled
hein
suce
worship
severe
animation
tribut
mosque
routes
improve
puerto
prussia
bones
cert
option
rc
##ui
##uro
##po
##zburg
tries
leap
manner
##onda
scr
somewhat
actors
poem
airlines
slide
announc
childhood
succession
croc
electricity
strait
artistic
indicate
hindu
liverpool
volcanic
danish
gim
haz
##ran
##pass
##fc
##father
##78
##orig
##chi
##oster
canal
decade
mining
publishing
##atherine
retire
catch
emphas
timber
promote
convection
pleas
flying
cock
dum
erect
gor
nik
pup
rb
tusc
ward
##23
isle
thor
##igi
##essions
##auge
preserved
baron
statement
1890
affect
testament
peters
navig
ranges
revolutionary
axis
telephone
statistics
sauce
buffalo
saints
duchy
fia
fold
kg
lon
session
torn
vamp
##gate
##vis
##kh
##furt
##eless
proved
mineral
guide
recordings
variation
descent
christians
networks
davis
ballet
globe
maple
arranged
##claimed
nelson
dir
hollow
tin
##aco
##apolis
gra
manh
appropriate
charter
##hesis
finishing
headed
tourist
lawr
##apping
processing
egg
walloon
finds
documents
sarah
##break
chromos
##hammad
suceava
dru
gent
##sch
trou
brun
bruce
aborig
##ucks
blind
impress
interested
opin
operates
personality
berger
copyr
1895
hosts
billi
width
##borough
choose
winners
mccartney
nitro
herself
encyclopedia
entrance
guinea
fisher
jam
junction
kl
mouse
vs
ya
##vens
##95
##asian
exerc
brom
notice
strat
switch
easier
expand
terror
productions
delta
1904
experi
##track
visitors
feathers
wagner
cord
crop
hes
hud
vest
##gart
##nor
##cious
##itals
##aman
##ilation
encl
##emberg
##orship
mode
landsc
1902
louise
encounter
logic
##attan
typh
scheme
gordon
bond
dh
eisen
gone
hits
lun
rtt
sr
sick
locations
14th
providing
accur
15th
##ifications
laid
engineer
missing
seattle
crossed
predators
magnitude
township
newspapers
##keeper
5th
##iary
##di
##ystem
##inate
andre
##usal
spaces
##assium
scout
dism
evac
##inner
treated
receiving
killing
##heless
contributed
##regon
observatory
portugal
charlotte
touch
inaug
lawrence
nich
ninet
osc
oregon
tie
xbox
##iot
##rent
##eries
##atl
##stad
##rot
cancel
twin
guerr
files
fifa
executed
audio
adults
cartoon
protein
crystal
roger
autonomous
pittsburgh
bun
gain
gif
gym
hide
kak
mtv
pitch
util
##gas
##fellow
##erl
##unte
athens
plastic
spelled
grade
intel
##achi
reputation
remark
interf
passengers
steam
drawn
hole
expression
diego
criticism
quantum
athletes
prepared
sudden
declaration
41
caught
nash
##rill
##wig
##98
##folk
##urance
##idel
##oche
triang
leo
roof
monaster
consec
dress
##anni
appearing
particles
##ipping
volunte
debate
sounds
novelist
regularly
promoted
wildlife
##iliar
mechanics
chapter
##related
answer
agriculture
neutral
gp
hipp
##bes
##cr
##page
##wers
##ede
##igur
leeds
shorter
residence
##ocked
poems
cret
##obi
incident
designer
##script
returning
explos
potassium
lowest
choir
##clusion
promotion
analog
frequency
sindh
brabant
bid
dave
ridge
wire
wii
tok
bever
##allas
brig
##elli
##anny
interior
smallest
augustus
operate
ports
wrong
debuted
1889
covering
##world
mixture
naval
judge
subjects
birthday
cooking
adventure
##hausen
monday
kam
##uke
##iad
##ingly
##imb
##imately
##abi
partly
serial
scales
provision
simpsons
survive
##century
educational
testing
ferdin
homo
effective
sacred
installed
enemy
learning
tamp
##onts
##aren
##icide
frag
alice
##oca
prayer
commons
boat
drives
capable
##phal
##phalia
transc
batista
raid
strongly
looks
painted
croatian
houston
68
bm
liv
mend
nons
oz
rip
ub
##km
##inks
##ifies
shah
worn
centers
desk
understand
interm
bassist
oxid
questions
winger
utc
ecliptic
manhattan
lia
lingu
rings
##bell
##wright
rever
##emor
org
##osing
planning
syl
genes
understanding
strike
relatives
##elsh
##fully
bread
ski
streets
infr
readers
grounds
hearts
amounts
agricultural
briefly
voyager
gospel
pianist
cousin
rttemberg
cul
font
moth
rig
##rist
##96
##atch
reef
##eston
##iki
##ensis
maur
smo
artific
epic
specialized
colored
opport
purs
identity
gradually
traveling
measured
mechanism
chloride
clothing
vertical
margaret
3000
cake
hab
kang
mcl
pound
sale
za
##ni
##ram
theod
##isch
##amoto
##urh
trig
shield
norfolk
knew
longfellow
cheese
heads
1892
heaven
strongest
graduate
machines
substit
concerns
fluid
jonathan
comprises
crowd
gothic
copyright
98
bil
hend
miam
##sburg
##nia
##mes
##mart
##22
##wil
##isf
##icit
##ingham
##acco
##avian
##berry
##ogne
scand
##anca
extrat
apost
1865
closest
ruler
flem
neck
carbonate
speakers
coalition
##iciency
queensland
phenomen
malaysia
cotton
extratropical
110
fib
kurt
lang
vik
vinc
##body
anast
##ingen
##eto
scoring
afterwards
##acht
phill
modified
chel
trek
##odeon
1899
##after
constitutional
diseases
occupation
bernard
communications
athletic
restaurant
hidden
napoleon
pp
peng
##die
##pan
##92
##oria
##eton
##ceived
spelling
resolution
peru
disturb
pregn
edin
remn
transition
slav
effort
sporting
1861
daughters
texts
absol
dispute
dissip
indicates
lifetime
astronomer
##rupted
distinguish
ottoman
alleged
saffron
baker
herm
murr
rising
vlad
##do
##ses
##gae
##net
##oit
##vements
suz
sure
trio
commemor
norman
joining
crew
appearances
13th
kevin
courts
similarly
1894
10000
finding
talent
molecules
quotation
establishment
doubles
exclusively
atmosphere
rescue
ferrari
eccentricity
5000
cp
fed
venez
##uh
##wic
##fri
##olve
ali
##imore
shakes
##owned
depth
##ublin
##ologies
158
santos
principles
launch
telesc
ultimately
witness
marshall
nickelodeon
uranus
horizont
mathematician
database
aub
banned
gross
ye
##eas
##zant
##94
##eria
##ivals
unless
grame
##ogs
colomb
apply
##graded
movements
leads
glad
harbor
rocky
defeating
closer
regarding
romans
boundaries
manufacturing
aspects
gnu
neighborhood
gundam
cretaceous
dish
drew
html
kids
pomp
sic
##pur
inland
##ithe
alco
beer
unn
##udi
cla
##enders
blank
mainstream
1500
generated
estate
owners
greatly
respond
approved
derby
atlanta
involves
frontier
purple
shares
essential
determine
injury
sulfur
controversy
restrict
strengthened
reconst
accompanied
expedition
74
dwar
pist
rit
tyr
##rical
##pear
##point
##76
##oric
##rose
##imal
##osph
seems
truth
##udes
secure
accel
releases
loy
millenn
11th
railroad
1909
bigger
hardy
soundtrack
improved
safe
fundamental
muhammad
mansell
investigation
giov
baltimore
enjoyed
brooklyn
algorithm
aboriginal
anastasia
shakespear
4th
fol
gib
jura
sap
tort
##ez
##durh
stric
##ader
reun
##oga
allied
rook
140
description
antic
friendly
clevel
##iii
fifteen
composers
photograph
responsibility
documentary
substant
positions
manufacturer
scholar
delivered
##wikipedia
germans
drugs
rou
tables
vince
##ayan
##idency
franz
alan
proport
##oda
##abited
##phan
defensive
supporters
scientist
provincial
bouches
dolj
beliefs
empty
experienced
edinburgh
venezuel
grameen
cleveland
3d
700
dre
dated
gill
huss
htt
lung
rup
rating
tub
##eb
##otype
##imir
##unc
deuts
components
##roph
acted
strings
125
varies
divisions
mid19
trading
viruses
1898
cultures
processor
infant
destruction
honorary
fairly
participated
exactly
physicist
yugosl
bouchesdurh
360
88
faced
gast
jay
nerv
sought
##uous
##itting
##acent
##esty
##othurn
publisher
emir
signs
passage
hardware
senators
dougl
collaps
predomin
practical
maryland
significantly
keeping
innov
employed
botan
dollars
##family
wonder
6th
bug
kart
pand
rico
welsh
##lie
##cell
##mus
##fin
##storm
frances
concluded
##verty
##apse
exile
bruins
intens
cris
exposed
patri
downtown
##iquet
supports
1896
turning
historians
successfully
burned
hampshire
shakespeare
ble
duck
hob
nbc
rhe
vast
##ju
##hew
##esco
##esmar
##itimes
ist
##leans
thread
##emic
byzant
##ipel
knights
allies
aged
amster
minute
buy
154
emmy
loan
loop
estonia
idol
avenue
references
solothurn
runner
considerable
membership
everyone
1906
competitions
morgan
rebell
citizen
corresponding
tuscany
petersburg
bin
pine
zinc
##dy
##32
##reat
##lee
bryan
manson
margin
1800
intensity
resigned
thereafter
variations
##oyd
seeing
tourism
victims
argued
concerto
excell
jimmy
eldest
hungary
pierre
hypothes
undertaker
retrograde
ltd
bout
wol
##eed
##oons
##inter
##itors
##eta
client
flour
studying
endang
retail
extract
bestknown
1920s
easter
continent
skating
cyber
1891
1893
connects
primitive
foods
predec
cosm
arrangement
veloc
random
ravens
assumed
glacier
hack
kane
pump
##four
##icle
##ingo
orn
##opter
prol
usd
spy
##ovich
phyl
poverty
metall
105
10th
barcel
moist
##ception
begun
competing
illness
##iece
##chers
suffolk
increasingly
ernest
##contin
alpesmar
stuart
amsterdam
alpesmaritimes
ck
gur
tan
tenth
yas
##ei
##oration
##leton
orleans
##antly
##eller
##pping
flav
##active
governing
annivers
particle
archipel
1857
collapse
execution
weekend
ranking
symbols
achieve
nomination
toyota
scheduled
geometry
tunnel
gaelic
renew
flemish
bce
ig
kre
lane
pent
sag
tale
##ding
##cons
asks
##iaa
##abl
leagues
##ourg
transit
expect
topics
archive
keyboard
replacing
morph
factors
hammer
blocked
raise
distinctive
admitted
permission
picked
##while
drawing
disappear
attributed
##restrial
praised
tissue
anniversary
cay
ia
jet
sony
tales
##bing
##boy
##greg
##iner
##orus
##eda
thy
thames
thomp
##oly
##imedia
bears
clothes
allen
recre
footn
resign
evangel
presidency
subspec
origins
explained
describing
advice
attacking
collected
producers
punish
planets
rulers
happy
rhodes
focused
jerry
controversial
funeral
rumble
finnish
scenes
jamaica
thompson
76
wider
##bit
##nie
##enza
##itis
reserv
##aware
charged
156
chev
socalled
##atsu
wrestlers
traded
physiology
silk
ukraine
minority
estimates
broadcasting
platforms
proteins
celest
carrying
dancing
subsid
dromae
artificial
barcelona
dot
gaz
hr
hired
##uing
##ben
##tw
##nab
##nik
##zing
##fried
##inian
##asaki
suicide
commod
##ugg
drag
preserv
quint
stress
patr
refuge
replacement
biological
propos
dominated
rotation
bringing
ernst
adaptation
aberdeen
gymn
douglas
archipelago
bits
gauge
lime
pm
##person
##kes
##inia
##aters
##itoba
##icate
##iling
rept
arctic
export
##ovic
##ubs
manitoba
##oku
perry
calling
grey
##ilde
outstanding
internation
obtain
barry
breaking
patron
vii
squad
##cedes
woods
effectively
domain
surrender
happens
icon
jerusal
tamil
legislature
progressive
sebast
abolished
pocket
smooth
subspecies
jerusalem
tiger
##uff
##alf
##oust
##emann
deleg
##ocy
##illo
soap
germanic
##aneously
creatures
writings
explain
1897
insect
ukrain
1878
haiti
credit
continuing
patterns
battles
tibetan
galaxy
appeal
tampa
miami
phenomenon
giovanni
78
7th
lens
mb
tiny
wool
##oys
##pace
##74
stating
stones
deer
##abled
spac
##orney
component
partially
##away
monkey
generations
12th
interchange
cruc
##ribed
##flies
##rowing
##otto
coron
##odynam
irreg
circular
amongst
raf
reactions
benef
piper
exhibition
ancestor
##garden
criminal
illegal
##stadt
husserl
96
mick
rush
vin
wish
##ti
##rate
##rayed
##winning
##xx
##fast
theories
##erated
##ashed
anderson
stem
##adesh
##ophy
##abil
marily
compact
finals
creates
extent
##brid
lawyer
berg
restored
russell
100000
ready
1881
soundgarden
denomin
abbott
masters
accounts
saved
walking
dancer
minimum
pioneer
rebuilt
toxic
vampire
canceled
crisis
internationally
cum
catherine
dublin
fey
piquet
tent
vector
##73
##oni
forum
##ithic
chak
dean
clark
syria
##ierra
laure
fourteen
portra
powered
##ammu
characterized
salam
precip
guns
sulfate
marcus
ottawa
restricted
enemies
suitable
experiments
isolated
endangered
irregular
52
mast
malt
ryan
##hum
##ye
##osystem
prox
marl
charges
ministers
slam
valenc
humor
publicly
farming
configur
multipl
administered
soldier
increases
1870
affili
wooden
bordered
panel
budget
concepts
columbus
clearly
goalkeeper
concerned
barbara
rubber
teachers
##ivorous
harvard
exclusive
diverse
cameron
duchess
##hawks
opinion
58
cache
diction
hain
kick
ment
maps
rif
yes
##burn
##non
##word
##31
##eness
andra
stored
brack
gren
##iko
##wned
coat
monument
##anche
britann
geographic
referring
concrete
arrival
collections
voting
mosques
substance
hydroxide
injured
autoed
overseas
serbia
consecutive
ferdinand
9th
kara
pse
##hand
##ridge
##enh
##aly
##style
stall
dee
seas
usual
##orne
##elles
abund
maid
imprison
creative
electro
sixteen
mercedes
advoc
sanct
symmet
##comm
brands
olive
##aptor
automobile
leonese
odd
false
otto
eagle
typhoon
marilyn
cash
dallas
eating
josh
nas
pon
ted
vess
wed
wedd
##bow
##ele
##vo
##ulu
##heric
##agre
manusc
##izz
quad
guar
relief
retained
armor
backing
tourists
steven
romanian
stronger
1885
1879
martial
industries
1848
messages
sussex
admir
package
anthrop
shawn
segment
supplies
experimental
gabriel
playoffs
baptist
encryption
download
guerrero
strict
8th
cere
dale
fis
fart
hir
lect
maced
sung
##bel
##ozo
##rac
##mo
##mates
##wind
##iser
thail
thurg
ster
##agi
plural
uss
spin
##ibi
scat
phosph
smash
familiar
minerals
strateg
##insky
followers
euro
stewart
batter
merch
colleges
superior
presentday
expert
argument
falling
recognize
logo
frankfurt
substances
embry
hawks
fastest
jacques
caval
legendary
ensure
comprising
##onymous
recommended
sarthe
hudson
mclaren
thailand
dos
hess
jas
jav
lod
nh
ninth
render
##theless
##run
##yd
##inch
##ilst
##roke
##acher
rear
alps
deem
##umps
usb
pradesh
##ifer
trump
##ornis
cliff
wheat
indeed
peoples
nova
##issions
interests
##ennial
valid
titan
blackhawks
terry
loud
snake
1867
controls
nevertheless
sympt
##ascript
parliamentary
identical
happen
spiral
analy
mrs
subdivided
sauber
juris
adjacent
croatia
transmission
mozart
eliminated
descendants
retirement
billiards
##friend
pseud
99
bic
ions
kern
mul
##gi
##pg
##yard
stir
stim
whilst
##ulating
heating
##opl
##ortion
newfound
##igny
attorney
swan
swit
remote
defines
expensive
##inoff
characteristic
flora
meanwhile
additionally
grows
properly
oliv
boxing
platinum
measures
burning
burnham
iceland
emerged
commissioned
astronomers
tallest
frost
breeding
advertising
bundes
tasman
vertebr
elephant
lugano
genetics
tributary
bold
cors
eb
ek
mys
tig
##bishop
##cus
##vant
##jima
tril
##iev
abuse
##pted
perp
145
ammon
simult
verb
writes
1940s
wells
slip
geographical
millions
breast
error
silva
sentence
tomb
orbital
##iji
convert
thirteen
hungarian
rejected
gravity
cats
jason
kle
tape
##uations
##rh
toys
##leys
##ampton
thumb
##olo
##otam
chop
##osure
sees
##ternoon
register
departments
blow
##iley
monster
consp
creator
guilt
128
traditions
cauc
##ripts
salzburg
ferry
paste
donald
belonging
optional
motorsport
##opping
occasions
bengal
organs
alcohol
millennium
86
kos
pasc
rer
sample
##ban
##case
##prod
##72
##etta
##andy
##unes
comics
conj
##umin
enh
##ourse
##ubb
##uba
mann
eddie
slave
tops
representation
1882
linear
petro
orbiting
oliver
dominant
paraly
baha
selen
drinking
thermal
##emplate
interpretation
chicken
ludwig
nicholas
telescope
bened
cbs
dart
dak
nascar
tact
##79
inters
##arin
##rec
stable
##ocene
prohib
plains
shif
##oked
serge
indigen
reliable
valu
lineup
versus
markets
err
1863
##certain
educated
alternate
lucy
##agonist
frequent
suburban
##wiki
hearing
leafs
luxemb
doctrine
monastery
horizontal
59
diver
lask
pie
tap
tied
##hour
##ping
##71
##athe
##omer
##etical
##idian
##istle
chit
neu
afternoon
marry
parad
disaster
popul
edits
edwards
calvin
emm
defenc
loos
##asha
115
simpson
##ukas
independently
diagn
1876
structural
activist
looked
galile
balance
blocks
reformed
craig
dollar
legislative
candidates
restaurants
sculpture
ticket
landscape
rebellion
thurgau
72
ced
dm
eur
gear
rats
sut
sard
tul
wake
##eing
##des
##gon
##kary
##etes
##ige
##opotam
enth
excess
##oves
griff
sheep
##grad
##ieth
johnny
hyder
putting
violent
layout
absence
adopt
relationships
prisoners
taxonom
employees
concentrated
##edded
ghost
encouraged
intellect
absolute
indigenous
lasker
53
bast
bish
css
gum
ion
jung
pia
sans
##hall
##hop
##mberg
forty
##term
reaches
fred
##cht
suite
trained
##ardi
leop
manga
##uces
##anger
phon
consort
caps
matters
guild
accom
accused
interc
crus
crab
##inae
airline
filmed
bark
varieties
antwer
volt
derives
dioc
indianapolis
propag
brandon
judg
facility
instruction
celtic
preferred
antwerp
cov
cited
gates
glands
mig
mob
ober
ust
##iop
##gal
##cup
##vious
##hey
##onso
ants
##itimate
stol
alive
##imony
comet
##ctica
spiders
committed
##class
##ondo
newton
resur
phone
upgraded
governed
topic
viii
infection
discip
viewers
meetings
attracted
charlie
habitats
elsewhere
shrine
plateau
kirk
supers
dismiss
valuable
ips
lying
nure
riding
taste
##mel
##ido
frana
##imar
comments
##iper
neb
exceed
compress
engaged
boards
quit
finance
emotic
westward
extends
wright
pawn
##aurus
moral
1888
richmond
companion
dissolved
peaked
gallery
remainder
continuous
hyderabad
62
63
84
bore
ioc
nom
nico
pod
pairs
wander
##bn
##iya
##green
##nell
##eric
proof
##odont
##abilities
nevad
pray
ard
##anto
shop
##raw
##ffield
muscle
imposs
##tershire
##yson
medals
glen
portland
bret
epid
entering
holland
satan
combat
1859
viewed
duties
rounds
##going
declined
embedded
antarctica
meteorological
tornado
69
aa
dust
dante
mec
mold
pyr
tier
##nasia
##hell
##oux
forth
##olithic
##uli
##ipher
spinoff
##ovo
intention
indus
flights
roose
coins
blo
joy
doors
defended
filming
persu
signing
heading
wayne
autobi
pakistani
apoll
1850
ideal
broadway
fertil
talking
governorgeneral
convinc
steps
warsaw
settlements
cosworth
immediate
fluor
iranian
gilbert
pearl
antarctic
coordinates
warrior
airbender
liberty
gimnasia
venezuela
newfoundland
nuremberg
impossible
roosevel
cs
gw
ns
ral
ride
sierra
yun
##gary
##nel
##cor
##cing
##itter
##thy
delet
spots
shops
##ppe
##ppard
paras
sheppard
outbreak
poets
organised
revised
mounted
##aughter
latest
latvia
explains
physician
immune
penis
1852
venue
probability
channels
magazines
electrons
neighbour
psychology
sprint
turbine
remembered
synthesis
circumst
##ablanca
ukrainian
bak
cn
mice
nurs
ost
sult
sah
til
tank
##lings
##held
##erted
##icon
stood
##acles
##chang
##agh
leak
brass
beck
registered
depends
##ropa
sheffield
distances
jobs
offs
sloven
variant
societies
centered
stein
cyrill
campbell
##scop
merger
fewer
##helum
1874
henr
civilization
gradu
ruling
bounded
elementary
papers
prefix
qualified
suspended
apparently
fernando
immigrants
displays
tobacco
desktop
intermedi
roosevelt
cyrillic
bann
dying
hed
iro
masc
nile
pik
rus
till
zones
##bys
##cement
##fts
##iture
repr
##emark
##ichi
trag
##endish
abc
##uccess
maya
##aille
##aza
barium
barrier
terrestrial
dawn
detail
moroc
killer
honors
survival
administrator
woody
collins
hunter
voices
logical
marketing
benoit
semif
criticized
anglican
cavendish
conquest
atmospheric
rabbit
eisenstein
trigger
byzantine
hypothesis
dock
gary
gases
hier
iw
jhelum
kas
oc
ore
sizes
verm
wald
yok
##iere
##night
##mother
##asis
isa
tha
fra
##imen
beet
##esses
clust
marin
##oki
knut
cob
populated
##othy
acids
calgary
obvious
armies
signals
##chet
bests
harris
portrayed
skills
tours
grandfather
21st
limits
naturally
1880
1866
1877
##osphere
1843
venus
rhin
facult
coldplay
participate
veterans
murray
luxembourg
balk
gap
lil
lig
mate
mine
mood
nur
sak
weld
xena
##iors
##xual
##onne
##icing
##igo
chuck
unified
atoms
##ople
##iah
spar
tru
worst
click
grain
marath
butt
yearly
##weed
flames
decline
subc
subfamily
accomm
themes
tempor
transp
directors
operas
portions
multip
1887
1860
1871
1849
identify
1836
nucleus
luis
manufactured
ratio
premiered
alpha
astronomical
qualifying
##agram
ronald
serbian
conversion
deposits
quartet
hirosh
vladimir
dwarf
nevada
accommod
amp
bam
dict
java
jammu
kun
kath
khy
lb
lak
lomb
pushed
sv
tone
##bane
##lived
##hu
##anne
ank
##irk
uncertain
shift
shopping
statesman
agree
decide
##pring
larv
##ilda
charity
moderate
slaver
##gery
developers
extens
revisions
touring
cypr
detailed
pointed
1883
travelcard
nationwide
nazis
spoke
##untu
ultimate
feeding
momentum
unsuccess
gustav
nigeria
mantle
crocod
remnants
auburn
configuration
symptoms
defenceman
hull
honda
lip
laz
piz
padd
tut
telling
##dish
##anian
inver
##aroo
##isse
##ells
##derney
recru
rooms
cofound
##iolet
quiet
##manuel
villa
archbishop
volumes
arrives
##fordshire
businesses
businessman
rainfor
hydra
significance
lucas
cardinal
documentation
drove
visiting
mirror
ambass
trials
illustrated
dialect
dalmat
schedule
arsenic
ceremonial
substantial
fischer
paralymp
05
cort
gig
lose
nasa
ply
rows
yield
##lock
##lake
##itic
##ishers
##stan
thorn
##ecraft
reelect
##unton
deals
athen
##abel
trin
shin
shaw
commer
abra
centres
eve
offensive
subway
acoust
saudi
##aise
mature
interpre
chest
##anguage
associate
explan
videos
satisf
##loo
melod
temperate
bachel
azerb
spectrum
cooperative
mutual
cryptography
columns
pulitzer
ralph
slavery
diab
ea
furn
furb
hamm
mental
sessions
tes
upr
yosh
##tains
##mium
##yo
##acre
##eme
chass
enters
##aks
sperm
##ellar
manuel
reserved
indicated
peps
carries
##enson
evans
weigh
smart
caliph
midlands
deming
parker
radius
patients
##cester
arrest
1884
liu
##know
##hiro
documented
tournaments
achievement
telegr
graphics
ciphers
grammar
commented
raymond
beauty
implemented
buddhism
constituency
trouble
crops
http
azerbai
08
aes
fide
kw
len
lag
lisa
pill
uru
##rim
##rina
##ront
anarch
brist
mangan
adobe
##uez
fled
phara
thanks
##aired
##flat
constable
##westphalia
superv
helping
volks
handle
burton
devil
devoted
storyline
wilder
cornell
philosoph
calcium
optical
printing
naples
anglia
instrumental
sseld
extinction
update
teachings
badenw
horses
claudius
oscar
kakadu
deutsche
velocity
larvae
ahl
cec
dow
lots
porn
##hal
##zh
##jar
##instein
##stop
##uta
chir
sean
trinity
whedon
grave
compat
##acks
knock
pean
pepp
decisions
specimens
driven
edited
2012
retain
##ontin
redirect
extend
termed
##aea
seek
grande
stead
possibility
sitcom
duo
squid
1862
researchers
fallen
elevator
options
occurring
inspiration
mammal
benefit
sudan
complicated
diversity
besides
nephew
pulled
##speaking
tongue
giants
amazon
oxidation
dictionary
sultan
sseldorf
81
bom
dy
kirb
nd
tech
vand
##uil
##auc
##caster
##zi
##stood
##roc
algae
chase
conven
unoff
pluto
##berts
##ieg
##ieux
cler
##qual
computing
partition
##ikh
##rys
##igne
flies
agencies
prove
amend
##grand
##encing
relation
geological
milit
##ashire
humid
helen
legally
ecosystem
borrow
radical
refere
efficiency
hardcore
robin
1853
territorial
fifty
##coming
##boro
venice
costs
layers
elevation
inhabited
julius
screenwriter
theoretical
seemed
lancashire
rhinewestphalia
buddhist
divorced
celestial
dromaeosaur
sebastian
trilogy
pascal
resurrect
bism
fav
ich
sop
sri
vil
##lik
##cm
##93
##atra
stom
proceed
spend
bris
compilation
counted
countess
herbert
coinc
desired
prep
metals
defending
invention
##ructure
##airo
patent
##uku
##uko
discoveries
categor
##itarian
##arno
duty
jackie
predict
boxes
friendship
casual
astronomy
settlers
necessarily
doubt
shallow
crystall
tramway
arsenal
smoking
lemon
partnership
triangle
provisional
opportunity
chakwal
simultaneously
enthus
neighbouring
offspring
04
benn
dual
gel
kom
kap
mw
tire
vas
##bus
##gov
##pat
##zig
##omagn
##idad
rey
alk
alleg
bee
orch
placing
##ifa
tract
notation
norse
compr
intense
regulations
depict
##reeks
##adeus
carlo
mega
decay
finale
##inned
passion
importscript
merely
freud
requests
arrive
palest
opponent
experiences
1872
destination
1844
initi
oceanic
voiced
##ijing
democracy
panama
babyl
celebrity
speedway
distinction
automatic
thinking
##holm
abbrev
clouds
purchase
welcome
minimal
##profit
virtual
swimming
sustained
wealthy
absorbed
heinrich
benedict
kirby
61
bent
fing
lamb
md
mim
nig
##sl
##oque
##rons
##zer
##asse
##rolet
alm
beating
plates
prest
pride
truck
manip
manif
##oking
scor
engr
boot
decides
conscious
editions
assign
##encer
email
laura
##anka
octop
organist
reverse
versa
keith
wiki
cello
engineers
denver
collision
widow
cycling
victorian
premiere
cornwall
twentieth
commissioner
pilgr
wearing
harvest
##anthrop
iodine
dormouse
mongolia
infrast
colombia
jurisd
bachelor
fusion
mack
moss
maker
thurs
stal
##othe
beijing
##iane
##ategy
tri
20000
shun
##asting
brah
scores
scroll
depicted
cole
coined
monsters
edmon
##ahl
strategy
generate
extending
ownership
revival
prototype
stevens
##tingham
realized
1851
coverage
involve
santo
1837
sharks
photos
luigi
celebration
puzz
felix
settings
vacu
israeli
cocoa
theaters
somers
stripes
jurassic
alexandria
demonstrated
consumer
weapon
vitamin
fabric
summers
ultraman
warriors
collapsed
predecessor
chevrolet
abbottabad
dakota
accompl
abbreviation
edmonton
fasc
finger
hut
liz
math
nan
qin
ras
rope
tons
yu
##iago
##65
##alu
##alis
##itable
##amas
stems
##olph
onwards
##acom
##odo
##abul
trams
##ieu
##ectors
fired
##pert
northward
##ropods
emmanuel
anywhere
eukary
reducing
variab
operators
##chell
135
europeans
publications
antiqu
grandson
buses
courses
explicit
shoulder
opponents
vegas
1886
camera
1854
prophe
emperors
logar
mediawiki
customers
janeiro
naming
thermodynam
conquered
adjust
fibers
yugoslavia
##communic
voltage
khyber
commerce
au
aka
denn
gift
iz
ik
jak
oath
rd
##link
##pent
##91
##fire
##anal
ing
infer
##icia
andy
##lewikipedia
forg
##olid
##idal
##agger
unesco
##opithe
neil
leban
nottingham
##endum
hass
button
disorder
overl
##group
##aneous
numbered
101
##inness
terminal
australopithe
##owski
speaker
keynes
statue
squares
raj
watching
conducting
rapper
diamond
controller
##thetic
dealing
ordinary
quantity
dolph
confederation
suddenly
restrictions
photographs
patrese
guilty
loosely
abraham
77
82
ches
dud
fi
flex
fert
hii
lager
ml
nem
##ders
##yon
##krit
##arab
##alm
##etch
stamp
fore
chord
athe
leather
worms
##ishi
abu
##asses
allstar
regiment
roberts
earning
specimen
dried
strain
servant
landed
owns
portray
angry
##covered
statements
communes
1864
wallace
sentenced
balukas
troy
sharing
##castle
celebrate
funds
pupp
liberation
annex
losses
beneath
alexandra
oblast
##largest
chromosomes
dissipated
boutsen
proxy
switched
circumstances
hiiu
57
funn
jaw
lago
nak
ou
pi
pall
rk
sib
yoshi
##oed
##foot
##ono
##esi
##stock
reed
##igible
##imo
##iments
##uman
clin
marg
canucks
regime
cologne
peas
shepher
perc
boeing
##ixon
smoke
##phis
mills
bases
verse
##sharp
councill
hybrid
hosting
affair
destro
1840
religions
santiago
practices
arabia
boroughs
1815
quoted
sulfide
altitude
stephenie
murdered
johannes
collaboration
cadmium
chronicles
reinfor
##imensional
thrown
bulgaria
exercise
britannica
cavalry
infrastructure
900
amph
dess
gamb
hort
ller
tum
wis
##power
##68
##five
##onn
##icles
toa
##ilia
confer
unic
##ochem
##aku
shane
herald
boats
presc
qua
capablanca
acknow
assault
surprise
surgery
barr
variable
##uchi
continents
revenue
protagonist
delaware
wikip
racial
approached
facto
insurance
arguments
oceans
predicted
grover
connecting
bullet
innoc
tyler
athletics
ancestors
butterfly
shuttle
recovery
prosec
consequently
koror
occasional
holloway
vesta
theodore
sanskrit
plymouth
referee
4000
ace
bats
cb
cbe
das
dense
lac
nose
nais
pam
panc
sg
##64
##fare
ink
##arina
##asters
##aye
whales
enroll
prizes
exclud
shaped
wheels
marqu
abroad
parody
##rup
##tenham
presents
##into
himal
surpr
baroque
elabor
##lington
helm
referendum
lego
stef
postc
empress
morris
picc
hunts
curs
olga
electromagn
reigning
##holder
frog
monarchy
transformed
dependent
travels
bridges
michelle
enforcement
inventor
vincent
penguins
punishment
laureate
valencia
autobiography
79
pix
##gro
##hof
##atus
##itudes
##leum
stur
aside
##irts
##usa
spencer
trough
leip
claws
##ogan
1812
twist
peg
peripher
144
drain
amadeus
divine
portable
autumn
latitude
##cestershire
restoration
posted
managing
turner
devast
encomp
penalty
curt
closing
##edients
consistent
colonel
##etti
essentially
commercially
essex
respective
hindenburg
constantin
seriously
consumption
mysterio
reproduction
prosper
ingredients
yankees
hermann
timberlake
interface
##wickshire
nervous
emirates
subsidiary
precipitation
ussr
apollo
intermediate
73
coun
dug
heter
kate
kra
nu
rha
vine
vibr
##tor
##hist
##hwa
##cia
##pm
theology
##inlaw
##itian
##icians
##ilian
##tering
comfort
orland
chiba
enorm
trick
shock
##ustion
##okka
##outs
roe
coin
desire
edges
##elda
##phy
crack
##flow
coral
toured
grandmaster
efficient
wikil
wikimedia
confusion
situations
humanity
devot
biologist
3166
parishes
donkey
talks
regardless
liked
fairy
websites
bacterial
establishing
paleont
lithium
comparison
updated
scholarship
apparent
recipient
sacrament
dramatic
dynamic
leakey
chassis
brisbane
naismith
94
ayr
cork
dw
danny
fung
nice
nodes
rates
##urope
##bid
##dp
##door
##gang
##pier
##vol
##hero
##alar
##alus
##itr
##icus
isot
todd
##olin
##olics
frs
heath
conclusion
##apy
##apor
##aba
sphere
traction
shire
##oved
hert
fever
symp
decimal
joins
upset
presidents
grouped
highland
barn
valleys
terminus
breeds
seeking
##brian
entries
membrane
demol
snakes
nonprofit
nights
baloch
citrus
digits
democrats
1821
taluka
##ambig
disputed
waiting
500000
campaigns
butterflies
freshwater
advertis
##oslovak
volcanoes
attendance
baldwin
nitrogen
accurate
rookie
87
aj
bonds
ges
gest
ties
vista
yang
zuko
##bat
##bolic
##type
##lon
##rc
##round
##maker
##esia
##icular
##stown
##oline
##acia
align
beeth
chand
chip
##illing
lewick
adolf
twins
carriage
secular
##tenburg
specify
warren
mini
mines
publishers
emigr
endemic
crater
crimes
slaves
opens
glou
dayton
considerably
labels
coastline
masses
burial
infin
silent
1875
renowned
1858
1847
1831
corners
lords
1820
baba
breaks
windsor
belonged
ethiop
permitted
cooler
percentage
durham
prussian
pirates
negotiations
manganese
lewicki
bio
binary
hats
jor
narn
ois
oasis
penc
siber
vow
xp
##lain
##ea
##gets
##court
##making
##zin
thall
##acter
reop
##using
##chron
hex
##arta
proclaimed
spd
shapes
clan
hera
secre
mush
##tenberg
##atha
swing
define
transpar
estimate
trademark
georges
##ukem
postal
monthly
##playing
1855
memories
tomato
translations
sandy
reacting
stockholm
removal
ratings
alberta
difficulty
craw
czechoslovak
cassius
pedro
theorem
dodgers
mozilla
uranium
gabrielle
challenged
sieg
struggle
inaugural
nashville
infantry
scattered
resurrection
leipzig
beethoven
cig
gand
noun
nde
og
ole
ris
wre
##sis
##wagen
##free
##edo
##asus
##icious
towers
##aming
##andro
oral
##umi
##season
##okes
newer
contents
##eyer
locarno
beta
scha
matrix
remix
1200
longterm
geoff
adds
midland
angular
anti
blackpool
radar
irc
lights
deriv
atlas
influenza
hamlet
tests
voiv
syndr
grove
democrat
disneyland
costa
convicted
appointment
rosa
investment
medici
quantities
injuries
miy
crowned
unders
promise
sponsored
voyage
chilean
kidn
recommend
jesse
integrated
shooting
challenges
inherit
maurice
##unciation
abundant
wedding
kernel
judgment
bristol
71
eust
lah
luck
mits
sector
tyson
vale
##language
##dorf
##gom
##mad
##whe
##js
##itus
##rehens
##amation
##olar
##acc
item
fruits
proced
spice
spark
trium
braille
##ibar
marx
blair
genres
understood
crist
juice
constell
harmon
listing
entity
massacre
infect
1869
malay
denied
montana
catholics
tommy
##caa
osaka
domingo
promoting
principality
arabian
environments
romeo
athlete
ranks
converts
indicating
discussed
katara
poorly
mitchell
neighboring
loved
vulner
rudolf
sustain
aimed
scandin
pregnant
sicily
##graduate
ipswich
emoticons
faculty
ambassador
urugu
peppers
vacuum
ginger
kot
s200
sailed
tues
ville
##sso
##omena
wash
heated
span
collo
parable
fee
consensus
drinks
##issa
eucl
skate
antib
antilles
grandmother
topology
detect
posts
confront
competitive
cups
1873
believes
femin
tested
involvement
memphis
chemicals
1830
tao
eleventh
funding
1818
attraction
ambul
reformation
katie
preparation
bartlet
requirements
transformation
mysterious
indonesian
echid
wounded
revolt
bmw
portrait
##ozoic
populous
acoustic
explanation
06
dip
dens
dup
fighter
kaw
rises
tens
viv
xen
zh
##bal
##tys
##tunk
##pop
##vet
##enzo
##omon
##elia
##urers
##ulates
##estyle
##aved
pla
seoul
##odon
hisp
fires
##orde
dishes
americas
148
edgar
crashed
highlands
operator
milton
glory
angles
steep
receives
limburg
1841
hunters
##govern
messenger
semic
cabin
futur
facing
romance
removing
focuses
julia
reforms
installation
leonard
bahamas
fatal
harvey
pipe
cooperation
kenya
dubbed
ducks
vegetation
constituent
anaheim
treasury
warnings
pleasure
moths
chelsea
stolen
welding
thursday
somerset
##tunkhwa
aur
aure
cf
cens
foll
homet
hano
lava
nes
nou
saving
zina
##bian
##eff
##wana
##eros
##asma
##elin
##elong
##otyp
##irs
rez
alge
bea
##child
archer
trace
shipping
playwright
graz
marion
##derland
newcastle
allan
decry
##ilding
subsc
reporter
mainten
cran
euph
bars
awardwinning
valais
glam
legacy
ecological
merit
hym
greenland
paramount
toro
furthermore
surfaces
functional
ulong
venom
ladder
pitcher
offering
conventional
calculated
precurs
assistance
psychiat
chambers
leonardo
katrina
dimensions
counterpart
danger
segments
molecule
pretty
praet
bibl
yunus
deletion
volkswagen
versailles
thallium
hometown
350
67
92
a1
dances
faces
gender
lizard
tet
##bound
##cos
##mal
##mill
##piece
anten
isbn
toler
##omi
##stars
##rock
##etting
##urst
##emn
beans
##agers
##ocide
trapped
##mental
##ovia
manila
##pled
carne
departure
joa
monaco
##aha
minardi
strange
mats
guests
extant
##chem
harold
antig
exposure
speeds
enterprise
tottenham
separation
1868
fault
henri
messaging
magnet
jerem
jerich
broadcasts
savoy
suffering
danube
##books
##organic
mystery
cameroon
uniforms
ayers
varying
tasks
wyoming
emotional
folkl
unsuccessful
variables
balochistan
syndrome
algebra
737
97
gut
greeks
kum
mtr
nia
rn
raced
sf
tight
tune
yuc
zanz
##eo
##evelop
##ser
##gent
##hail
##rates
##mod
##ativity
##rooms
styl
##ols
##urus
bees
chat
##avir
##abe
##ardy
bry
teau
afl
scream
regent
soup
feast
disambig
formats
muscles
weird
consolid
##neg
albat
elector
interaction
airing
obama
termin
annabeth
114
midd
revers
##shore
listen
hyde
presentation
##ylum
morrell
burke
debian
applies
1839
susan
digest
##exp
museums
rodrig
exploration
1816
concerning
nitrate
delivery
dodd
supplied
wolfgang
kazakh
framework
encountered
nineteenth
ppv
excellent
resignation
imprisoned
manuscript
vertebrates
conspir
sardinia
diocese
morocco
pizza
philosophical
orlando
colloqu
000
30000
bog
biaa
cinc
dame
dumb
hm
hav
lach
mum
naka
pour
puck
punct
rely
ruth
##sized
##aic
##cat
##cop
##enberg
##alone
##itely
##ications
##enter
##oland
beau
chains
atari
##akers
##orted
lex
brill
brush
clown
firestone
grim
marina
norwich
comprehens
1819
abilities
foundations
perth
blessed
locally
larry
southampton
prehist
poles
amy
capitals
guards
verde
##uctive
##sson
##ietz
##keley
varied
##chel
##asht
backl
legends
berkeley
kingdoms
equil
presenter
victories
approval
infected
ceased
collecting
objective
practiced
roberto
venge
distribute
lymph
burns
##wait
esper
connections
cooked
hugh
1776
libret
inherited
yankovic
gregory
partners
slovakia
ubuntu
reconstruction
predominantly
proposal
##ocytes
hesse
kosovo
selenium
##scopic
mascot
narnia
biblical
bant
buc
casc
ferm
gly
ki
motto
nn
pond
pied
roc
tt
zelda
##len
##ril
##cut
##vp
##kar
##edient
##alism
##recht
tooth
##stra
thai
stops
hey
##ipe
prague
bred
mara
adela
##ideo
cargo
##actic
thereby
sof
dres
electoral
##iette
directions
persia
hurt
descended
##shaped
demanded
patch
circles
freight
sitting
separately
behalf
privile
naut
##ushima
conservatory
1806
1803
escaped
electronics
hoped
hughes
sponsor
satellites
quarterback
sediment
kinetic
vegetables
preceding
narrator
nikol
inaugur
francesco
fluoride
manifest
fertile
tuesday
zanzibar
fian
fulf
ling
lent
pec
rin
##bone
##bors
##hill
##48
##onies
##anas
##esian
inqu
##atem
##enos
stitch
##olia
##ounce
##ithms
dear
plata
sear
leices
shan
##ovsky
marcel
serie
indies
beth
mahar
monitor
consul
##ahu
nood
artem
##ologically
relevant
1600
##lli
crom
chester
antio
antimony
authen
posthum
palat
technologies
greenwich
potato
ceo
olympiad
hitting
scotia
martyr
constitute
normandy
fortress
1832
alternatively
differs
1824
psy
africanamerican
elevated
1798
chapters
motorcy
psychological
integer
rowling
legislation
bombing
measurement
sponsorship
hatch
unusually
feeling
browsers
intelligent
stuff
shoes
pandora
extensively
shepherd
enormous
##gomery
ambulance
albatross
bion
cairo
dic
hate
horm
jury
linn
lanka
mild
rect
sig
yar
zip
##oft
##rant
##esis
tod
##omorph
##igg
##imet
##ulum
heights
chrys
planc
seab
seals
arrow
spont
tek
colour
indy
pea
##inda
blog
agents
pharm
greens
modify
numbering
##incorpor
incor
incomp
developments
persp
estates
elite
divis
solutions
radi
##iuse
equations
rachel
##ukes
saintmart
miche
discontin
##urbation
reader
##arnation
planted
homeland
synd
1835
rainbow
caroline
measuring
birthplace
libraries
improvements
diamonds
springfield
labeled
packages
addressed
theatrical
philippe
thinks
migration
eugen
aristot
mikhail
assassination
unnamed
loyal
hainaut
intellectual
bestselling
lebanon
authentic
##incorporated
ci
falk
foster
gy
hbo
lau
ncaa
oss
pd
rab
surn
tiber
yst
zar
##bage
##lov
##rous
##mate
##onge
##orious
##eno
isles
tosh
##ilit
##econd
##acular
##owe
##igious
chad
##opol
sep
##iants
spider
wore
brick
##quer
counts
founders
worlds
distant
dece
underne
metric
acres
##ometric
brewer
entities
cyt
eccles
periodic
equally
streams
roleplaying
mali
firef
claiming
##comp
montgomery
predator
curse
mixing
1801
##ettes
motorway
customs
rotating
addresses
cocon
namely
randy
cherry
teenage
bosnia
coordinate
staunton
gathering
kangaroo
suzuki
cpu
pompey
petroleum
chitral
graduating
logarithm
maintenance
underneath
aph
fount
fiber
fiat
hiding
laps
nad
sending
tough
utt
wizard
##bul
##made
##pox
##eri
inorganic
andes
ald
##istent
trap
lep
hash
manor
manage
##izu
##erma
indoor
coh
deck
maz
overt
##auer
##amese
capit
buk
mating
instances
retrie
106
##innati
lover
118
##riages
starr
brett
revenge
angels
protector
cyrus
associates
boris
berry
holoca
possess
diagram
collectively
faust
orchestral
synthetic
samples
licence
judges
sandwich
convicts
contribution
contribute
raising
achievements
controlling
1817
continuously
sufficient
shelf
contestants
lynch
duration
jumping
eagles
veteran
culmin
rupee
##optera
##continental
guru
benefits
iroqu
azerbaijan
stomach
##uropean
disambiguation
cincinnati
holocaust
cater
dome
moll
nc
nio
px
pose
sadd
ug
vital
wick
xv
##ean
##zon
##went
##hev
anger
##amous
##ilder
##adilly
##emort
beef
orphan
##agua
unincorporated
##umen
spending
##ifier
trunk
shim
shog
##isha
allocated
hered
herze
disagre
peer
sheet
apples
eval
outdoor
##urring
laf
generic
geography
surgeon
##flu
openly
header
performers
##boards
terrier
personnel
requiring
possession
castile
squir
debt
devon
lessons
cambrian
prophet
complement
civilian
macc
linking
marketed
interesting
krist
kenneth
pronunciation
farmers
aspect
baltic
ibn
mistress
rogers
##iveness
archaeological
confederate
bulgarian
erected
remarkable
slavic
dreams
preservation
reptiles
spacecraft
emmaste
jungle
dismissed
temporarily
interpreted
unofficial
dennis
innocent
piccadilly
carnegie
jericho
planck
ystok
cdu
dl
dough
dund
eros
hast
jin
lc
nont
piet
rent
sink
sask
vold
wer
yo
##lass
##rand
##rang
##worm
##aran
##reated
##sta
##elt
stern
stroke
##urd
##acional
##owed
reorgan
plasma
##abar
trend
2000s
##ellular
clergy
graves
##ropod
carson
##indy
dressed
warfare
preserve
underlying
publish
attending
maintains
##ometer
booker
classics
profile
invaded
variants
valera
##riers
modernday
##president
circus
holes
communion
chemist
informal
watched
1845
viola
oslo
##former
photographer
flowing
healthy
funded
peaks
1813
crazy
excav
opposing
hartford
buffy
cruel
recovered
galaxies
diplomat
chromosome
evacuation
strategic
tigers
shifted
bishops
leopold
isaac
diabetes
pharaoh
wilderness
##govina
sacramento
prehistoric
artemis
incorrect
450
boss
cly
fou
hij
haven
io
lions
nixon
riv
rider
welf
zur
##bin
##loy
##liga
##hester
##atin
##arth
##rels
##sted
##olan
##adan
##chy
##ulin
conceived
unix
trent
##asted
commanded
##ongo
marco
partial
canyon
knows
carr
carved
bloc
##icking
amino
acron
##aism
##eps
guinness
aires
##emble
surrey
load
northernmost
revision
corp
aviation
legion
battery
circuits
approaches
limestone
honored
potentially
gettys
tracked
insane
combustion
influences
robot
radioactive
torch
url
##ophone
figaro
1833
compositions
hohen
exceptions
completing
aaron
bottle
graphic
prominence
andrews
horns
bitter
dialects
ibm
battal
virtually
accompany
withdrew
decorated
advisor
aristocr
kyoto
certified
expanding
volunteer
volunteers
phylogen
vessels
caucasus
tragedy
telegraph
devotion
praetor
comprehensive
voldemort
gettysburg
bind
bolog
dinner
dibi
hil
homin
hilton
lg
miz
mint
nun
pug
yale
##brit
##south
##nut
##oes
##rated
##cock
##zan
##vor
##erius
insc
##arck
##inge
thief
##etz
forever
forcing
##olly
##chlor
##utz
chan
sega
spanning
brut
manual
##ptit
adul
intest
parach
floyd
monet
quote
dozen
##grass
belmont
worker
15000
##yss
interval
nearest
persec
divide
rocket
avo
shorts
magical
ecu
viral
equation
farms
cao
requested
multic
burst
administrators
administratively
introduce
mcdon
malaria
hotels
aquatic
memoir
microform
fortified
hook
flags
judaism
oilers
##writing
mountainous
1826
1829
lucius
reacts
cardinals
sequences
cuts
observation
corporate
bonn
optim
bahrain
headquartered
shaft
fellows
bedford
traits
mesopotam
##iability
earthquakes
##fortun
ciphertext
thunderstorm
accidentally
lancaster
solely
licensed
laurent
lantern
wesley
announcement
proportion
footnote
macedonia
stirling
paralympic
antiquity
electromagnetic
echidna
equilibr
dibiase
dair
eruption
fare
fitted
jpg
kay
ned
nath
nancy
pere
rut
rag
tm
ull
##uya
##lia
##ski
##mor
##eroy
##oram
##asco
isab
toll
throw
stap
forbes
##urmer
alien
##thal
##andr
##utors
##unge
whate
whale
uncom
##umed
prosp
##oded
leone
exha
bruss
##enda
##uble
##ibilities
mank
canter
serbs
sche
indians
##inders
genocide
overth
metre
calder
attach
impression
accum
originating
chen
104
chron
barnes
loans
valent
##letter
shortlived
legions
demands
sonic
similarities
dupl
facts
experts
diary
##oxide
synchron
nuclei
straw
strauss
susanna
kilm
1805
doctors
essays
1792
rodent
candy
bonus
##ochar
flooded
conflicts
suburbs
shelter
styled
lorraine
citizenship
encyclopa
violinist
gateway
owen
oakland
advisory
resemble
ingredient
elephants
cinema
##garten
beverly
fragments
anticip
errors
nebula
hiroshima
borrowed
destroying
constantinople
cigar
vengeance
adelaide
aristotle
herzegovina
ecuador
whatever
01
baked
dukes
giuse
hels
hux
mason
nen
nster
nero
nui
pes
pus
push
rust
rational
rays
sinn
tir
tus
tyn
tanz
vig
##uin
##lay
##oi
##oard
##count
##jav
##escent
##asp
##isons
thuring
##ivors
alumin
congreg
dealt
##ums
propr
prices
spines
##illon
shang
shinto
noticed
##iza
##izations
##idean
deploy
colin
herbs
resol
indirect
##ulture
cox
syll
genome
prel
underwater
belarus
##upial
accus
##isms
obe
##ussion
waterloo
skill
freely
survivors
combining
melody
turin
brandenburg
identification
hooker
alternating
knowles
costar
##force
nominations
conventions
contracts
alberto
tsar
##blood
leslie
communicate
nicolas
##ruptions
climbing
transmitted
chamberlain
resource
implementation
cuis
vulcan
alpine
##front
gospels
rivalry
decrease
preceded
cultivated
skeleton
residential
spawned
impressed
gifts
wednes
miguel
pyram
pepsi
consciousness
crawford
czechoslovakia
folklore
brussels
canterbury
huxley
aluminium
50000
93
bop
cary
cindy
daw
dors
dau
eh
ez
fen
fate
funk
sull
##lic
##long
##oop
##ration
##cul
##ku
##kel
##will
##wau
##jac
##eding
##arr
##itational
##ete
##adian
##ivan
fris
##imi
##chan
chili
##agement
##osc
unf
unfortun
##odor
##ichuan
prair
##anton
clara
##inee
##acked
flair
perceived
aggress
##neum
assess
swall
verd
releasing
remar
slayer
108
extr
surge
surpass
landmark
milky
suppress
hume
##oya
markup
detected
cantons
volunt
halo
advanc
fielding
veal
salmon
separates
economist
fulltime
1856
##odeship
##ascular
1842
initiated
privately
taj
talked
digit
certainly
payment
mighty
1790
1797
icons
manufacturers
completion
prisoner
speaks
promised
clarke
mansfield
turbines
marsupial
coding
lynn
elimination
schemes
shells
luxury
floating
oriental
vesp
ceremonies
vaccines
explosion
botanical
malta
admiral
farther
prepare
wisdom
fungi
voivodeship
giuseppe
83
auck
aids
fug
jel
lama
mam
rains
sings
yere
##tec
##mu
##inte
##anol
##esemann
##enas
##leted
##ilus
##iri
##ivia
fraud
##christ
##utor
heather
##estrian
##essors
spite
##ghai
serpent
flame
peach
apprent
monk
lark
polo
schum
##phptit
eman
islanders
airpl
chef
obst
landing
milwau
elis
dividing
harsh
differential
helic
aval
standup
##braska
antit
legitimate
stephan
entre
batman
popularized
georgian
mercy
flores
array
burma
salv
salts
robb
tenure
puts
hunger
karachi
attempting
##exphptit
reportedly
housed
icrc
1814
bourb
##zzi
exhibitions
striking
cryptographic
brighton
##uanian
##orgwind
fitness
basilica
nepal
anchor
tissues
divorce
navigation
linguistic
allegedly
##enhagen
stallone
deemed
tasmania
vermont
truly
importscripturi
puzzle
lizards
##lewikipediaaut
reopened
piedmont
iroquois
saskat
equilibrium
auckland
yerevan
##exphptitlewikipediaaut
##orgwindexphptitlewikipediaaut
02
6000
91
aux
arose
bess
bend
bash
dil
dump
gond
lass
mie
misc
pou
pud
roche
sits
##zt
##vich
anders
tol
topped
##aders
alderney
##00000
congo
unin
unde
nebraska
200000
shor
##astics
abortion
##ouses
twelf
registr
recalled
peri
actively
overhead
warwickshire
undergo
capita
submar
buenos
mata
matilda
sworn
relating
relocated
inca
norton
supporter
##atories
deliber
colleagues
##raction
arriving
raff
honour
biography
##loid
reads
apoc
naturalist
combine
homeless
curve
grades
gaul
trojan
wilde
convey
fights
##strong
negro
complexity
wait
precision
precise
lifes
tsun
favorable
walker
reveals
suffix
pipes
ruins
welld
duncan
permanently
carnivorous
siege
hanging
lutheran
gp2
wireless
pounds
phillips
reservoir
rifle
guarant
paradise
reelected
amendment
stefan
inheritance
hanover
kazakhstan
avoided
thuringia
wednesday
twelfth
aus
bub
dys
gale
kob
kling
lulu
nuts
pavel
wan
wavel
yard
##dem
##gia
##yg
##69
ish
##amo
##elike
##iry
alter
##ushi
beaches
chant
##agher
unt
atp
plague
shores
##endicular
grid
allig
disorders
append
joan
monten
stresemann
servers
guatem
simone
124
longtime
##ennes
reduction
signatures
eligible
diving
greatgrand
138
##eterre
stara
2500
solve
bushr
sixty
everyday
supern
equipped
archives
processed
princely
technically
informally
criteria
projection
destinations
woodstock
##arnock
marta
torres
badly
1834
suggesting
citing
sandbox
spirits
1809
facilit
saxon
asking
improving
rosso
container
attractions
discussions
constantine
anthology
nicol
danielle
ghana
shrubs
sensitive
commentator
turbochar
domesticated
arcade
unclear
pige
ricardo
geometric
ahmad
hubble
immigration
submitted
forecast
repeatedly
emphasis
dirty
pregnancy
footnotes
tulsa
covent
convinced
##changed
rainforest
trinidad
compatible
enthusi
##analysis
transparent
esperanto
mesopotamia
##javascript
bamb
bunk
cube
gan
ghar
hd
hound
jbl
nann
rost
sne
tetr
##uve
##daughter
##horn
##mare
##54
inch
##atas
##itious
##etext
revel
beings
##ctyp
dew
deiane
proxim
plum
plasm
##odies
##bern
enabled
aria
spur
marble
scrat
herod
goat
parables
carc
secured
##ffe
ears
##olds
conson
drake
schw
belle
acclaimed
finest
guidel
fourteenth
likewise
supplement
italians
bremen
skater
protons
protests
patrol
delayed
labour
famously
irrig
ceram
managers
biochem
turtle
stopping
symphonies
##actionraw
confirm
heroes
suspension
lloyd
jointly
demonstrate
monarchs
correctly
faithful
adaptive
dubai
priests
kidney
phrases
jessica
tickets
buckingham
##hardt
eugene
thorough
viking
phillip
ornith
metallic
evangelical
dragons
perpendicular
##abulary
##wheel
##jsactionraw
constellation
uttar
milwaukee
##orgwindexphptitlewikipediaautoed
nannini
##etextjavascript
##ctypetextjavascript
deianeira
guidelines
##jsactionrawctypetextjavascript
cue
gav
jos
jab
mour
oval
pab
rated
sq
vort
wax
zen
zimb
##upp
##gg
##germ
##pow
##witz
##xter
##oning
##atics
##enk
##arium
##itas
##asso
##ische
##ente
##ayette
##ulic
oracle
chimp
chorus
conclud
##arts
prose
##aping
##oding
spher
##iller
brent
clients
martha
knee
scre
parma
resolved
flats
flux
perennial
coaches
##osexual
edible
undergraduate
metaph
singular
creature
gujar
emu
intervent
longitude
crane
102
##lingen
breath
descript
countryside
delay
cope
multis
handheld
victim
saintm
casting
discipl
pots
collective
watches
constructors
galerius
venues
festivals
panic
audiences
saxe
bulld
floods
mugh
searching
gallagher
installment
antony
bearing
reveal
crystals
consumed
bavarian
sovereignty
ignored
hannah
protocols
kuwait
##angelo
resembles
abstraction
floors
interactive
iodide
consultant
certific
impressive
renewable
trumpet
tesd
percussion
precursor
tekken
acronym
kilmarnock
propriet
09
07
750
89
beds
dais
fog
gland
jub
kub
kof
kota
liam
lenz
mersey
node
naked
pens
pneum
rah
rams
sokka
sichuan
##sm
##gle
##rough
##cs
##jay
##aso
##isbury
toile
##eli
##eling
##eches
##etian
##idays
alonso
##uni
whites
##agawa
enlight
##akov
##aby
neur
arithm
hispan
##ovac
marvel
abel
##ikes
recurring
disco
maybe
boiling
evia
##ahili
schwar
meter
##urnal
acet
##eping
guid
vernon
generates
intercontinental
##obo
slopes
differently
loch
##aeus
revived
epit
##ucker
copenhagen
superstar
explo
confidence
empires
physi
morrison
reporting
vez
derbys
salisbury
draws
cephal
realm
namespace
malcol
doug
argue
viewing
##klenburg
1838
donated
citation
1822
celebrations
cutting
inhib
accessible
##oeuropean
planetary
embass
tags
prefect
organizing
conflu
1789
customer
philippine
ipcc
mansion
interviews
exhibit
plaintext
mistaken
dodge
assuming
arbitr
prostit
summary
trailer
maintaining
tunnels
throat
##pherical
rcb
andreas
nonspherical
apostles
monkeys
conjunction
ustaa
banner
initiative
octopus
pilgrim
jurisdiction
hassan
acknowled
libretto
perspective
discontinued
pablo
derbyshire
malcolm
gamm
ike
jets
kell
laugh
mald
nud
rij
sint
tips
viva
violet
vapor
##uj
##game
##oire
##hara
##mi
##mail
##walk
##inery
##eded
inert
inclusion
##atio
##ivores
##ceeds
conce
deaf
plaza
sue
shark
##quin
1810
pars
resid
indie
disqual
peat
meal
bohem
drift
edu
ware
ampl
underwent
schm
subgen
strang
metam
metab
acute
assume
swamp
creed
reluct
wellington
crest
currents
europa
reddish
redevelop
johnston
##rients
lasting
royals
caf
visits
##bek
##ylus
nonstop
sunlight
penetr
civic
watson
cycles
pete
rounded
judicial
calculations
aarau
attractive
lesbian
participants
constantly
filling
stafford
gilg
fuji
feelings
weakening
mozamb
riot
phenomena
pollen
sculptor
gravitational
imaginary
summit
##rovision
burgund
withdrawn
lonely
enclosed
lunar
gillard
coronation
nicole
bloom
slovenia
hierarch
babylon
fingers
prestigious
stalin
triassic
antenn
coconut
shogun
dairy
arithmetic
aware
cuc
deter
gag
gott
gaining
kens
kyle
muc
ner
ness
raz
sz
sends
tah
tires
##bending
##bands
##list
##lined
##dn
##haven
##pal
##wed
##anim
##aton
##itory
##isi
##amon
threw
throwing
stamps
stutt
stabil
ono
ongoing
bean
##arte
plac
seating
##abwe
##illation
shade
##ighters
##ellers
##quet
afc
afford
##assau
##iku
depress
resorts
carrier
blade
##awar
monks
offshore
specially
polyn
##gression
noel
schra
metat
caled
##iera
alba
kingston
defens
##rible
slower
##undai
gluc
##levard
occult
skip
associations
parking
considering
popularly
bert
respected
recept
everybody
delhi
##ungs
hyundai
accordance
##linder
competitors
physically
missed
crosses
literal
##osaurs
santander
1825
targets
ladies
sequels
audition
applicable
occupies
##iosis
admission
##market
learns
mandae
qualify
boulevard
prompt
maxwell
drawings
ancestry
polymer
##ogenic
lorenzo
linda
couples
glacial
carnival
strengthening
sleeping
targeted
oblig
praise
nutrients
skelet
implies
metroid
gorge
troub
bruno
##continent
mickey
diagnosed
prayers
epidem
drainage
geoffrey
jeremy
conspiracy
bionicle
welfare
zimbabwe
confluence
03
awar
boul
dams
fy
iber
jagu
kv
karn
lilo
niss
pag
rt
rere
sik
saga
tad
tud
tear
tilt
vatic
xia
##low
##haped
##zed
##von
##fiction
##alent
##alid
toe
##leased
##ether
stam
##ados
##adows
##irt
##idon
rejo
fraction
als
alert
altered
##thood
whig
chi
unexp
pri
spiny
shipped
commenced
##orno
telet
compens
knife
scots
deport
##pling
flute
disks
agn
somewhere
phases
monuments
defining
126
directt
severely
extensions
elong
everett
1100
##inki
titus
wrap
basque
corruption
steg
##rett
condemn
borat
patient
explored
infections
silence
damages
tribute
sentences
broadly
broadcaster
melan
torr
urs
fortune
pastor
##ija
##office
1802
architects
deeply
cuban
taxes
omn
hopes
odys
##white
guardian
lincolnshire
spectacular
dancers
##zyme
makers
bhut
harmful
gonz
##north
portsmouth
scandal
fedora
threads
disappeared
denominations
merchant
nhc
propaganda
wanderers
semifinals
komodo
flexible
dresden
dundee
cephalop
ai
bail
fier
fuk
gem
ix
lv
mia
mell
mund
niz
ocon
ration
sass
xiv
##tles
##rin
##zens
##yar
##inz
##onca
##oran
##esa
##atta
##omed
##omatic
##sten
##etia
stuck
sticks
##otrop
##aden
asylum
##idium
reh
reagan
fres
beam
##chair
##unks
unitary
unrelated
##ianism
spear
##illion
tric
##anted
exter
##ovideo
brings
grunge
adrian
scope
##angan
contender
contested
depot
disabled
coed
##ilee
joyst
soy
monso
noct
servants
emily
retreat
filed
##mani
##irds
backup
116
humming
passer
sometime
##ledon
##brand
cyan
makeup
terr
temples
marking
campuses
merging
basseterre
poster
lighting
princeton
handling
handled
realizes
mccl
macro
conductors
##combe
baja
banking
halfway
timor
timothy
abbas
sexually
celebrit
powell
cuttle
drown
dispos
calculate
concentrate
seventeen
##iensis
graphical
prevented
definitions
dimin
ensemble
contempor
shelters
ancestral
polyt
reflected
alexandre
sponsors
dialogue
##iciently
hayes
bradford
integrity
lavender
xxx
algorithms
jennifer
bruns
bromide
andrea
disturbance
claude
tubes
intensified
##conscious
hrer
henriette
buttons
annexed
counsel
siegfried
colloquially
shanghai
battalion
bourbon
metamorph
staffordshire
vatican
ease
flet
gunn
kitt
lub
mvp
nin
nost
pius
qur
tate
teng
wess
yards
##bb
##loss
##mers
##2o
##56
theft
##itiba
##roid
##robe
##etus
friction
aless
##imon
##anders
comune
hew
chal
unity
debr
spears
##ishn
notion
##clamation
knocked
scripts
allah
##ateral
decis
nationality
##iversity
amar
acclaim
assists
guit
##oburg
eurovision
divides
solomon
##park
eventual
coprod
processors
saintpier
nordic
salvad
critically
mcg
ballroom
memor
bluegrass
curved
rhode
1827
photo
armenians
1804
murphy
contributing
1795
roller
bulk
functionality
bowling
quarters
subtemplate
neighbors
vacation
doctorate
apartment
conventionally
dimension
##ohama
rescued
architectural
cleaning
beside
hellen
drops
bagh
consequences
michelangelo
eclipse
stretched
treasure
sophie
gentle
chopin
tactics
galileo
kaspar
yokohama
cofounder
pornography
peanut
hertfordshire
pencil
rinp
motorcycle
michele
helsinki
tanzania
elisabeth
wavelength
guatemala
glucose
cc
df
duct
dyl
gad
gey
hp
hutt
jou
lighter
ming
pace
phel
ramp
ruther
rivals
sis
tl
tac
tuna
wishes
##equ
##del
##rians
##pin
##publ
##yll
##fir
##heon
##only
inception
##aser
##omba
##ethe
sto
sting
heid
degen
##iae
##odonts
##iped
ener
enzyme
##ifice
shy
worcester
##gee
##ogie
comprom
##ondiss
##ucc
##raid
parade
flesh
coy
syrian
blades
distress
weimar
sox
##intosh
belfast
##ologic
repair
ende
electrod
filter
interrupted
##obic
crescent
highways
sloot
majesty
armstrong
##undra
##ructive
evergreen
##rien
midnight
liturg
sket
antis
politicians
busiest
southernmost
successive
labyr
230
billie
technological
missions
immort
davies
combinations
##yrus
curitiba
knowing
sharps
secretarygeneral
photography
garfield
acceptable
saxec
breakdown
##ambia
peaceful
cookies
manufacture
employs
juliet
employment
participation
girlfriend
##isputed
undisputed
prompted
beyonca
bombay
bombard
milkweed
climb
witches
resistant
focusing
##ographers
gamec
hearst
loves
venture
##employ
vegetable
sailing
clockwise
granite
stretching
abolition
anatomy
canonical
assassinated
diplomatic
wolves
gazette
masturbation
##alypt
strictly
##inchief
intercourse
furniture
australopithecus
dolphins
demolished
lahore
punctuation
fianna
fountain
saddam
isabella
cuisine
alligator
disciplines
stuttgart
unexpected
celebrities
labyrinth
40000
aims
bs
cw
ces
cure
dul
eul
euc
eruptions
gol
hler
kais
lamp
mound
merma
nil
nacional
pest
pisa
rica
rta
ses
upl
v8
wives
##uen
##uania
##dal
##namese
##pit
##vy
##2000
##kina
##42
##heart
##inas
##orient
##isition
##icans
##amus
##ilion
##iliation
alto
##chin
##chus
plut
plumb
sev
##apest
enlar
spices
trips
lef
##ostic
marge
norris
aboard
adject
##onduct
screw
regen
##rah
##actions
monica
upcoming
warrant
presently
governors
airways
##atural
develops
loose
117
helium
corinth
cyl
##minute
personally
patric
arrondiss
approaching
kills
lima
silicon
halls
introducing
developmental
tenor
straits
chiefs
caption
keeps
breakfast
1794
telecommunic
ruby
omitted
##hrm
hospitals
spectators
clarks
gerald
frozen
measurements
oxfordshire
demonstration
cameras
1707
sailor
recipes
konietz
tunis
nutrit
##acao
##ulsion
hazard
opportun
habsburg
##two
ammonium
cedar
uprising
dudley
enrolled
huntsville
daytona
infinite
##children
yucata
nakajima
prairie
directtovideo
fletcher
salvador
rinpoche
konietzko
60000
bury
bots
dort
hale
hilo
jh
jol
np
nave
pich
poul
sb
v6
vaux
wul
##bons
##bank
##sar
##gem
##oide
##rano
##py
##fo
##hea
inline
anonymous
##eche
forbid
##ivated
itunes
alma
##emar
##emaker
##ulia
chner
atoll
##opa
##occup
##oden
##abalu
##ovna
gramp
compass
##izer
##izable
fool
twitter
##anga
afterward
paragu
##acts
coached
##prene
mae
##aze
poe
amal
dozens
numer
##ictions
britten
##gestone
interfer
smallpox
highlight
augusta
sled
obsc
##flower
harbour
moor
##inkle
basalt
christina
terrain
ecology
240
paterson
keen
##ynt
235
220
holmes
meanings
##beaked
saintl
##hydr
workshop
castles
needle
sunderland
camb
insult
insert
halfblood
1846
karak
blocking
osnab
oils
plato
1828
examination
expressions
breakup
threed
dropping
rolls
posit
azad
azores
quarks
suspected
chlorine
investigated
conquer
lithuania
cherub
updates
kitchen
encourage
conversation
autonomy
##umbered
pleasant
erectus
pupils
fragment
infrared
excellence
moisture
renewed
discipline
bretagne
peggy
aurel
lachlan
leicester
capitol
dauph
proprietary
oconnor
hummingbird
debris
gamecube
osnabra
bp
baking
cage
crick
fec
fow
hog
lich
nukem
pto
pesh
rim
rally
rack
roma
sorts
sagan
tico
vy
##beck
##liest
##sy
##hat
##hra
##mans
##pot
##kre
##wear
##hei
##inating
##onna
##anid
##anus
##anbul
##arl
##arre
##arius
##itime
##itative
tosc
##rog
##rokee
stere
aslan
##osse
conrad
unter
deity
arrows
spell
##ifs
truman
brag
clo
##ogens
##ibal
norma
compiled
ada
alloy
##ormal
goethe
parana
performer
cohen
overlo
smell
consoles
willing
artwork
attained
emin
generating
remake
endors
cherokee
##innik
operational
glow
backst
designers
treason
ska
professionals
##ogram
catast
winters
restore
holidays
carefully
eleg
informed
bankrupt
obsidian
holdings
moses
aston
typesetting
airports
agrees
##efined
browns
deadly
hydrochlor
1791
mirza
yellowstone
ethn
galleries
ivory
cowboy
johor
graphite
integ
cooling
harvested
subdivisions
buddha
takah
ultra
protecting
rumors
cruz
mistake
imagination
hyperbolic
yamamoto
sacrifice
lavigne
decreased
interactions
submit
harmony
terrorist
dhabi
evacuated
transcription
fontaine
responded
sulfuric
lungs
patriarch
istanbul
recreation
farthest
javascript
##running
adoption
clusters
nurse
marathon
lombardy
caliphate
clerk
favored
mlb
siblings
councillors
peripheral
jorge
backlash
noodles
saintmartind
tiberius
monetary
mcdonald
entreprene
lenzburg
schwarz
awareness
brunswick
guitars
aly
apt
ave
aunt
bian
bates
cet
cott
caves
dah
della
gom
hail
havel
jail
kag
lighth
nih
nadu
poc
pagan
poker
rage
ruf
sene
tc
tect
ufc
wig
wang
walth
##sur
##hor
##hung
##rt
##city
##pers
##qa
##inius
##anu
inmates
##eni
##itism
thile
fritz
##herty
chia
##agar
##agus
##umont
probe
plug
##apo
spo
exiled
worm
clade
claus
gram
grind
marian
maroon
##ucer
counting
##plain
hades
indoeuropean
flam
disgu
evolve
bloss
nationalist
##athy
considers
drought
drunk
warne
##ollern
205
minne
strand
swift
interference
103
##undi
gloss
daytime
antin
##shine
##shaw
magma
km2
downs
colleg
copied
freak
equality
confident
atla
cease
mck
##uclear
angela
badge
jewel
graduation
closure
exceptional
flagship
upperlevel
flee
rodents
occupying
1775
barbados
quotes
reflecting
fuj
thickness
adaptations
disappoint
decoration
simplest
consequence
sacrific
panthers
narrative
withdraw
withdrawal
lunch
pursued
disturbed
tyrann
affiliated
maiden
vessel
bundesliga
cobalt
crocodile
furby
chiron
summerslam
amphib
alignment
secrets
risks
bantu
bologna
exhaust
jelly
priory
phelps
bubb
cus
cun
eil
fs
gou
hood
hms
ketch
mog
nests
qa
qing
roster
tack
tann
uz
vid
wp
wimb
xii
xvi
yass
yuk
zion
zak
##bt
##dl
##days
##aj
##cot
##mese
##pian
##zollern
##vinnik
theological
##erable
##orous
##enovac
##iton
##omic
##iler
##iland
stays
stoke
##advent
##iderman
alc
beaver
bypass
unst
##ocation
proc
##odia
##iani
primes
prints
arche
tran
tristan
excluded
commuter
brat
teaches
grams
1811
aden
scud
goose
peuge
carver
pert
perception
coord
wein
greet
overd
##anco
amber
##grave
artif
belly
thrash
swahili
##oupe
relativity
westphalia
modules
filip
slope
opa
harlem
##lette
##aphy
continuation
performs
magna
busy
condens
30th
concord
progressed
delim
delmon
farmer
confuc
pointing
##ographically
princes
bills
infamous
discour
inflation
lowland
readily
apes
fauna
renov
##knot
##ophys
eighteenth
ireann
##198
journ
transported
rankings
achieving
automob
chapman
aztec
inns
arnhem
lifestyle
ambig
flyers
penny
1787
botvinnik
punjabi
jeanne
corresponds
marshal
##aroos
coded
locke
##peaking
comparable
pollution
tuber
bridgestone
yamag
synthes
syntax
##walden
##umberland
heinz
tributaries
affecting
substitute
witnessed
phylum
cayce
lecturer
jasenovac
sergei
cyprus
explicitly
lagoon
elaborate
underside
firefox
dlr
aggressive
voluntary
saxecoburg
peugeot
delmonico
bly
dix
hul
kab
kend
mull
nude
sach
tna
upt
wak
zack
##bot
##tz
##dc
##oz
##rag
##cale
##zone
##ycle
##heus
##erver
##oney
##enstein
##arkshire
##icher
stab
##ayas
##irical
reint
reigned
alger
alesi
comets
##estab
unemploy
##vere
##ocial
seized
##ianus
enz
neuro
##iferous
ley
worse
##endale
firing
intact
##ieder
footage
centaur
shen
moreover
overw
1400
drif
schism
mina
guth
emi
121
geisha
seasonal
##chewan
glarus
gloves
##otti
##ominated
professionally
##appa
##appy
cellist
handed
saintje
palmer
ceres
summar
erin
preview
sunshine
harder
melina
franco
ulster
eighteen
fails
cardiff
accepts
roses
disputes
emerging
stanford
mythological
nicknames
axes
##backs
1772
assisted
commanders
ordin
parallelism
rupert
commentary
dorl
cryptanalysis
pyg
pyth
pyra
lithuanian
hannibal
riots
kinabalu
pioneers
reproductive
##ysts
sebaceous
descendant
shooter
##egro
cultivars
deposit
lanarkshire
pupil
skiing
pursue
penguin
cybermen
delegates
rafael
cereal
slipknot
persuaded
casualties
comprise
depicting
stevenson
encompass
wikilink
hereditary
unfortunately
saskatchewan
registration
intervention
gilgit
jaguar
monsoon
cuttlefish
waltham
ji
jah
liga
nish
pend
pub
rie
rous
riders
tends
tundra
u2
vor
wyn
yout
##bear
##benz
##eu
##cular
##pages
##yne
##vas
##vil
##fax
##erie
##alach
##itated
##itama
##reuth
##league
##elic
##uria
##acon
reper
##through
ori
heidel
chore
##agascar
uncon
##artino
##apa
##illary
exit
##see
clut
##ogether
##ibo
##rice
cann
engage
##rite
##ruy
syrup
##uga
##awl
##press
phones
teamed
proven
##ancourt
edo
noise
schne
strips
##phth
assyr
guin
slot
directing
englishspeaking
estuary
##letic
occitan
aviv
expelled
batting
refuses
daim
superhero
##ippers
statues
volta
careful
burkina
##helion
discovers
destiny
editorial
textile
melt
denis
constructor
activists
synonym
madagascar
translates
agreements
paying
garca
cardiac
machinery
webster
vanilla
audi
tellur
##efin
##ymmet
trainer
philosophers
innings
credits
masks
bulls
ashley
spreading
preventing
##eddy
altogether
nitric
missionary
vietnamese
sainte
recipe
gusts
mortal
nigerian
collaborated
porrent
horizon
stretch
gathered
bengali
supposedly
##atlant
ozai
shields
loyalty
metallica
recreational
commodus
joshua
griffin
mecklenburg
convenient
accomplished
thermodynamic
unicode
sgt
triumph
pdf
brewery
brutus
montenegro
mughal
jubilee
mozambique
kensington
##northwest
kasparov
integral
wimbledon
scuderia
heidelberg
porrentruy
auction
bison
cout
dion
einstein
gul
hect
iol
kul
kwan
kavir
lance
lumber
nid
nerve
pact
piny
rode
ranch
righth
tz
tcha
vie
winc
wagon
##gun
##cross
##pakh
##yu
##face
##icity
toma
##stead
##elope
thant
thistle
##rob
##rocess
##iridae
##user
wholly
orla
chor
chips
##este
unlik
##avo
nez
ares
spong
spike
traces
traps
lean
lever
##earth
marse
maritime
##oko
##ucci
knox
butler
blend
aggreg
joey
##onshire
schu
subset
numeric
stras
1700
attain
attitude
imposed
swat
creators
rematch
retiring
##obacter
##ssel
augsburg
currencies
barack
organize
constance
socrates
1300
midway
verses
protects
wrestled
sonata
merge
resting
postage
russians
cellul
225
competitor
totally
275
salary
secretly
tracking
realize
mothers
voters
hampton
civilians
recognizes
standardized
ferment
orchestras
logan
##clusive
boxer
consistently
happiness
semit
principally
catholicism
beaten
##waa
1796
1793
bells
twentys
companions
caspian
##alpes
myths
papua
##block
participating
bacterium
1788
##borne
contrary
screenplay
pierce
acquisition
##addy
dorothy
feedback
landsl
coden
soda
linden
pigs
sabres
reproduce
awaken
smokey
decreases
encrypt
chronicle
wounds
skept
liszt
bibli
fishermen
jamie
hesiod
bunch
reverted
commemorate
reconstruct
acceleration
reunion
hammerfall
affiliate
brackets
oliveira
melodic
bismuth
scorp
##anthropus
eukaryotic
prophecy
khyberpakh
dessert
ethiopia
siberia
cromwell
spontaneous
accusations
vespasian
avalanche
stephanie
auxili
klingon
proximity
hispanic
antennae
elongated
dylan
rutherford
sketches
##oriented
journals
kavirondo
pinyin
210
bik
biod
cacao
dae
dino
fbi
fiji
faso
gpl
hak
hik
hello
kem
kus
kron
mt
mello
nha
rau
saves
tidal
ura
vida
xi
xray
##uo
##bill
##tc
##iem
##locked
##si
##gence
##not
##notes
##hilde
##rays
##rika
##cott
##mcc
##pec
##44
##41
##xes
##esy
##alan
##isible
##ioned
##lean
##ilitary
##stow
stake
##urai
##immer
##emon
choral
unw
unre
unconscious
deleted
##avour
##abria
neolithic
prud
arach
spun
##ifi
tres
leh
shi
##aston
notices
clap
##qua
mare
##ermo
##ikovsky
seren
alltime
hadrian
resolve
indefin
carroll
bless
##ilemu
##tebr
phant
joel
soba
146
##inthe
schaff
buchan
guill
accidents
albedo
remin
123
##llength
modes
##anke
##onta
109
developer
invas
invitation
organisation
daylight
thoughts
##bria
granddaughter
##scale
similarity
postp
coasts
caffe
halfl
handles
possessed
attacker
affects
robson
argues
ideology
believing
literacy
lowered
execut
distributions
bordering
garrison
1807
esatlant
walters
320
bonap
silverstone
1770
1779
1773
criticised
fulllength
mandr
thirteenth
formatting
dolls
dimartino
clarinet
investigations
climates
strikes
300000
falcons
chromium
fuels
bradshaw
arbon
wetlands
hawaiian
echo
simpler
mediumsized
##uvian
orientation
illegitimate
burgess
nymph
shirt
shirley
vaccine
mechanisms
advocate
klein
pasteur
crabs
uncertainty
invertebr
anarchist
excluding
euston
scandinavian
euclidean
screaming
##ashtra
maharashtra
posthumously
surname
poseidon
mankind
sullivan
tsunami
bubble
irrigation
buckinghamshire
toilet
plumbing
pichilemu
wulff
forbidden
overwhel
youtube
tchaikovsky
unlikely
khyberpakhtunkhwa
schaffhausen
esatlantiques
cic
ely
gorg
hod
hague
jules
lact
lets
lope
mug
nw
nim
nets
nara
pom
pits
rl
rita
tide
vectors
wich
wished
##tar
##tures
##las
##rud
##fol
##inf
##atu
##isle
##oum
##ilight
reinc
alvin
aliens
##utsc
##ulae
##estag
cones
unification
dein
delete
##ipeg
enact
traced
leigh
brugg
##ounty
##endorf
##cliff
newport
scala
twilight
intent
##eyan
##aceans
reson
disabilities
##rops
##awi
soils
outcome
provisions
edwin
dover
capcom
##pha
##hips
finite
emble
generals
##lla
moder
originates
obrien
opium
directory
redempt
profound
persians
112
113
waterfall
openoffice
helene
internationale
##alties
anto
terrible
demo
refr
receiver
holder
presenting
##beat
advances
communists
mustard
furt
insisted
realms
punch
##def
arguing
espn
horst
turtles
astrol
hunza
suggestion
50th
##ushion
##written
methodist
##headed
##atti
magnus
budapest
winnipeg
absent
rebec
controllers
admired
bernstein
northeastward
tyres
journalism
assembled
determining
pilots
papal
vacant
cowrit
johan
nicola
contrace
ellip
##iformes
preparing
pedestrian
raven
catalan
tendency
1763
feared
lambert
gotha
decorative
bundestag
sheriff
##brown
dynamics
amazing
folded
stratus
scouts
hendrix
pompe
acceler
cliffs
olivier
motorsports
taxonomy
##uliar
triggered
recruited
aesch
mimic
reinforced
curtis
isotopes
ndez
procedure
vulnerable
middles
nnhilde
peculiar
bambi
multisport
hellenistic
catastrop
caffeine
ao
bis
bare
fid
fah
guten
hag
hath
kann
lec
lump
mk
mock
nathan
oed
roth
tant
wir
wern
##uber
##bas
##beth
##tland
##lies
##lights
##eous
##gam
##rats
##wid
##inters
##onen
##onica
##ester
##enwikipedia
##arat
##arians
##ashes
isold
##roft
##roads
##etto
##ady
##irable
itv
ree
##iman
##emia
healing
##alling
##arten
ate
armani
##arded
shak
shower
worcestershire
commands
brave
mang
manmade
abdom
canary
countdown
newest
twot
parth
pez
blake
blamed
##itext
upgrade
polk
warming
thank
schles
stripped
broom
mainline
sims
lawn
fouryear
governance
modest
modification
interv
crude
anymore
gameplay
classifications
##ussian
backed
harp
porto
portal
correl
householder
solids
justin
villene
builds
speeches
liveaction
##racted
republicans
specialist
beginn
advised
mori
devils
erich
cleop
variously
tribune
##afa
mcd
##player
bayreuth
melting
observe
observer
##tti
synag
choosing
transliter
costume
##marks
lyon
1808
contributors
elevators
pitched
mirr
calcio
ratchet
dissolution
hawk
##guer
cubic
lift
therapy
splitting
ordov
cowrote
lawsuit
cooled
ellen
questioned
somme
nagar
bolivia
velvet
contestant
mahler
illustrations
seemingly
lennonmcc
pigment
sidd
displaced
tonight
isolation
demanding
natal
emotion
lisbon
lisabeth
msn
warned
wardrobe
hippopotam
henderson
trioxide
ritual
mercedesbenz
lodge
rendered
nominee
parasites
docklands
padding
comprised
overlap
funny
##grove
31661
hymn
deceased
assessment
nocturnal
ptole
hydrochloric
automobiles
wichita
openofficeorg
lennonmccartney
benson
dere
dign
gb
guez
igor
jov
lily
mn
nfc
pang
pets
rape
rya
rovers
sally
uci
wards
wta
zach
##bold
##ng
##name
##rador
##px
##vision
##jud
##herb
##ataka
##enment
##aris
##arro
##stick
##elau
thalia
##eca
forget
##adays
##ivo
frustr
fragr
fraser
beak
##ersh
whl
##istence
orson
##agara
une
##alla
##oping
envelop
neo
argy
trucks
shots
##oving
##iea
notorious
##ecting
##ende
teens
firms
marino
adher
borneo
##ucational
centr
##enshire
coburg
blu
##print
##ffy
wehrm
polyp
ama
quir
##gren
##otha
numerals
meta
brock
##epa
finlay
##ieri
relie
defl
anyway
geographically
opus
englishlanguage
johns
nowadays
moose
passive
basal
standalone
##amaic
##ograms
televised
campos
meridian
everywhere
catarina
##aldo
replied
cellular
260
burmese
heavier
snape
##generation
survives
1860s
combines
##toire
destructive
##baum
alexei
mosaic
jewitt
practition
##fields
comeback
venerated
nobility
thomson
responsibilities
acceptance
essjay
pitt
rodra
dispat
explorers
candle
casaya
admins
occurrence
vonneg
mandel
crafts
snowball
clarence
dvds
shrub
slee
somalia
nagasaki
reflects
lorenz
complications
paleolithic
##ographed
riordan
##chaft
laser
reconc
simplified
korch
cadet
dramat
ridges
cinem
licenses
aberdeenshire
tatto
folds
billiard
remnant
sapiens
flavors
kreuz
crucial
salamanders
marlboro
multiplication
manuscripts
griffith
mecca
pikach
beetles
rhineland
accommodation
accommodate
vandalism
orchard
rdoba
forgot
himalayan
postcode
sturgeon
hatshe
wreck
brilliant
ecclesi
logarithmic
emanuel
raffles
##germain
enlightenment
gamma
tudor
condemned
decisive
eucalypt
##ynthesis
entrepreneur
lighthouse
senegal
repertoire
winchester
gutenberg
vonnegut
8000
a3
aol
bust
baz
bench
bja
cite
gains
hiv
hond
hick
iq
jinn
mard
nab
nect
rath
rides
rfc
sos
sock
sabb
tn
tended
vass
wain
xanth
zambia
##houn
##cz
##mot
##math
##zzo
##vine
##vsky
##ww
##600
##55
##jou
##fu
##function
##inho
##atop
##alous
##asu
##icism
thay
##rots
##olving
##irm
##ivi
ita
frie
##thor
##usement
orang
unc
##avers
plent
suited
enl
enable
arise
exeter
shrop
bram
##ounted
clause
##quito
tehr
afraid
##clair
butcher
regulation
aftermath
souls
disability
peaking
meow
evan
##ugawa
desper
1492
outlaw
smugg
presum
presley
amusement
dob
minist
##new
calhoun
assets
swab
simba
relax
laud
##yscr
cheap
geology
opeth
invalid
##isexual
ida
##lett
moa
##ullah
##rique
breton
##ominal
##ledore
anglo
##altime
skyscr
listening
politically
camping
berkshire
reception
labrador
latino
equals
iris
fathers
explore
##lining
multi
##axon
micron
##omotive
salad
snout
apolog
olympians
sunset
robust
haifa
constitutes
findings
hotsp
loses
lowercase
##ombie
##quez
microscopic
hoff
venetian
premiers
sandstone
capturing
threats
egyptians
bella
rommel
improvement
dispers
bonham
spokes
difficulties
lifted
1778
quarry
hopkins
paths
##janus
exhibited
pedal
hanja
mitosis
ventric
jumped
pearls
kitts
##felden
perfectly
##building
cultivation
tonnes
malaysian
wonders
carpath
infoboxes
dormice
emotions
utility
answered
tokugawa
brigade
pursuit
##wicz
predominant
innovation
rhea
thyme
refugees
surrendered
tentacles
portraits
symmetric
nasal
lectures
phosphate
icelandic
enhanc
disciples
hedge
semifinal
subcateg
httpenwikipedia
knockout
peanuts
militia
brahms
conferences
emigrated
gloucestershire
##otypes
antigua
dumbledore
cohost
##hevik
clyde
thunderstorms
remarks
uninh
coeducational
dauphin
minneapolis
##adventure
guthrie
##width
ordovician
wehrmacht
hatsheps
aest
biz
bair
cess
cact
craft
dz
dice
fats
gc
gye
gdp
jake
jena
jedi
jaws
jumps
kley
lut
lys
lined
lilly
mou
mons
oro
oats
sized
tears
vault
yan
##bral
##tical
##tail
##iom
##lest
##lord
##aub
##how
##cap
##waters
##63
##fries
##heid
##inium
inapp
##aline
ante
##icially
##lech
##amba
##etics
stability
##olon
washed
##adier
##ayy
realtime
frau
frames
ally
alicia
##igl
##igula
beats
##chl
##chool
whis
byron
##isting
##esta
congest
unh
##opal
##ocles
proton
pled
##bera
##ipus
nealpes
aras
spinning
spinal
trac
shale
shoe
##ovol
brighter
##gean
playboy
##ubishi
firstperson
##oken
paranthropus
induction
feeds
peruvian
whenever
##lectric
##tex
##ausen
warmer
underworld
##oths
saitama
caligula
matoran
##ups
##upa
emil
verus
systematic
endurance
modifications
addiction
differing
profits
loaded
elgar
annie
rails
wrist
italics
hurwicz
helena
passport
seeks
steal
##eneo
##byter
irving
saintden
##chess
2600
squash
inflamm
olympus
hamlin
##haft
dutchess
frontman
##000000
yourself
sandra
captivity
garry
babies
breakthrough
drowned
gasoline
posse
automaker
electrified
tyre
1777
mccar
botany
incorporating
integers
prominently
selfgovern
ellis
anglos
marcos
cavity
trauma
pools
cruiser
ibben
gambon
hershey
herschel
virtue
pottery
##color
inclinations
abdul
journeys
1688
stretches
bourd
napoleonic
lobby
switching
linguist
proportional
innovative
##music
vinyl
deeper
imprisonment
sterling
rendering
corsica
conjug
prohibited
taxonomic
bamberg
recruit
humidity
palestinian
thermodynamics
##powered
surprised
##volume
gloucester
mitsubishi
accompanying
anticipated
airplane
consonants
labourers
certificate
bhutan
alessandro
telecommunications
opportunities
bubbles
dixie
aeschylus
korchno
pikachu
bb
bisexual
dunk
diana
eun
eats
fag
gt
gin
hiber
kol
mumb
null
oy
oat
oman
pt
pamp
rama
tsh
tails
tension
vans
vascular
wart
wend
wise
zagre
##uity
##banded
##lu
##gir
##gger
##nar
##ydon
##vana
##wr
##47
##jor
##file
thesis
##edic
##edel
##enheim
##arms
##iscovered
##inga
ismail
##stall
##staff
thou
##olves
##urian
##ayama
##iraptor
fronts
alumn
##thro
##cephal
##isto
cone
unp
##alli
seym
spart
spanned
sponge
shat
bran
bride
claw
manages
maneu
compression
partitions
##outimi
##irelli
sci
twod
goats
residing
meisters
engagement
coaching
##elyn
somebody
genius
mao
maf
147
##azi
willis
presbyter
subordin
buffer
beloved
britt
fins
relies
accession
##terson
emitted
##insp
##annon
westnorthwest
slash
cheaper
##space
estonian
glendale
##enga
sociology
brel
##hend
##parents
grands
epoch
villain
##retion
markings
stationary
irene
winston
keyboards
circa
1890s
authorized
morse
elean
humanitarian
burgh
primates
erik
biologists
pursu
cros
croydon
plante
broader
hunted
galv
treaties
grosso
wilts
chicoutimi
judged
lengths
promotions
garner
flew
banana
boarding
escal
miranda
safely
calculus
casino
##burger
inspector
axial
papyrus
walked
mandatory
qualities
answers
##breaking
protestants
##ihu
narrowly
complained
mahara
trusted
catalogue
sorai
fears
arbor
travers
emergence
fleetwood
tuned
pirate
quartz
ribbon
absorb
purely
woj
hinduism
hesper
sickle
genesis
botanist
##finished
prolific
salamander
embryo
intersection
excessive
cnn
nursing
dictator
cecil
steady
steadily
dromaeosaurids
engraving
clinical
derivative
kidnapped
terminology
yogh
hohenzollern
multicellular
uncommon
overthrow
apprentice
schumacher
submarine
deliberately
pavelia
gharial
rereleased
mermaid
arrondissement
antinuclear
##established
##cliffe
redemption
refriger
hondur
shropshire
tehran
meowth
premiership
uninhabited
hatshepsut
korchnoi
zagreb
seymour
bisc
cough
ditch
eject
fm
fior
gert
giro
hs
hager
kad
kov
keral
katherine
lucky
mates
nir
pater
rift
tast
tung
toul
yoga
zub
##uer
##tion
##gated
##nil
##pill
##vey
##with
##wark
##67
##jung
##fold
##erne
##inald
inject
##enary
##enbach
anand
##itud
##asi
##isely
##reci
toss
static
wasps
##urities
##adec
fright
ala
##emper
beech
##ulse
chitt
##agna
unions
unfinished
##avan
sealed
##berries
prisc
arising
spine
spikes
spiderman
clip
clif
clank
grab
cane
canons
scalar
twig
regiments
depicts
##plat
herz
paragr
fla
sheikh
carriages
meiosis
boom
coe
syrac
##indi
##inde
decomp
betty
weaker
willie
famed
charon
suborder
builder
strath
albania
##annah
107
backwards
wrapped
rockets
mids
litter
basically
imported
25th
antip
eps
runn
##uckle
##bye
24th
easternmost
postwar
caulf
specialised
shoulders
palae
##hyd
snl
1880s
crosso
camel
camden
planes
civilizations
haute
macquar
macintosh
macbeth
fifteenth
battlefield
##asca
mosquito
predatory
defeats
microorgan
fortifications
composite
troop
lengthy
rangel
semia
semip
##forth
vocabulary
approximate
burnt
surrounds
automated
painters
dissolve
leeward
saltire
koj
alfa
behaviors
hypot
trafficking
hanse
cds
trustees
dalai
catalonia
suprem
bradley
clayton
miley
rudolph
ingrid
encrypted
##speed
longh
dirt
accuracy
extracted
gymnastics
mentions
phosphorus
jasper
hydraulic
bombs
dyes
scrolls
vinegar
chandler
tomatoes
infectious
uruguay
antioch
caterpill
mollusc
lafayette
praetorian
syllable
##culosis
burgundy
metatemplate
cephalopods
lefth
aurelius
collegiate
iolaus
emblem
anglosaxon
bourdais
syracuse
crossover
330
5200
bain
cis
cement
dit
dad
damp
ety
fife
fonts
gat
hov
hau
kde
loth
lash
nk
och
odon
pis
pinn
pasha
rik
ratt
socks
upp
yak
yah
zwick
##iol
##gold
##houses
##ranes
##pis
##fil
##anze
##orrow
##ariant
anx
ananke
##itim
##icourt
##roject
fork
##adj
##adena
##irus
reass
##imeter
##thik
beust
##ithia
##istance
##oso
##oske
##avi
seaw
sejanus
suck
##abling
aragon
spoon
spiel
##ifiable
leis
##ellius
##endent
grub
marrow
abdu
depr
flown
disbanded
carth
meadow
meadows
##activity
formations
appreci
blown
141
specifies
amended
##grima
bux
swagger
secondlargest
repairs
gua
embr
retains
##coon
cranks
##uala
slim
oboe
severus
armist
reds
redund
barth
valued
glenn
divoire
harper
111
humph
midwest
breathe
passages
##otting
antlers
stealing
myst
cyn
blacks
terra
lawless
##tingen
periodical
bertr
dela
copying
frei
postulate
##illem
replication
discovering
colorful
palau
squar
raa
greenhouse
clef
nonmus
hitch
insulin
economically
fuller
affection
pauline
scotts
turks
zepp
identifies
wanting
fortun
samus
karthik
olm
methane
payments
promotional
cabell
cables
##marie
convict
lucia
murders
rapids
esgrima
banjo
dros
rolled
walks
acidic
bonnie
julie
precisely
hindi
drying
packaging
leonis
tropics
##worthy
1782
revealing
##ecker
jacksonville
spectro
interviewed
sensory
correspondence
marsden
chromat
liquids
gaming
programme
neutrons
glaciers
vulgar
sculptures
sailors
scenario
ryder
aerial
displacement
panther
gregg
sulph
hazel
opinions
stratford
##atlantic
interfaces
explosive
cpus
depths
gibson
yugoslav
wolver
predecessors
proposals
denomination
electroly
consortium
crusade
rainforests
athena
proceeded
postcodes
decrypt
inaugurated
manifesto
albatrosses
rectang
pietro
tmobile
deployed
larkana
pudding
rochester
guarantee
vezina
odyssey
contemporaries
kaiser
enlarged
numerical
##kreis
reintrod
biodiversity
phantom
halflife
bonaparte
oedipus
wainwright
thayil
ibbenba
galveston
wiltshire
yoghurt
kerala
macquarie
karthikeyan
bows
boca
bisch
cair
cels
coul
dent
dong
eco
fiv
gos
gilles
jill
kobe
mbe
mps
nog
nato
nchen
nassau
oa
rite
rpm
sas
tec
tart
tess
tse
tando
tanks
vog
vett
wien
xiii
zu
##bil
##bir
##but
##gus
##nas
##mun
##zach
##yth
##vre
##vie
##62
##88
theolog
##ongh
##atile
##asagi
##leigh
##amine
##sticks
thal
throws
##ecar
ston
stub
stowe
##uru
##urally
ashes
reapp
alum
##tham
##champ
##utely
unaware
dei
deutsc
##oderm
##berger
suv
enables
##abithia
arid
aramaic
##ifax
##illas
trash
trench
##anti
sham
##ource
clot
clash
firth
grants
manch
marched
norderney
compare
##clin
##onder
citystate
regulated
##pler
herd
indent
flip
flint
##ropus
coex
eva
deserts
betray
monter
teammates
preference
provider
providence
##azu
##urred
capabilities
subcontinent
imply
swine
repar
151
laing
##verness
generator
albion
albanian
remind
longitud
crushed
highness
incarnation
##italia
songwriting
profit
##redame
barrel
termites
gliridae
everton
publicity
lasts
trem
magnes
cylinder
terabithia
ecumen
membranes
jealous
sixteenth
##erving
superstars
autot
irons
irwin
23rd
detective
cafa
possum
devised
discrim
prevalent
illum
lowlands
##look
readings
nonet
faction
dias
penal
collector
mcml
woodland
martins
denote
denotes
denoted
banknotes
collar
execute
timb
groa
madame
##borg
##kett
karol
laboratories
entertainer
khal
troll
##risio
sharon
lucario
##kien
calendars
richardson
aegean
talented
hydrocar
investors
commercials
puff
embark
permit
##guard
axle
mrt
transferring
rubidium
fluids
gunpow
1780
1784
twentyfour
misasagi
kenny
exhibits
##ihara
somal
nagorn
protective
requirement
cruise
lithosphere
##impson
400000
haydn
defaults
##organized
comparative
pioneering
##built
pelop
integration
tuning
saffirs
paso
carpent
mathematicians
negotiated
anatom
megal
shirts
emphasized
nineteen
monasteries
##scriptions
mendrisio
sylt
kangaroos
substitution
rouge
rhein
igne
##xxx
karajan
abundance
merchand
perpet
enhanced
diverted
phonetic
cluster
balkan
ankle
cofounded
dalmatians
hammers
ikka
portrayal
councillor
prescott
wikiproject
devastated
encompasses
mushrooms
uruguayan
hispani
##ordeaux
sedimentary
inquiry
bukit
salvation
supernatural
embassy
subgenre
##palat
karnataka
euler
patricia
tectonic
fsf
unstable
tuberculosis
wikilinked
auxiliary
urawa
isolde
gyeong
mumbai
honduras
nirvana
paragraph
etym
gunpowder
saffirsimpson
bing
bia
bard
burr
corm
dag
dill
dell
dots
eus
eton
erupted
ejac
fips
gyp
garn
holl
haf
hahn
hyss
js
lp
lone
lovers
mg
nos
nwa
pbs
panda
ponds
pinned
pirelli
ropes
serm
sara
tand
tatsu
ud
vip
viz
wett
##bum
##bard
##tics
##iw
##ao
##hunt
##rium
##cen
##mgarten
##kk
##52
##funk
##orse
##amnik
##ilis
##stag
##urp
##acola
aligned
##igit
##ulent
ork
orator
heal
##agong
##osity
atata
##optery
##odied
nex
preston
printer
spag
sparta
trout
lez
exempl
shocked
commissions
##orns
manning
##perms
twoth
##rail
dischar
sheets
carey
meh
##actory
boost
blast
agr
locate
maa
phd
muss
sozin
overij
speculation
##azar
wills
amid
amrit
##ahua
noon
charing
minus
publishes
mato
guam
##ierre
emit
verge
127
retaining
##obee
##anking
champagne
reduces
eastward
moh
bremgarten
basie
corrid
25000
solitary
##aius
villagers
enterpr
churchill
saintgermain
massa
buren
limiting
freezing
biom
damn
nonfiction
factories
menu
##apeake
texture
##oxic
marty
bailey
cyclist
petition
timah
groove
tomorrow
cornish
nobody
darkness
captive
##limited
tablet
1823
lucca
fleming
nationally
soviets
1799
absinthe
##atoire
rebels
jerome
globally
corporations
optics
determination
spray
jeffrey
kramnik
1786
jonas
alfonso
snowy
charleston
anglic
marcell
bombings
shrimp
marshes
theorist
brawn
brady
##emplates
teenager
abandon
staying
aeros
yamato
libya
attributes
##families
archaeologist
##birds
aleks
zoology
sophist
enforced
reichs
reichstag
claudio
rabbits
announcer
dumfries
roofs
beverage
reverend
reefs
rituals
evangelist
reserves
obtaining
daleks
##belt
batteries
pseudonym
bicycle
ammonia
##athetic
eurasia
slovenian
rhinoc
lbah
crocodiles
soprano
accomplish
australopithec
chesapeake
tumor
advertisements
mushroom
consolidated
incomplete
erosion
intestine
attachment
pyramid
bushranger
bulldogs
depressions
rejoined
uzbek
delimit
algeria
enzym
dionys
clapton
buchanan
ecclesiast
ministries
httpenwikipediaorgwindexphptitlewikipediaautoed
brittany
chittagong
caulfield
armistice
zeppelin
somaliland
hyssop
bons
bony
bax
bounty
cory
cinn
cerv
cogn
dames
fuck
glee
hatt
ij
jia
kow
kip
korn
lecture
mers
meyer
nond
nche
nij
ostr
pork
pants
rs
ria
sect
sake
sank
sapp
tiff
tiles
wemb
xl
yuan
zam
##iator
##iornis
##dar
##disc
##shevik
##nort
##nuts
##oge
##rine
##mud
##member
##vard
##vald
##viii
##kof
##woman
##43
##90s
##fur
##fires
##81
##hetti
##inos
##inging
##rea
toes
##omo
##leen
stig
stained
storing
forem
##oty
##irchen
##oway
fract
##imeters
dexter
##avier
placement
##apol
##berra
enfield
neon
proud
aromatic
spor
##antes
##antec
lept
excommunic
bras
##uster
graff
##ogg
##ibus
mari
abbr
canberra
knob
scrip
twisted
contests
reginald
cola
parm
resin
meher
boer
locals
monot
monoc
offset
larges
outward
prelim
prejud
warwick
submer
buoy
1750
safer
cald
finishes
repet
universally
accred
emma
verdi
governess
modular
juvent
augustine
##ometers
geologic
oldham
invaders
invisible
valence
valpar
##anyika
##iseach
starch
basement
##ledo
angu
##alta
##heng
shortbeaked
justified
stepped
##boo
##boat
tert
stationed
##amme
colleague
automotive
posting
explaining
circulated
halifax
pakh
streak
louder
hostile
salem
immun
camell
penick
projected
fireworks
guitarists
ferre
synod
eighty
tavern
##mington
dominion
peterborough
promotes
captains
rawalp
##ropolitan
displaying
examined
##iffs
##putin
frequencies
banished
bellinz
saras
likes
325
hawth
slowed
lifts
hindus
seventeenth
1783
wears
##iasm
hemp
moments
selena
suspect
ipc
lacked
doubled
dorus
##ogenesis
gnome
sinclair
demonstrations
pyro
adjo
illustrator
randolph
quarterf
coupled
1768
dependency
rejects
duchies
weakness
anchiornis
##brother
##brook
sidney
ascii
crustaceans
monteith
tobago
implied
zoologist
jennings
elderly
struggled
genetically
pockets
tanganyika
habits
crowded
colombian
torture
runnerup
exports
intercity
sahara
bismarck
categorized
palestine
rasputin
dolphin
devastating
ayrshire
advertisement
gandhi
skateboard
kawasaki
semiconduct
psychiatrist
stylized
sofia
privileges
psyche
chrysler
parachutes
resolutions
swallow
surpassed
advancing
revelation
hierarchy
mandaeans
##occupied
karakoram
artifacts
marseille
abdomen
villeneuve
cleopatra
forgotten
kleyna
crankshaft
sulphur
celsius
vettel
nonetheless
orkney
twothirds
wembley
foremost
rawalpindi
bellinzona
bier
bae
bdd
bflat
c2
cull
chern
cakes
dt
dd
danced
ether
fake
fuku
fighters
gore
gue
het
hairs
iuc
jum
jug
joss
jude
kiev
lh
lamps
nod
naw
nup
risen
ucl
wb
wister
##bah
##geme
##num
##oan
##oise
##rome
##rage
##rio
##cane
##jin
##fig
##87
##anini
inuit
##aru
##itate
##amura
##elo
##elph
##elius
stro
##acies
##adar
##adic
##idt
##iden
franks
##thouse
##unted
##iston
chim
deuter
##bery
neander
##illery
triest
traged
tricks
worried
brum
##iek
##ellan
##oreg
clone
tez
grape
##ibu
##ibel
manually
##okarab
newark
##ikon
intensive
reggae
coloss
##ignac
parental
soups
souza
resumed
carm
##ritis
appalach
locality
mono
overr
larval
query
2014
buzz
prodig
strains
mets
1730
belgrade
impr
swans
swamps
guides
universita
vera
163
interrupt
slender
slogan
incumb
##ossa
##enny
chrome
redes
barely
persistent
elvis
##riac
differentiated
openings
referenced
solvent
christine
grandchildren
eponymous
philanthrop
##screen
kee
cirie
##ippo
confession
specialty
##ependent
localized
picks
satoshi
separating
atlant
diemen
paramilitary
plantation
urged
homosexual
avery
donna
olaf
##ijk
gaedel
venerable
sexes
honoring
panhand
layfield
convince
photographic
garage
neckl
essen
juno
visitor
occupy
focal
##boxes
priority
liberia
contrad
quotations
smithson
impacts
arrangements
barton
shelby
takashi
cassini
stripe
vicepresident
consumers
1603
welcom
bureauc
##proof
##controll
rudd
viceroy
bathroom
ferna
ahmed
smoked
baptism
resembl
equatorial
undertaken
hiphop
levy
rebuilding
euga
zoos
limitations
sophia
licensing
poisoning
wester
gentleman
blindness
landscapes
touchdown
remarked
triangular
brigadier
bmi
https
istria
flourished
crucif
symmetry
embryonic
vertebrate
sutton
exceeding
joyce
dalmatia
reelection
weighing
kwun
mammalian
ecosystems
bennett
nigel
cbbc
surprising
pixels
subscription
counterparts
tolerance
bryant
electorate
fulfill
psyched
##imetres
##worms
zurzach
adulthood
persecution
shorth
welldefined
bunker
spurgeon
descriptions
neurons
prostitution
pilgrimage
metabol
shogunate
##gressional
##first
compromise
immortal
sesame
botswana
paraguay
peshawar
overwhelming
reincarnation
kannada
##guerite
siddons
hippopotamus
ptolemy
rhinelandpalat
jinnah
presumably
eleanor
nagornokarab
hammersmith
overijssel
nchez
##northeast
iucn
rhinelandpalatinate
nagornokarabakh
80000
boc
dost
dend
dwell
daddy
ery
ebert
fond
foul
gong
hi
hoy
iphone
joke
kut
kau
lill
lund
luna
lening
nipp
nongo
piv
pach
pile
qatar
silt
tets
tucker
v10
wu
wight
xf
yog
##uine
##lav
##lley
##nius
##oct
##hou
##rient
##rila
##cal
##may
##post
##zes
##51
##jon
##fest
inverness
##alle
toledo
##ionale
##states
staged
onetime
##access
##irish
alike
alchem
##imid
##cea
##ande
beast
##chuk
##ulator
ort
chil
chival
congressional
uncovered
##umines
proclamation
seism
usern
enabling
##abo
##icht
nephth
printers
ars
arises
spc
spill
##ortions
leve
##ghini
##ogical
##ibb
compuls
##club
##assa
##ouss
##ikal
serf
##angs
regis
colbert
resides
induced
##weather
carom
phag
overcome
lars
poppy
speciation
specification
consent
drac
##azaki
warcraft
quin
chartered
miners
buying
acro
crewe
relied
verac
alban
161
1660
grouping
##obacco
airs
##incourt
inverse
##ussia
glaston
elastic
harmonic
##ucha
helper
basel
##ceptible
antigen
magistr
myr
demise
consideration
sonatas
downstream
delight
catching
racer
22nd
coloring
handful
competes
matching
goodbye
microp
micror
##hya
morality
cameo
raiders
prevents
snap
camille
insom
##afts
researcher
symantec
macbook
birch
##comb
aqua
torque
##ophila
##ieces
prediction
timp
treatments
madras
gradient
dominate
trolley
eyre
consistency
##harmon
analogy
darling
failing
boyd
escort
walton
commitment
contracted
ethanol
accounting
journalists
elemental
cartoons
cosimo
odor
nicar
chaos
promises
fantastic
jacqu
ellington
selft
namur
preparations
gerhard
polypl
1900s
##isenach
bolshevik
reflection
repeat
comparing
ignor
eliminate
grasses
imagery
kuiper
vertices
firmly
precedence
circumference
natron
heirs
##points
dumbo
tokushima
theodor
deutsch
bugs
patriots
flavored
mentor
##product
ceded
dmz
podium
steinitz
mariners
bamboo
upright
ichthy
allegations
pilgrims
jurisdictions
inferior
helmut
dwight
siberian
feminist
taoiseach
rabat
lepid
hastings
microformat
pereira
pushing
indirectly
dorsal
antitobacco
gondwana
facilitate
chimpanze
spherical
deportivo
joystick
vauxhall
bankruptcy
unemployment
ordinance
nidwalden
righthanded
invertebrates
werner
hibern
hanseatic
zwickau
leisure
nonmuslim
ecumenical
autotune
igneous
spaghetti
sapporo
leningrad
nongovern
nephthys
glastonbury
chimpanzees
bale
caches
dand
faw
gould
gior
henn
hof
kai
kyn
kolk
kuala
lid
lips
nolan
pim
pomer
rens
roland
tina
tender
wals
witt
##try
##iott
##eit
##had
##hound
##halt
##hills
##rik
##cube
##pol
##path
##kt
##kan
##jour
##jack
##80s
##onite
##atops
##atoo
##atisation
##enet
##alon
##alist
##oug
toad
stag
stole
stellar
onward
oneth
##otus
##ivist
##ivore
##owitz
##imov
##imoto
##emin
##unner
chances
unlimited
##avis
##avinsky
##apur
##odd
ender
spat
##ifiers
exchanged
shake
commas
brawl
##ellery
##seven
##quist
afrika
grieg
##ibe
##iban
compart
##urea
##iret
foley
recl
recall
colder
##achal
centred
feist
roost
carac
perl
mayo
coil
coaster
##ailing
##lesbury
departmental
decree
maize
outs
providers
##atham
pollin
##ancock
preset
##inted
poetic
charizard
stravinsky
belize
assert
repos
reporters
crete
guern
guided
1534
emus
emissions
albeit
lateral
1612
interl
longrunning
origami
medina
crass
juven
slang
sliding
##ieta
redwall
marching
elm
##aev
137
portia
designing
stargate
basins
baseman
##oyan
skinner
solved
shortcut
anta
steals
jeane
traders
patches
bering
courage
2200
confined
specialists
##linary
multimedia
castro
limbs
infancy
purport
clever
damaging
halluc
cebu
sunny
insign
mcall
##affe
ballot
haug
haitian
horr
constituted
banker
franck
peta
figur
identifier
microb
curry
1830s
rainbands
hoover
dominic
probst
##ckx
colonists
colonization
fleece
auditor
improv
escapes
paralle
miracle
neglect
utop
conception
custody
ratified
permits
cubs
dynasties
axel
ambitious
installations
arthropods
psychologist
sweat
koz
koji
incorporates
twentyfive
elliott
bronx
delivering
frogs
giul
trait
375
touched
falcon
sells
arcs
locked
1764
conditioning
kerry
apparatus
brooks
teenagers
owing
pavia
##feldt
anchorage
iraqi
dramatically
float
physicians
pasadena
deposited
cinder
jenny
witchcraft
struggles
##lemagne
cockatoo
dumas
accurately
transcend
livorno
rigid
apostolic
cayman
germanicus
lenses
##words
deemster
##ubbies
gearbox
supersc
compressor
tornadoes
fertility
graduates
athenian
enthusiasm
atheism
marquis
comfortable
paleontologist
censorship
hormone
syndicated
##opolitan
incorrectly
lgbt
prelude
lifespan
confirmation
metaphor
iberian
teletubbies
drowning
adjective
toscanini
elegant
bianca
confidential
ketchup
cellulose
awakening
intervals
beginnings
synagogue
nectar
inappropriate
saintdenis
maneuver
presbyterian
hispaniola
enterprises
enzymes
ecclesiastical
mersenne
parmig
preliminary
pakhtunkhwa
wistert
trieste
incumbent
panhandle
psychedelic
microraptor
nongovernmental
onethird
bould
bordeaux
dop
dhar
ein
epping
gf
gabor
hib
hild
iwa
jing
lio
lange
mere
mitch
mbar
rg
rach
rko
sip
sark
sectors
turing
ua
vl
vents
vhs
veto
wies
zof
##tus
##lang
##gender
##great
##growing
##oob
##hin
##hot
##hay
##hies
##hoe
##rs
##mons
##pc
##zel
##ythe
##900
##82
##84
##erg
##anmar
##enb
##alas
##itri
##ingue
##reet
isis
isabel
##leas
##roix
##ecess
stack
##olles
oned
##urf
asex
##aying
##ayashi
alam
##emus
##andom
##andra
##chak
##chio
##uns
##heres
##allo
##avin
pluck
enix
##aky
neville
spani
##ifers
shig
shades
##usted
notability
marques
norwood
abalone
abortions
##perm
twop
twost
allmusic
regulate
deposed
gob
##igna
reside
indo
indented
##week
rox
pept
##enses
boiled
coleman
evident
blur
blogs
aging
##ugu
desirable
decid
overture
overnight
teammate
outline
outlets
conserved
drains
amon
amir
minh
##forming
singh
calabria
maturity
reply
guys
guadel
relay
1513
albu
albans
##ypes
1680
12000
filaments
craters
##itsu
sliced
##ietta
bandico
geother
##veau
surg
este
nowhere
backs
moe
versace
skilled
expos
expired
steward
myanmar
persona
241
2400
berl
bertha
successors
seaweed
republics
detection
227
statute
##ographies
##hampton
halley
##beek
##vester
burrow
##working
debates
debby
veins
sala
saline
disciple
29th
sniper
nonmet
croats
menuh
nightmare
diagon
##umbach
insight
introduces
##tox
##afe
malicious
robots
textbook
pressing
ballad
symbolic
horace
##verse
recognizing
recognizable
courtney
identifying
privy
curtain
grooming
##zek
practicing
logs
suggestions
##garh
doncaster
gaa
effectiveness
chooses
##edias
domes
domitian
##irov
##heads
naruto
seminary
darker
conservatives
panels
##attia
failures
##olfo
muri
saxelau
ilmor
juniors
safari
conceptual
emerge
ethics
provincia
hubert
precious
spokane
clearance
tyne
irony
determin
##viol
earnings
congressman
diesele
trophies
commanding
krumbach
cocaine
qualification
guardians
senses
buddy
climbed
trajan
mutiny
rugged
avoiding
repeating
braun
sorcha
supplier
##hetical
eclips
umayy
rejection
imagine
pavl
ferns
bosons
challenging
hanged
submission
saddle
sendai
licensor
kurdish
consultants
herbivorous
swords
lobsters
navigable
klaus
hippoly
sylvia
langston
yeh
reunited
extraction
hackney
ornamental
rhodesia
beetle
moody
transpos
hiroshi
vilnius
eukaryotes
puppet
peasant
horton
nouns
scandinavia
euclid
algebraic
##modern
cascade
fermat
potatoes
indycar
inscription
fellowship
tolkien
pigeon
mourning
pneumonia
mistakenly
ursula
energet
antisem
clarkson
nutrition
coordinated
aggregate
schubert
enlisted
reparations
amritsar
corridor
biomass
largescale
fukuoka
crucifix
kyneton
##ecessary
menuhin
saxelauenburg
dieselelectric
480
550
70000
bork
bunn
dv
eternal
fet
fals
fibr
fisc
fishes
fidel
gle
gug
gads
gaga
hancock
icc
jem
kia
kik
koda
loll
lup
m1
mous
mord
nme
oth
pess
pike
raph
rhet
saus
sikh
vh
vere
vishn
xml
yemen
zap
##bou
##gins
##hun
##hog
##rans
##cra
##mic
##mass
##kal
##kim
##kop
##wyn
##400
##jani
##fenburg
##finger
##hears
##hetic
thess
##orum
ingest
inscriptions
##enham
##arc
##itty
token
##omys
##entown
##amel
##amaz
stip
##oluble
##iru
reyn
alz
alley
##imat
##unas
whal
whitt
##ulative
##ulco
##ulatory
chu
chung
chairs
##estock
unve
uniqu
##arty
##aints
##ainted
##apulco
##icha
arter
arches
lease
shon
##ounded
comma
##soa
##iele
##ongs
##sept
clair
grapes
marvin
marguerite
nora
comput
##outheast
##ango
coli
##achia
para
roque
disruption
carme
mayn
evelyn
theremin
worlda
bliss
##aways
deciding
weights
overground
southwark
upn
upwards
polls
polym
consc
wario
poit
amn
noah
charm
charlemagne
acapulco
asserted
guang
122
interim
transf
transactions
cress
##incy
slides
ims
cheer
cheet
followup
additions
riverina
invariant
surin
persisted
landlocked
valve
##engo
moy
##lingua
helens
250000
skyl
##branded
capitalization
exponent
villers
blackburn
refusing
leftwing
dajab
delic
hymen
characterised
frege
config
caec
careers
saintj
palaces
golds
270
burrows
280
limb
raids
derive
erie
erda
freeway
satyr
cleans
snails
lowell
naturalized
affir
textual
textbooks
balloons
plantations
tener
##monary
maternal
halfbrother
aquarium
##ophiles
timeline
privacy
microsc
logging
rainy
bali
violation
navarre
premium
dominica
choices
benet
cabo
laying
lucerne
subjected
darm
examine
##enthal
challenger
pleased
turkic
rosario
nominal
jesuit
exploring
deepest
observing
mupp
lifelong
pilate
cartil
barbar
concentrations
seventy
cowra
pathogens
spreads
customary
charlot
##breaker
suspicious
lacking
ramsey
investigate
mutations
aspir
paired
brightest
exclusion
1609
##paul
tehsils
pigments
eliminating
##iyya
clocks
advantages
rebuild
anaer
quartets
horsesh
carpenter
kalan
downloads
negotiate
shoots
1648
dickinson
##uyuki
powdered
scouting
gifted
analogous
livestock
mendel
viktor
suzuka
neighborhoods
unnecessary
germanspeaking
venezuelan
wonderful
karting
reptile
##human
humorous
sanctuary
shawnee
ebay
myself
galilee
##design
nursery
supervision
mackenz
photosynthesis
nemat
wikilinks
sustainable
subscrib
palatine
laufenburg
culminating
evaluation
squirrels
microformats
nathaniel
shangrila
extrater
perihelion
appendix
saxewe
nudity
inertia
disqualification
compensation
disposable
dfv
sisley
bombardier
interfered
cherubino
jellyfish
eilenburg
zakarp
moderately
antoine
contraception
catastrophic
lumpur
mirrors
derek
practitioners
mardan
desperate
hotspur
unhappy
cruiserweight
alumni
crosby
microorganisms
odonnell
spielberg
appreciated
longitudinal
timbaland
nexus
agripp
welcomed
resemblance
timpani
auditorium
9000
cen
cuck
dect
dana
ei
fade
foli
gop
gili
hw
hare
halt
hald
jut
kipp
kano
lyr
mh
omar
pree
pins
porter
rue
ranc
rca
rsa
rushed
td
tach
vag
vick
vitt
wifi
willem
yus
zir
##uaries
##base
##ioc
##dan
##dia
##giving
##gesh
##rath
##rude
##cers
##matic
##pu
##pes
##pieces
##zio
##wat
##xi
##ferm
##hee
theob
##inqu
##inational
inlet
##atric
##enko
##arf
##omia
##enta
##ameral
##ilians
##ecom
sturt
##olus
##otine
fries
##ighed
beag
##church
##chner
##chwil
##utical
##unch
##ulas
##herst
chie
chalk
chatt
unanim
##aval
plank
##iances
enharmonic
nevis
arous
trends
leukem
shout
commuters
bronta
##onged
##quel
grig
##ogene
marz
##clock
adequ
##uca
knitting
alla
##ordinary
depiction
##rae
disrupt
carbo
perd
mayors
evap
##uges
genuine
pha
phlo
##ildo
outsk
nationals
##athing
amherst
queries
minot
##formation
strata
whereby
matth
reputed
##iero
1536
islander
geologist
setup
octavian
##veloped
armaged
barns
valois
eli
elgin
portfol
corv
corrupt
angios
sketch
solst
solving
soluble
##airb
##sha
parkes
younha
sonny
patented
bergen
refusal
##aughan
successes
kei
courthouse
superf
supervis
freeman
216
postseason
exploit
communism
saintc
##echnic
godfather
summon
27th
primetime
oppose
discount
eris
clement
richter
inserted
1870s
mcint
mcgu
punta
pressed
viewer
testimony
baud
individually
petr
petron
##ocratic
##ophores
astur
hover
flagler
susceptible
##loride
chiefly
##trans
ranged
routine
semin
conservatoire
reactors
josef
bacon
webb
magnific
celebrating
raises
pitches
##standard
iconic
actionadventure
contraction
cathedrals
opted
attracts
ambush
tsub
##blue
employee
granting
medalist
settling
antoninus
rubinstein
kohl
flatten
continuity
sufficiently
watershed
dedication
chloropl
##raints
64bit
dalton
lynx
browsing
transmit
1762
spotted
caesium
hanna
brainin
pioneered
sabah
scenery
owl
aerodynam
extraordinary
sioux
advisories
hidal
ultratop
vertex
vertebra
oriented
niels
anatolia
forecasts
forecasters
essayist
doctrines
nesting
biden
commemorative
claire
pistons
ritter
substantially
scholarly
##lieuten
cosmopolitan
dromaeosaurus
spacetime
proxies
seaside
cerebral
mysore
epidemic
cypress
weighs
militant
crystalline
octopuses
hortons
swinging
marxist
decryption
cranbourne
venomous
tetra
listeners
nautilus
aphrod
protectorate
maccabi
inscribed
tuscan
frisian
coventry
enthusiasts
ceramic
ceramics
vortis
guidance
caledonian
nissan
coyotes
grinding
yukon
semitone
enacted
deflagr
eucalyptus
sabbath
##texts
semiaut
caterpillar
drosophila
sophisticated
bonsai
baxter
adjoining
quarterfinals
nupedia
smithsonian
deciduous
guadeloupe
gadsden
cheetah
tenerife
darmstadt
charlottenburg
mackenzie
zakarpattia
chieft
outskirts
0n
bree
bite
cots
dach
faint
gcm
hg
hap
hilly
hogan
kis
kite
kup
kush
koch
lapt
lua
lami
mow
malth
niece
oke
rolf
samp
sames
silla
sds
tard
tau
tux
tensions
teddy
uc
wade
xy
yuki
zod
##tailed
##lob
##lasm
##southeast
##aire
##range
##cur
##vier
##kov
##jid
##fre
##funct
##filled
##83
##oras
inactive
##atro
##enbaum
##aray
##around
anita
##icum
##icates
isma
toph
##omat
##omeneo
##leader
##enthe
##amom
##acio
##aday
##idan
rei
fringe
alarm
##emont
##thms
##usen
##chwitz
##uti
##ulam
orion
hepat
##agang
##aggio
conan
conclus
unse
##aines
thatcher
##ophe
prokof
plc
##odus
##abs
##ichiro
aruba
spree
##illers
trim
trous
exotic
shines
##asta
brus
brenn
clues
##endi
grains
##ogly
18000
abn
cannon
canvas
##oks
##ermost
twinkle
allison
allstars
##plan
reck
recycl
foothills
fles
fees
peel
twoyear
boa
##ffin
weighed
##auss
14000
outlook
upstream
polis
polgar
##azionale
edison
##ahan
##ahont
famine
capability
subpage
minsk
artillery
strongh
1766
1713
bellev
thriller
germanborn
repaired
1520
vern
1666
retreated
transd
medley
meditation
crisp
internally
imaging
incent
##aira
opel
euros
armored
filmmaker
eastwest
##inny
landmarks
els
elena
elbow
australasia
harps
idomeneo
13000
lineage
designate
titans
mid200
angola
256
protested
antelope
legitim
stewards
animator
##bois
eccl
periodically
delbra
coptic
##ungen
238
228
halves
multinational
handball
motiv
duel
vega
heaviest
silv
biographer
lowlevel
damon
api
##rington
richards
olympia
diat
diode
hitt
collectors
mcil
##taic
pressures
balloon
haj
bayern
##haa
melville
parlor
badger
##ophon
textil
curves
gali
sami
samana
wilmington
pastoral
digging
kindle
ringo
##cault
judy
translator
benz
frankenstein
charting
modeled
reacted
saxeg
talagang
rosal
rods
investments
containers
utter
azula
foreigners
reviewer
bernhard
fcw
determines
1774
taxa
taxation
rotational
tsuen
ivy
riverside
frederic
koh
ashore
incorporate
eliza
##glom
dolores
##eddie
heroic
ella
ipod
climax
365
bolton
columnist
hanami
pulp
pulmonary
rhythms
thicker
minimize
lamarck
inputs
hypert
decorations
seeded
levant
levine
experimentation
bucket
##hammed
yankee
sorted
airbus
kissing
sightings
gonza
enforce
1662
interpretations
kurd
exceptionally
herbaceous
poisoned
bromine
terrorism
ferdinando
vikings
absolutely
hermione
proportions
mid1980s
cosmic
kreis
morphy
commodity
refugee
patronage
delegation
vinick
advocacy
anthropology
dalek
myspace
chopsticks
tactical
leopard
henrik
ligue
sakura
prophets
prosecution
aurora
disagreement
complementary
corpus
memoirs
staples
pouch
scratch
jabiru
acknowledged
bohemia
skeletal
fukushima
joule
liturgical
uplo
vysoa
pocahont
disguised
python
walthamstow
assyrian
codenamed
reconstructed
arachn
reminis
executives
rebecca
pompeii
micronesia
cactus
congestion
mccarthy
selfgoverning
kojiki
redundant
bowser
magnesium
camellia
nicaragua
feistel
mcallister
bandicoot
fiscal
dajaba
lyrical
hidalgo
lamiaceae
saxegotha
pocahontas
0e
cia
cody
coven
dorn
erod
ganz
gellar
gaius
hicks
ionian
jens
jays
jenna
kop
kung
lj
lied
mash
nell
nomen
nails
peck
rall
rale
rapt
sd
siv
sins
tian
tint
uter
vu
vall
viss
zac
zee
zeros
##uably
##ioms
##lis
##lau
##distance
##say
##nem
##oce
##hurst
##cape
##mm
##moor
##pet
##pike
##yards
##kaya
##wife
##jiang
##far
##heit
thee
thesp
##erting
##inous
##instr
##onten
##anum
##orah
##edes
##itivity
##asium
andr
islington
toch
##lein
##leep
##lements
##entz
##amu
##ampt
##amins
##static
thym
##econt
##oler
##olumb
wasp
##aci
##adi
asymmet
##iron
##owo
reall
rehears
rebranded
fram
##igata
bei
##unya
##osuke
##very
##oco
sued
enrique
##akin
##illus
triv
trich
trails
braces
##seau
clare
grac
mariana
##ialbum
##cler
abi
partis
##rico
adri
##izers
newt
sciss
contex
regards
recital
hertha
heresy
yearround
northampton
flakes
roh
disrupted
peac
peers
carmen
peroxide
##ruz
agnes
agenda
php
muscular
weas
weiz
greene
monts
143
outl
outflow
upgr
polly
quiz
##ermann
charco
schle
subgroup
burb
strife
1745
acre
impaired
matsu
##inski
defunct
enduring
endocr
chees
##otherapy
incub
seth
norte
glorious
harrow
soci
11000
##ulla
humbold
252
skins
shortest
didger
exposition
maggie
cyc
paolo
berries
refined
speedy
supermarket
autism
irre
irrit
viacom
postn
caud
visually
colorless
accordingly
lett
palms
biographical
purge
##geny
realistic
economies
henley
malawi
malibu
proposition
arguably
oxides
radiohead
linen
hillery
liadan
louisville
parliaments
francisc
activated
petit
karen
messiah
##ijah
actresses
oswald
declare
achilles
lordlieuten
analyst
murd
luiz
##bourg
boyfriend
deadliest
##holders
splash
escaping
removes
cookie
winged
observers
35000
embarr
tagged
accounted
reviewed
reviewers
axe
taxi
savage
teleph
packs
islamabad
##islav
tropic
mccle
tempore
swept
vaud
miso
spectral
suspic
namco
clarified
clarisse
gerard
ruined
hartman
ramesses
questioning
sensation
hyphen
financially
rugrats
brightly
welch
liquor
initials
orthodoxy
catalog
##aloosa
1765
assumption
##oppy
saturated
nonex
kinder
disappro
declaring
granada
sherman
immigrant
siena
anchov
confederacy
dramas
zoological
##electric
niagara
niigata
treasures
1744
consulting
laurence
mongolian
exercises
dhaka
guerrilla
cartoonist
davey
bakerloo
piston
accelerated
sapph
##rophys
bleeding
randomly
morphology
disappearance
gymnasium
woolwich
maltese
advocates
mannheim
balkline
yields
satisfied
melodies
redirects
alkaline
atheist
acknowledge
bulletin
excludes
ayrton
hispania
fatalities
nouveau
rodrigo
lexington
privilege
inauguration
cigarettes
congregation
dawson
biochemistry
gujarat
##elihood
eduardo
deterior
gagarin
exterior
endeavour
rufus
##hungary
blossom
##bearing
cowritten
transliterated
adminship
kreuzlingen
skyscraper
frauen
tastes
supremacy
haupt
lashley
discrimination
embarked
rhinoceros
submerged
atlantis
chivalry
username
jacqueline
insignia
surgical
carbohydr
evaporation
armageddon
asturias
prokofiev
contexts
charcoal
humboldt
2d
ait
cider
cove
dive
dilation
fang
gis
h1
hott
jokes
kc
ket
kats
kyr
lus
lian
lix
linsp
morm
muk
monde
moul
nm
nub
ode
pott
pesc
pallas
rzburg
sion
sall
tae
tides
tara
taka
ure
vom
woll
zig
##uhiro
##bh
##bels
##iis
##lat
##eon
##dad
##gone
##nett
##hart
##mul
##zac
##yre
##yah
##vic
##villes
##59
##jillo
##anabe
##enbo
##enues
##arne
##altenburg
##itius
##ommer
##omede
##lec
##elim
##elines
thur
##econds
stodd
##olor
##acchar
##oting
##otechn
##idade
##owl
rex
alison
##emens
##ths
byrd
##ulous
hepha
chihu
##osha
ung
ata
##aviolet
seville
##bergh
##ipur
##akura
neoc
archet
spic
spare
##iferation
tray
tracy
trunks
trillion
##arde
exodus
shizu
##sef
notre
##owner
marches
complim
##assed
canine
adol
##ondyne
scro
twe
twain
regier
regained
goa
goeb
##ignano
flaming
discl
foundry
##ropy
carb
carla
##ensional
##rito
coher
coop
appo
syriac
locus
nationalism
##athlon
##ancies
drained
edith
quincy
##fta
undergoing
1724
##apanese
saul
calm
assim
mainz
guess
##upon
150000
##iously
##uctions
##yses
rememb
modena
transaction
transgender
##ontaine
airlin
airplay
internazionale
slate
imam
incons
histories
invite
surfer
barred
barenbo
##keeping
loading
glove
elk
everest
##angui
134
moondyne
starter
##otta
revive
corros
##aintree
angus
standings
##berto
shortstop
##uckles
busch
markers
jef
batch
305
campo
paula
radial
patents
beryl
refurb
westernmost
builders
##pora
wikis
keystream
posters
postmodern
replies
lightly
##linear
##links
handel
unionist
matcha
letting
palin
microph
duff
duval
administer
burundi
devonian
veg
dera
northwestward
sato
satirical
needles
nonn
nonc
nonviol
apex
encoded
criter
watanabe
##ognized
##took
renaming
propulsion
socialism
educator
##apsids
brandy
angelo
jackets
micros
synonymous
fortran
galicia
santana
madonna
samurai
practically
abbot
karp
premature
selective
judd
probable
ranger
diffusion
semi
seminal
cabbage
luca
lucie
responses
laden
gardner
treehouse
mirpur
investiture
rebel
masterpiece
electrification
converting
precolumb
concertos
astronaut
committees
##backer
ie6
ie7
foxes
picking
dealer
employer
earnhardt
installing
discussing
carlisle
hoping
1785
cocre
austriahungary
twentyone
taller
##zzeck
apartheid
definitive
suffers
broncos
elders
dimensional
fixes
ruhr
giacom
##ihad
mesa
brightness
##conn
mercur
trusts
seller
kashmiri
1769
##oslav
geneticist
tramways
abdullah
grassland
hypercube
makuta
fabian
bhopal
vicinity
vertically
fernand
mortality
matthews
archaeology
ultraviolet
physicists
pantheon
revolutions
instantly
gonna
##feated
pontiac
wozzeck
rc4
sylvester
##doors
horizontally
pistol
illnesses
keyboardist
commodore
##ophyll
multiplayer
grenada
strategies
javier
dartmouth
eurasian
dioclet
moldova
parasitic
pikmin
kathleen
furbies
azerbaijani
supervised
##liked
##othea
sympathetic
antibodies
plaque
kumamoto
aflat
marcelo
linnaeus
falkland
uganda
riviera
farewell
accumulated
cigarette
dorset
floresiensis
undefeated
nicolay
carcin
daisy
dougherty
reluctant
mucus
skipper
fyodor
stamford
fierce
sassanid
mcclane
allahyar
coproduced
wavelengths
##uccini
cylinders
dortmund
bragg
condensed
pygmy
tellurium
lopez
twotime
hypothetical
scottsdale
aluminum
merchandise
prejudice
neanderthal
tragedies
appalachian
compulsory
baleen
giorgio
transcendental
bunny
microscope
leukemia
phloem
malthus
transduction
mcilrath
textiles
tochigi
linspire
chihuahua
shizuoka
barenboim
precolumbian
giacomo
610
7000
aung
bangui
cag
domen
dental
fult
fission
goul
gears
hos
hides
iau
igu
kah
lla
leroy
mce
mith
mua
nested
ome
oda
pey
pau
rites
riga
v12
vulture
vaughan
wiz
womb
wires
woven
xavier
yoy
yuri
zy
zer
##bop
##bies
##bron
##baden
##tit
##tag
##ded
##sz
##nese
##holic
##rance
##rise
##russian
##cence
##cats
##mere
##moving
##pont
##wand
##watch
##61
##japanese
##fi
##food
##faced
##89
##eras
##onation
##anic
##orth
##edin
##edalus
ineff
##atos
##alc
##alley
##itung
##asaurus
##icating
##omar
##leaf
##ento
thinner
##roa
##rok
##ecord
##eterm
stade
stair
stony
stalk
stiff
##olini
##acs
##acrit
##adt
ith
##tera
reid
reestablished
frater
freddie
alv
alain
alask
##igate
##andah
bez
##chief
##utory
##unknown
hears
chis
##agnes
##estown
##osomes
##umo
seap
seiz
##esse
##iphaa
suits
ney
spit
spans
shap
shrew
##osta
brains
bricks
##aryn
##oured
##sein
##endous
##ogo
##ibald
marche
marriages
##acker
sergio
allse
regret
registry
recorder
##orman
hern
goomba
flax
flask
flinders
feels
shed
carrie
carriers
##hedron
##actor
boise
joints
##icked
smythe
amalt
##ahi
charitable
2015
capp
schiff
subclass
minis
##formed
stressed
1728
brod
finch
simmons
accent
emerson
laos
162
1675
retract
highspeed
slug
chenab
incidents
extras
glans
governmental
socially
moines
litt
huron
treating
imports
windward
##bruck
magdal
myers
##resses
teresa
campeche
trades
sonora
patro
merkel
daedalus
courty
superimp
equity
wiktion
florent
##ippe
restoring
specializing
advocated
##ylon
265
1000000
turnpike
humanities
burden
pageant
snoop
nonm
encoding
cambrid
ballmer
haut
networking
stadiums
bafta
deny
hillary
fergus
petals
executing
curie
averaged
madden
taunton
nucleic
##borghini
davidson
bala
ballets
mixes
licinius
citadel
##cauc
translate
401
spirals
charted
hereford
photovol
cardamom
examiner
accepting
saxophone
threec
metropolis
esas
juniper
rodolfo
stockport
kilometre
ranford
waist
muz
bernie
commissioners
inspection
personalities
mandate
napalm
mmx
definitely
ipa
barta
sensors
hornets
turbo
bedfordshire
climatic
setsuna
##chenbach
correspondent
##999
jurist
succeeding
touches
illustrates
fashionable
baltistan
##implewikipedia
catalunya
mysteries
encyclopedic
neutron
sediments
umbre
1754
targeting
vitellius
vitamins
shutouts
lamborghini
abdicated
##frame
bridget
reciproc
##asmus
knighted
paved
libel
pulling
rhythmic
ascension
ascribed
pasiphaa
sticky
cousins
1748
ricky
certification
scrut
announcing
ninety
substituted
witnesses
gladman
sicilian
dwarfs
mid19th
easterly
exported
brackish
ponte
hiram
olivia
prohibition
diagnosis
intentional
csupa
tilke
##scopy
iroh
trujillo
laksa
manipulation
engraved
puzzles
fascist
funnel
gambling
barracks
pancakes
himalayas
prosperity
prosperous
isotope
ajax
miniature
pencils
recommendation
s2004
zhob
follicle
psychiatric
reversed
lentils
searches
posthumous
hormones
authentication
retrieve
evaluated
lcb
cruelty
ullrich
valentine
duplicate
ehime
advancement
marsupials
pigeons
concludes
kubica
kofu
epitaph
redevelopment
skeletons
troubled
sikkim
extermin
##anganate
wessex
geys
warranty
##oideae
amalgam
cusco
yamagata
schneider
sponges
##pecific
serenity
indefinitely
middlesex
reconciliation
swabia
hedgehog
conjugation
pamph
subordinate
gertrude
anxiety
humphrey
rectangular
##clinux
eusocial
uzbekistan
imprint
httpsimplewikipedia
afrikaans
repository
cinderella
parmigiana
gaborone
zofingen
geothermal
umayyad
whalers
whittier
unveiled
horseshoe
##geshire
samesex
zodiac
##instrument
reallife
karpov
wiktionary
cambridgeshire
0000
aik
bola
banco
csu
cumberland
dash
dining
eager
fue
feld
fonda
gently
glyn
h2
hank
hailed
joc
jared
jima
jtw
kok
kry
kbe
lol
lans
laus
mest
mapping
ning
nere
nok
nue
pue
pint
piers
pods
rr
sork
sina
tore
taw
ttingen
uh
wot
zug
##ugh
##tod
##lene
##ohs
##hower
##code
##makers
##pi
##pul
##yama
##53
##foy
##frey
##hecom
thel
##aten
##enauge
##arotti
##itives
andro
andhra
##reich
##republ
isla
togo
##step
##ecd
sts
stint
forks
forts
##olu
##olome
ascle
##owulf
reiss
alves
alias
alqa
##than
beowulf
##ithne
##ulators
hebr
chl
ching
chaper
##estus
unpar
unused
unchanged
##allga
deeds
ats
##opters
##opolis
##ococ
pli
plots
sele
useless
suez
suwaa
prer
arenas
trit
trance
##arden
leib
##lde
##qui
##quis
grat
grief
manx
parthen
allamerican
alloys
allentown
intimate
##angers
##plant
##aterin
parrots
northsouth
northampt
flank
disast
disclaim
##ensburg
mea
boots
boole
coel
applying
evid
blizz
##awesi
##priv
monit
monitors
offenbach
pops
142
upward
##azzo
amni
ammun
quicks
201
##otho
minialbum
172
1720
1729
thrac
thrones
cale
calibr
##epers
mainbelt
guj
sima
159
veronica
relegated
albrecht
16000
1697
deficiency
intert
longdistance
obsole
operatic
landis
gliding
gloria
ela
portm
differentiate
openwheel
midwestern
breck
##henes
antagon
antibi
terida
romanov
demographic
jeop
concorde
radcliffe
patterson
refres
respir
delg
delux
copa
catches
auta
latv
irvine
farce
wikitext
racism
##preserved
replaces
##hemed
holborn
statutory
cafe
volvo
##bez
possesses
leto
castaway
duet
sumatra
devote
infinity
discs
discretion
eragon
silly
silurian
purcell
hallow
croix
olympian
diomede
340
takeover
harding
collects
realizing
ideals
hamlets
1840s
positioned
academics
##zaa
galician
gros
composing
domination
dominance
##ushu
domains
captures
analyses
lyell
reactor
appointments
beatrix
expresses
talents
bananas
rodgers
paralysis
emerald
forestry
azure
innate
viable
columbine
permian
tyrol
attracting
savannah
reasoning
employers
vendors
##marked
scholastic
kraka
tempo
johans
misunder
##zzle
necessity
rowing
quotient
instructed
##180
heroine
altar
piero
shrink
##addin
cassandra
traitor
dorothea
wittenberg
livery
conquests
progressively
alphabetically
cruithne
gamba
battling
goaltenders
preferences
conditional
hannabar
ventures
commanderinchief
1701
wheelchair
checked
waggle
##iyama
bathurst
parenthes
sebum
morton
decreasing
sharply
tunes
alfredo
migrated
diploma
hangul
sorting
ribe
sighting
hampden
muddy
kyi
claudia
databases
sulawesi
exercised
enclosure
eisenhower
telescopes
bugle
patriot
interchangeably
cumbria
valencian
rifles
macedonian
stimuli
corsican
sergeant
bastille
persuade
fluorine
nsw
waldo
cobb
obviously
paralympics
unofficially
gelderland
benton
lambda
assigns
marquess
paleontology
heathrow
yangon
ethiopian
recommendations
##accio
procedures
beaum
digestive
rodrigues
beaufort
monitoring
palatinate
martyrdom
##omorphic
ciud
aristocracy
intestinal
staple
tynwald
helicopter
robbins
ghanaian
thoroughly
rahman
arbitrary
eduard
passerine
polytechnic
gentlemen
threedimensional
conqueror
takahashi
ceasefire
tyrannosaurus
ambiguous
couture
guillermo
pomona
furtwa
relieve
plenty
carpathians
inflammation
oyster
priscilla
molluscs
lefthanded
##oskeleton
hitchcock
betrayal
etymology
cinnamon
juventus
tertiary
semiconductor
nawab
philanthropist
chiltern
nonmuslims
reclaim
guernsey
purported
##leasant
borkum
raphael
vishnu
extraterrestrial
solstice
cotsw
hepatitis
stronghold
vissel
frauenfeld
hephaestus
diocletian
ferguson
jtwc
sorkin
obsolete
antibiotic
teridax
deluxe
460
625
aided
awa
bai
bending
cker
etern
eau
eup
fitt
gour
gps
hons
hards
jen
jard
kro
kall
kale
kabul
lactic
oun
pid
posed
pinning
pension
pclinux
rf
rend
rhen
rih
riaa
sver
tern
tinct
taped
tatar
ump
vc
yonge
zeta
zyg
##bish
##bob
##tas
##tori
##iating
##lung
##dor
##sberg
##gage
##oep
##html
##river
##romet
##pas
##paper
##pole
##yuki
##kot
##kets
##wit
##58
##4000
##jing
##jord
##300
theres
##edra
##edah
##esque
ine
##atri
anus
anonym
##itans
andean
##omial
##leh
##left
##entre
##stit
##stant
##strip
##elux
##eco
stain
stoker
forwards
##olulu
ongar
aschenbach
itza
##idoo
##imus
##imental
##cho
##chart
##ounters
##unal
##ersen
wharf
##uld
##uline
chau
chai
##aghan
conway
##aller
##allic
proceeds
plo
##iak
seam
seah
##essa
enzo
##ichord
ararat
spand
##ifting
##orte
##ardia
exagger
shill
shining
##isham
##ellas
##ellate
playable
##seed
clad
##endel
##uban
gras
grip
grizz
##ibles
manu
##okie
##iker
knuckles
intrig
deposition
##plus
##pless
coler
roasted
mayweather
twofish
booh
coated
cobra
##ruit
##indrical
blanc
bluff
##ilev
##ugust
desmond
secession
phoe
monty
monza
##tenstein
1445
preached
preacher
ups
speculated
drenthe
warns
##intendent
amor
amen
##olla
##ollar
doom
208
##forms
171
thresh
matched
simulation
relates
1530
laa
instinct
##ysur
169
167
120000
1296
filippo
interconn
transylvania
##obia
##coe
crip
banding
octave
##unicod
rivera
eastman
professors
surreal
barber
barking
loops
valerie
gla
elf
elijah
constraints
everman
##engined
annals
announce
hara
131
##uchs
avian
avant
254
ordering
antif
frenchspeaking
expense
epistle
articulated
condoms
##amax
campania
merckx
meringue
hygie
superst
superfamily
helpful
raccoon
detached
saintandr
possessions
motifs
louvre
100th
connot
iceberg
silesia
honolulu
sidebys
biennial
cupid
cleared
damasc
episcop
##meg
encounters
##archit
behave
crossroads
namesake
believers
bayer
radioactivity
standardization
pett
peterson
minorities
frontal
huns
chinch
microarchit
curly
ulm
availability
willy
wilbur
karelia
olf
balanced
selecting
khurd
chichester
troodont
judas
judici
benelux
frankish
lottery
panj
photographed
garter
ladakh
##ropolis
magnum
babe
##igraphy
romulus
rodney
calculation
accessed
emeritus
stanisa
carboniferous
dissert
mythical
huber
60th
permanganate
axioms
savanna
ambition
papilion
favorites
barbuda
sprinter
tempest
##eckel
threatening
nicotine
prevention
##ridges
countered
narrower
nagoya
meso
mesozoic
controversies
dungeon
##carlo
pinfall
dialog
sellers
lyndon
cataly
catalyst
##antha
virtu
advertised
crowds
allegian
kerfeldt
1759
encouraging
nobleman
molly
jessel
konrad
andorra
scarborough
lionel
siemens
resembled
pianos
meteorology
ascended
pretops
ngler
cultivar
##party
taiwanese
oriente
crimson
criminals
sighted
downloaded
##warts
absorption
tienne
giancarlo
forecasting
rickey
jacobite
guyana
expeditions
anthems
##schule
enclave
oscill
tiebreaker
interfere
criticisms
explosives
mauritius
slavs
murrumb
alcoholic
marginal
thyroid
sebastia
delegate
bergman
anthropologist
validity
donaldson
##produced
ghosts
intellectuals
crusades
mobility
lazy
cortex
shunting
adjusted
peasants
enrollment
vibration
vowel
hexadec
derivatives
densely
nikolai
maccab
##ranged
reorganized
excavated
phylogenetic
parachute
tajik
apocry
screens
merseyside
acetyl
residences
tahiti
epidemi
boulogne
xiaobo
memorable
baghdad
jhang
jewelry
gouda
synthesized
##crossing
twentysix
landslide
invasive
parthian
hoffman
unpleasant
khalifa
marcellina
nijinsky
caldwell
necklace
seismic
veracruz
asexual
hippolyta
energetic
##kopf
reynolds
uniquely
maynard
suriname
foliage
portfolio
mcintyre
petronas
chloroplasts
aphrodite
hittite
adriatic
didgeridoo
stoddart
vegalta
yoyo
amalthea
umbrella
asclep
disastrous
boolean
monitored
respiratory
hannabarbera
ciudad
hygiea
sidebyside
damascus
judiciary
370
80s
950
aig
aude
aki
cade
csharp
dx
dsp
ere
eid
fum
fits
fives
fairb
gort
gona
hector
jans
kes
kod
kame
kant
kru
kha
kami
ls
mould
nome
nune
nibel
okin
oahu
pg
paz
pah
pash
puccini
rican
sok
sora
taur
vod
vila
xin
ying
yom
zel
zimmer
##upt
##uana
##lap
##due
##gre
##gars
##niz
##rino
##cost
##pard
##pie
##zai
##vc
##volution
##wen
##wel
##46
##qi
##jug
##jhl
##anj
##orian
##orks
##atius
##arse
ani
##ashers
##islam
##ouz
##ouis
##ingdon
##rem
##omal
##leod
##leading
##amination
##amari
##stage
##elis
thier
##eti
stance
fores
forrest
##uraya
##othed
##adle
##ayana
ito
revert
frit
allev
aladdin
##import
bebop
##utom
##unus
whip
bye
byproduct
##istically
como
unite
unfor
unpre
unrest
deities
##umann
atroc
##opus
##avy
##avings
prostate
sevens
##esson
usher
neop
prisons
spends
##illaries
leased
exceeds
shame
shiva
##ovan
braa
##onga
##merc
##mery
notredame
clav
clunes
##quality
manuc
##ptive
##ighting
cancell
##acking
##ucom
citystates
allosaurus
butch
##balls
##achment
centimeters
##acea
indul
indif
indoch
fewest
cara
perce
pericles
boyle
boasts
formulation
formulated
coeff
apprec
evils
blaz
aguil
distrito
genomes
musik
musket
greta
monophy
offline
overc
overland
southworth
149
upstate
quetz
noy
mined
buena
##elders
sai
thrush
calves
brooke
britney
##aisal
matric
guelders
##upac
157
lao
laver
1610
tempt
##obu
numberone
janet
##vex
obi
classed
##undle
##unders
invites
barons
barley
##flag
organelles
loads
valves
elbe
bestowed
waterfront
stark
angie
##gyz
##bringing
proto
antagonist
justify
entropy
cytop
##atorium
southerly
bushes
toplevel
batches
308
pax
progression
rada
refuse
##ammy
daxter
kew
##echobee
superunknown
superintendent
frees
faroe
2100
royalty
archim
postmaster
visc
halepa
##beater
totals
tottori
palo
##idgee
moray
sumer
histori
picasso
squam
biol
purdue
snack
sugars
nighting
311
sunni
sunflower
diagh
##umbers
affiliation
wallis
wallab
punnett
renoir
1850s
##esha
##eshaped
hait
haunted
alexis
firefly
espaa
objectives
turf
institut
##ofen
initiation
##ointed
homest
lookout
astrid
programmer
jewels
wilkes
methanol
hooke
##190
##1986
alternately
##valu
nobles
##write
governorate
costumes
##aski
rhyn
narita
##foret
modeling
convective
lucid
darius
darfur
garbage
##escence
webber
babchuk
debuting
dogg
hydroelectric
fairfax
utrecht
calculating
launching
accessories
##oea
##oevsky
bowie
admit
##olester
##illaume
perme
cubes
gallo
19thcentury
reasonably
papacy
flyby
fulda
employing
felipe
psycho
barbie
barbiro
chaired
vaj
cocos
mandarin
editorinchief
jonny
kimono
##glass
promising
sexuality
bottles
doubts
ramon
##ihan
counterweight
akk
nagri
bolt
contacts
contacted
waltzing
compliance
complaints
enjoys
baltoro
mistakes
dreamer
dreaming
##process
lyricist
segreg
ovary
ventforet
pears
ronnie
dietrich
entrances
dependencies
tuvalu
branched
accidental
##fran
checking
ryu
rye
owls
pavlov
pavarotti
conversions
baths
jessie
resembling
porcup
migratory
nutmeg
institutional
##garde
staats
brabham
1665
lauren
##uyu
skulls
emphasize
longe
fisheries
noticeable
gifu
neutrality
beverages
ripe
heavenly
soundtracks
gibbs
reunification
intensify
bleach
velociraptor
tanaka
beneficial
symmetrical
caucasian
exceeded
emoticon
fertilization
moroccan
clicking
temporal
kunar
kathy
unsuccessfully
dalmatian
ichihara
coincided
##itarianism
bentley
nottinghamshire
cheshire
cursor
pixel
cracking
##pierre
secrecy
triumvir
confronted
bartlett
glamorgan
hymns
cameroonian
dearborn
##iggins
spontaneously
incompat
niobe
doughnuts
##southwest
laurentiis
peso
caryn
helicopters
turbocharger
daisuke
kellogg
schmidt
fylde
gonzalo
nizam
chalced
amaranth
geyser
nilotic
corinthians
tunisia
poultry
##oidea
cambodia
##manship
sacrificed
cunning
tackle
filipino
daimyo
deinony
argyle
tnt
subcategories
baird
pledge
spongebob
clifton
bertrand
diaspora
discharge
valparaa
dostoevsky
pivot
spatial
superscalar
amnesty
anaerobic
tsuburaya
okeechobee
reminiscent
weizsa
kyrgyz
fulton
photovoltaic
httpsimplewikipediaorgwindexphptitlewikipediaautoed
lausanne
pueb
alqaeda
hebrides
##aterinburg
ammunition
portmante
halloween
parentheses
spandau
murrumbidgee
nuneaton
diaghilev
aq
bary
bilo
cau
ding
dab
derm
dai
danz
dye
ero
ect
epp
f3
fanny
gs
gia
gull
gaps
gills
giza
hing
hino
hoku
kb
kits
kato
koot
ler
lute
lds
nica
nden
natives
nieder
oph
ours
pith
pies
pect
pheas
pumps
ritch
tired
tars
tarn
uv
uf
uch
wn
wah
wiley
x37
yarn
zha
##bred
##iola
##lins
##eks
##direct
##dley
##goland
##nitz
##oin
##oort
##hah
##hops
##hole
##ranking
##cars
##cases
##mand
##mant
##mind
##yers
##vod
##kok
##wo
##wigh
##wala
##jana
##fm
##fif
##fits
theropod
##onal
##onium
##onnes
##anine
##orange
##esley
inacc
##atre
##atore
##atisf
##aret
##arine
##arna
anemia
##itous
##isal
##isers
##iche
##icas
andalus
##ouk
##ouard
##rek
toc
topp
toothed
##ioni
##omagna
##lea
##lej
##entin
##ambe
##amette
##stap
stup
forge
##adish
##advant
itf
reuse
fresco
alder
##iges
##imm
##usions
beware
##oung
##ersch
##istocene
withstand
##herr
##agos
##aggart
##estes
##osi
##oser
conject
unm
unac
unint
unrel
dea
##ummer
proclaim
seated
##odle
proms
aroma
ariel
arisen
spam
spiro
spores
##ifera
traw
exchang
shik
shank
shafts
##ovis
##ounding
##astically
##sohn
##sev
clint
##quia
##endon
##endor
teatro
affl
gravel
##ibati
manse
mariano
##clature
##pta
cana
newman
newcom
##ikawa
foo
##anson
##angled
##idea
regency
goj
##aceutical
northumberland
disadvant
shetland
caric
caring
caret
pertain
mayr
mei
mez
meals
engaging
boh
boar
bois
boone
boley
evapor
blows
blanche
agust
decent
mai
weed
weber
gret
monted
popes
outfit
outdoors
smiley
consuls
##azawa
edict
pointer
pointe
quang
charley
chariot
undercover
undergone
minnie
strands
wherein
sauces
howe
attic
impair
##epants
fined
swind
crem
relate
relics
152
153
emiliar
generators
##annel
weston
showers
cradle
##inck
incest
bandwidth
jana
geese
geophys
additive
1066
bookcrossing
leadbeater
barriers
vald
terminals
estud
elo
elam
##engine
harness
132
136
133
designations
##elssohn
midatlantic
litre
helgoland
headline
cores
trevor
yorker
##boys
villains
righteous
lawyers
marker
mucha
berwickshire
reflex
productive
merry
importantly
latitudes
##aura
lightweight
caution
microw
28th
lesson
livingston
honecker
bihar
illusion
##urban
apache
ego
##maid
critique
faq
##affar
punt
proponents
##oxy
ideological
censusdesign
ballpark
viewpoint
haa
melissa
objected
meaningful
holders
nickto
victorious
timmy
curv
averaging
abbado
logistics
pasta
messing
premises
sexy
choi
citations
distributing
##grounds
##trak
##writers
happening
semen
semitic
tarot
subjective
cardi
sawyer
luft
beatrice
pleistocene
essence
bounds
miramax
fairfield
##wski
bullets
forestle
stansted
yellowish
##alpur
ethical
rattle
julio
##anzee
masah
admits
geneal
1771
fulham
lester
malevich
salty
hussein
krish
sweeping
bodys
quantitative
kimber
crowns
maximus
maximilian
##ispa
confirming
continuum
instructor
sufferer
impacted
namib
gerry
bottled
ghulam
flightless
ensuing
4217
kashima
steelers
vela
striped
alexandrov
demonstrates
1602
shotgun
mahal
illustration
390
dunedin
rossini
oversees
arcades
lynton
lindsay
lovely
##prot
supremat
hannover
richest
kiribati
1755
kitty
supplying
coffin
oblasts
1656
scarl
adapter
meteorites
1689
##evoort
sindhi
##uvius
feudal
implications
defenders
powderfinger
kanata
kanagawa
edmunds
1553
worshipped
announcements
cockro
bunyan
transcribed
mendelssohn
linguistics
apostrop
hermes
suzer
1583
##purp
700000
gastropods
1547
gymnos
stimulation
slipper
128bit
capsicum
gateshead
migra
nebulae
tragic
quietly
thornton
athenians
diablo
pillars
compatibility
scorer
jakarta
##hofen
vibrations
tricky
vowels
##popular
havana
bredevoort
pharmac
pharmaceutical
divisors
ciara
shimizu
squirrel
phylogeny
binding
quotebox
##country
verdict
schumann
ausp
turbocharged
herodotus
carcass
##enkirchen
chimpanzee
breathing
potsdam
guideline
kellner
bohemian
cafiero
gottfried
caledonia
troubles
disposal
lubric
mcgill
tacitus
cylindrical
endorsed
backstage
zionist
greeted
discouraged
innsbruck
drifted
hectares
kulm
fermentation
netscape
schleswigh
wartime
runners
hovell
squarepants
wiener
tremendous
illuminated
gyps
wettin
prodigy
dracula
acrobat
haughey
utopia
nonmetropolitan
vh1
benetton
subscribers
perdita
deflagration
ismael
ecclestone
nomenclature
scissors
regierungs
goebbels
domenico
northamptonshire
blizzard
quicksand
latvian
pclinuxos
threshold
dissertation
asclepias
monophyletic
quetzal
portmanteau
inaccur
##staple
boleyn
montedio
emiliaromagna
censusdesignated
schleswighol
2n
aise
aida
bip
bif
bius
cain
ctype
diz
dared
ditalia
ee
eflat
fenn
gau
gauss
hia
jal
jag
joker
kox
kya
kalp
kli
ln
lal
lour
lorne
lumin
nz
nant
nike
nberg
pog
pough
pyl
rm
riz
raim
rpg
sage
sided
sama
tents
tama
uly
wage
wands
wigan
xmen
zag
##bay
##bok
##iand
##lach
##eur
##date
##dome
##god
##nian
##national
##note
##hang
##hru
##cly
##mies
##mile
##zia
##zza
##vii
##kers
##49
##x5
##fay
##hex
##height
##inridge
##onte
##onado
##orio
##oroo
inel
##itical
##icz
##repres
tosu
##ionage
##amar
##ilated
##stru
##elm
thq
##etailed
forc
##urved
##acl
##acca
asimov
##ivism
reprise
fray
##emi
##three
whisen
whipped
comte
hep
##again
##agra
##estre
##ctv
unmar
##umoto
sey
seine
severn
##apoo
##apelle
##odic
##essur
supr
nea
neuv
ara
spind
spouse
spells
spelt
##illac
hisher
triad
levent
lepor
shia
shannon
worry
bres
brake
brix
brakes
brute
##ghis
##geons
##usters
##merhaven
clans
clio
afflu
##oges
##ogaster
##oglob
##oughton
##clay
oneyear
abba
parttime
cannab
##dering
scuba
twoc
twitty
##ignon
##fera
fluct
floss
disob
carst
perch
twohour
meia
meiji
departed
bla
agost
aggression
securities
##tsch
soest
monmouth
1494
outlying
outlined
##ancing
edt
willamette
presumed
##ahara
qui
quark
schul
subtle
subvers
statehood
numeral
arturo
strad
1736
1731
acropolis
saab
calamba
swear
gui
1515
verdy
laon
themed
kingf
1619
1618
longstanding
##co3
##ribe
highlights
chec
incred
classroom
##unda
profess
profitable
invers
bara
barang
barker
barrels
perse
##floor
signifying
valor
constants
##aean
divas
divinity
wrapping
breach
##henburg
diddley
##shot
##shoot
powerpc
grandparents
mya
epist
romanesque
##inole
builtin
concurr
philharmon
prograde
borussia
berth
respects
downward
merrick
modernist
superman
farmed
simplex
##ipps
williamstown
culturally
micropa
morley
##bsd
goldberg
billions
humanist
engineered
limp
debts
raja
infring
prevailing
bias
potoroo
sno
drafts
federated
dijon
takeoff
storylines
##afar
renal
propose
sounding
sentiment
firebending
espa
espionage
horatio
macropus
branded
urine
ferries
francia
franchecom
activision
astrophys
etr
etrus
curric
weekday
groening
samar
tomas
naoki
olten
kilograms
ringing
siren
seminole
##harp
##marne
photographers
arabs
gardiner
examinations
facial
luisa
##steau
documentaries
##iliated
causeway
improper
connective
3500
branching
ethan
bonif
innermost
##imento
embank
##iningen
indication
##pref
rotter
rotated
packed
subtract
participant
bacteri
doctoral
katamari
odds
1781
threaten
pathogen
incorporation
jerseys
excit
miocene
twentytwo
##zzy
##duke
graphi
elliot
spectra
fixtures
bartolo
ruiz
legislatures
sensitivity
latterday
stephens
pedag
somali
mesnil
minds
cryptosystem
486
dunferm
##iatus
gametes
ravi
arcad
cousteau
sorcer
comparatively
voyages
1767
assumes
##colored
tabs
requesting
dependence
inclined
1751
travellers
tuff
recovering
vulgate
encourages
deputies
mako
fabaceae
konk
mortar
hubbard
simplicity
hansard
##evich
bournem
montev
feuds
mallory
kissed
spawn
sophocles
natasha
whitman
megaw
mailing
heiress
dickens
shiraz
inventions
libertarian
600000
##hawk
gaye
optionally
scrub
crockett
baronet
navigator
bromley
remarkably
trigon
dissipating
grossed
yeast
tyrrell
rupees
hobart
hobbes
prolonged
spyro
kicked
maidstone
quadr
merchants
##oplasm
switches
piazza
superseded
gwadar
marathi
lakers
inverted
pornographic
prestige
yuji
puppets
clinic
desserts
demolition
gestation
antiwar
futurama
grazing
joaquin
fermions
noodle
falkirk
nadal
ugly
foucault
aristocratic
strawberry
tyndale
suppressed
airplanes
enthusiastic
tetrap
zenit
fogolin
penske
physiologist
maldonado
amplitude
redeveloped
epidemiology
stegosaur
saintlaur
hogwarts
schwarzkopf
cottage
gombe
clauses
transept
confucius
kendrick
centauri
choreographer
strasberg
skepticism
postponed
rlitz
envelope
quirks
cinemat
hickman
frieza
multiinstrument
aesthetic
##capital
garnered
ejected
paternal
buxton
theologian
##oderms
vergeer
kipling
ddt
strokes
shorthand
##accessible
phagocytes
microprocess
selftitled
microbial
yehudi
saxeweimar
jutland
zircon
minotaur
barnsley
vertebrae
raleigh
postnominal
lettuce
murdoch
suspicion
carbohydrates
miniseries
florentine
breckinridge
jeopardy
##important
aguilera
biolumines
haitink
triumvirate
ritchie
mansehra
krishna
regierungsbez
schleswigholstein
koxinga
whisenhunt
unmarried
leventina
##oglobin
franchecomt
etruscan
dunfermline
bournemouth
420
520
bump
bites
boud
biped
cows
cama
curb
dap
dove
docks
dmus
fay
fus
fiss
fender
fancy
fandom
faisal
gure
gne
goss
giles
hust
henson
iee
ibra
jod
jiang
kess
kerm
kamp
kontin
lom
lush
lira
ligur
mime
mio
meng
melling
nj
nie
nah
nana
nylon
nundle
ovir
ping
pors
piss
purg
pony
pitted
rans
ravel
riley
sith
sial
seld
scler
tb
tones
vat
vending
wines
zombie
zquez
##uw
##uq
##uis
##uper
##bud
##tails
##iav
##iard
##iwa
##ihiro
##lio
##lane
##dies
##nau
##neck
##him
##high
##hous
##holes
##raged
##cuts
##catl
##croft
##mia
##pack
##punk
##yt
##kom
##kau
##kner
##kids
##kinson
##wave
##jm
##jun
##3c
##hene
##erick
##inement
##orps
##edict
inability
inuy
##atomic
##armed
anjou
##israel
##icom
##ichel
##icola
##ouch
##inghem
tow
topping
##ombe
##amie
##ilic
thuc
##rold
forens
onscreen
##achen
##acements
##otov
##otted
##adillo
asleep
##ayuki
##ivora
##teras
##idd
##idia
fran
alst
beir
beard
beasts
beavers
##utch
##unit
##unts
whist
##iste
chill
cholester
##estro
##ocular
pliny
sek
seer
##odrome
##iplinary
enig
ench
##akistan
pry
prism
##illera
tramp
lebern
shingo
##ostak
bruck
brides
##quest
##endan
gruber
manors
manorial
mangrove
marj
abuses
##asser
cannes
adhes
newborn
scilly
intr
recomb
herr
paran
resided
##ampagne
floppy
disasters
disinf
disorganized
pevens
sheer
carrot
percept
##ensen
##actyl
bohr
appropri
thereof
aguri
genoa
maus
mauro
maarten
phan
weism
gretz
presets
preschool
amanda
amtrak
quay
2016
metis
##urned
173
1711
1712
1737
1725
1733
belts
belinda
saur
thrust
thrace
impart
##encia
##encourt
guer
reliability
austro
1650
endow
endos
1260
modesty
filament
intercept
##erno
##many
highpro
interned
##itsch
##inche
slaughter
imit
imola
originate
##aturated
bookst
obey
oposs
invested
barrett
milestone
valuation
esta
esther
glor
elba
eliot
australians
##levania
constabulary
backspace
anno
annoy
139
lineages
119
waterway
mohammad
mohammed
##uchus
rockford
hurling
helmet
brewing
revis
cori
##berty
solti
magenta
epstein
##rette
##renheit
wrestle
24hour
##rodon
respiration
##ammed
keane
delicate
efficiently
seafood
racist
royalties
supportive
restr
replica
221
confessed
lightcur
viscos
volley
multitude
handic
saintv
##ylac
##axis
palos
bodyguard
cerium
castlevania
approve
burd
brotherhood
infants
missp
discrete
erasmus
silicate
biographies
satire
##genic
lowe
lowcost
##lof
noncom
313
diast
penang
insuff
storyt
realism
##ospace
motherwell
economical
mclean
wallonia
punished
woodward
sounded
fallin
educate
halfs
aquila
loser
montre
widest
moshi
urging
cyclops
##opsy
badgers
astro
frontale
timing
timet
synth
galba
treatise
samoa
tombs
na2
naja
messengers
##estserving
closes
##ijuana
hoist
##entials
mixtures
alternatives
##ariat
##uaa
gothenburg
marketplace
acha
##expl
sands
paysdel
cabot
garment
reactive
webpage
##steed
illy
##stands
activex
coldest
gaspar
mirage
painful
##stonecraft
##ochond
indicator
ironically
cubism
arno
gallons
rotten
papa
vendetta
lesotho
cartridge
cartridges
carlton
symphonic
mayoral
addressing
##americans
koa
cocoon
niche
excited
misa
kimi
##gli
1502
purposebuilt
apartments
##burghausen
suffrage
33rd
spectator
marcello
ramadan
contempl
alphabets
giotto
polythe
425
kenji
##agrams
##wikil
##anteed
lorentz
purchasing
hatteras
dangers
gilmore
pinball
alphabetical
cruella
oversight
oversee
43rd
locks
##aloire
neutrino
##oppers
updating
preferable
hannity
datum
riemann
kirch
1757
encouragement
germain
molten
declares
abbreviations
trailing
echin
basilio
archaea
sherwood
inherent
swimmers
nutrient
appeals
##etrack
vesuvius
kisses
ganges
struggling
toxins
sartell
1555
vaccination
nestor
experiencing
sickness
##iotics
mauritan
responding
millennia
innovations
wonderland
loaned
retailer
tanakh
quintet
quintile
quintiles
##ocyte
##ophyte
##ophytes
grenad
guaranteed
##ydides
blowing
##recognized
errone
sutlej
compressed
praying
pyrene
headingley
parasite
iwata
sparks
subculture
svg
lazio
hammond
##zhou
convenience
predictions
benny
babylonian
manipulate
izan
jakob
forgive
flexibility
portraying
##footed
destroys
krai
taoism
poured
grimm
heyman
nautical
fulfilled
searched
leicestershire
stuffed
syndication
heredity
sinking
clergyman
prospect
accumulation
synchronization
pyramids
shoreline
auschwitz
chantal
ahmadiyya
plasmid
plasmids
saintmaur
exploited
embassies
receptors
joysticks
metamorphic
##bbins
hewitt
saintpierred
stoiber
electrodes
liturgy
grampus
keenan
eminem
##plaintext
procession
pendulum
kwanzaa
intentions
fahrenheit
centrif
dramatist
xanthan
##girl
maharaja
yahoo
carthage
freiherr
sasuke
clotilde
mussolini
tezcatl
lillian
walsh
perlman
parallels
boulder
dharma
gfdl
pavlova
rhetoric
sausage
cressida
gophers
matthias
kurdistan
covenant
nonexistent
wollstonecraft
spicy
scrooge
wizards
courtyard
unparished
seleuc
honsha
rihanna
episcopal
allegiance
atrocities
cytoplasm
barbirolli
pertaining
curvature
##against
rotterdam
graphiurus
multiinstrumentalist
ieee
kontinental
inuyasha
thucydides
bruckner
weismann
gretzky
highprofile
viscosity
paysdelaloire
tezcatlip
380
410
570
999
bere
bounc
bside
cio
coke
cushion
dn
dord
dread
dora
dinger
dixon
eud
fh
f2
fairs
fanz
fdp
fayette
gion
gail
gato
hk
hj
hire
hips
hpa
hiatus
ives
ibre
jk
jure
jind
kt
kish
kiy
lure
leder
luria
murea
nate
nys
niam
nior
nzburg
naco
nusa
oita
pard
pok
pans
pows
pending
rables
sects
sails
s2000
tte
tigr
ux
uff
vint
winton
wahl
wiped
w3c
xer
yol
zin
zhu
##bag
##bius
##tow
##tale
##iar
##iaries
##lower
##eight
##sala
##gos
##oia
##oese
##yal
##kit
##kova
##kenny
##wolf
##100
##qin
##xc
##hews
thebes
theropods
##onar
##onis
##anhalt
##oride
inad
inade
##armen
##itai
##itta
##icelli
isid
##omans
##omiya
##lez
##enton
##amt
##string
##stellar
##elina
thule
##ecost
##etism
##etically
stans
stool
onions
onset
##acet
##acci
##otides
##admin
asper
##idy
rewards
reuters
almond
##igation
##usch
beaux
##chum
byr
##herita
orr
orph
chamb
##agoras
convex
unspec
##artes
atop
arezzo
##optic
plaster
plaut
sew
seiko
##esset
##aban
##abody
neapol
neucha
arte
##ifolia
hispar
tromb
trunc
triton
##ardu
leuc
leuk
##udh
##uded
exits
exempt
shrek
bresc
##orned
##geois
##seek
##endiary
manic
maroons
##iale
compton
abe
abrupt
abkh
##ighton
adr
borne
##izon
##iken
scav
scaled
##ansky
whoever
colt
##ieda
parry
parnell
parodies
flare
flamm
roach
disliked
pegas
peabody
##rophy
sherb
carls
pera
meats
##ritt
boe
booth
blitz
distortion
desdem
securing
##promot
sob
soh
offseason
outlet
preaching
upbringing
proving
##athic
polych
sma
smile
smells
drilling
edouard
pooh
amelia
##ahy
##aharan
noh
charities
207
minix
##nean
##neville
1734
bela
belbin
##phil
singlish
himachal
repay
guillaume
1566
1572
verkh
lax
##annes
rembrand
1625
1632
1691
defect
1250
wellpreserved
module
recorders
##areg
##arez
medall
airfield
auguste
##ometry
sline
incap
incidence
incheon
##aires
##enness
addon
##identified
##keeps
varn
signer
milder
estuaries
glaz
##anya
diva
divid
harald
1380
moj
moors
rockies
rockef
rockstar
##aphic
breasts
bremerhaven
##ainty
##oye
skardu
sola
christchurch
capitalism
cyst
demig
generalization
changi
##lexer
hyster
latency
wikim
215
australiaa
postgraduate
replay
##hemus
viscount
videog
volga
sportsc
empirical
pali
castor
castel
nordiques
piccol
287
brotherinlaw
infects
salford
salads
salonen
erg
erase
potts
clem
snip
lowlying
immers
##load
nonp
nonlinear
factions
31st
sunn
sunrise
##eeisenach
##umba
realworld
watt
economists
mcn
mcgar
mckin
malfunction
pauli
haul
sentimental
##month
melted
macrom
macropa
issuing
instituted
institutes
middleearth
collided
roundhay
zebra
academies
hunchak
surfing
galact
galactic
ulrich
grot
madrig
samantha
cathar
tomo
taung
gradual
##werda
donor
doniz
donations
karada
hoch
hooper
gaol
entirety
codeine
khali
chicks
judith
judging
rangoon
promoter
costliest
sharif
platyp
conviction
lydia
psal
burney
symbolizes
sawmill
contributor
expressing
saxeeisenach
brownish
africanus
hydrother
letterman
bellmare
##120
offerings
rosary
sargent
walnut
negros
##oleum
##canadian
350000
carbonated
puberty
dissolving
assemblies
bullf
reasonable
##blad
liberated
##markets
democraticrepubl
katy
coco
cocacola
mandela
contrasts
bahia
excite
freedoms
altitudes
707
pipeline
tammany
##ndael
##2006
##2009
scripture
ramos
ainu
ensuring
mosconi
sudoku
kenai
llc
takuya
ssr
akin
37th
##abbing
395
transforming
oversaw
ravenna
programmed
programmers
haynes
repeats
chert
tendons
##pei
loving
saxonyanhalt
crowley
ignacio
rescues
abercr
umaga
1752
scenic
abdication
bridg
aerona
vicente
attribute
1653
bosnian
granules
anchors
adviser
hansen
1685
##parts
floats
solem
hangs
ridic
riddle
harmless
##election
jarrold
jamaican
##character
anatol
1649
amazons
800000
doctrinal
surveys
scrap
thorax
grauba
##schild
bonded
dismant
41st
##rillo
hippos
explosions
bmg
ubiqu
intermitt
smoother
epicure
transitional
courtship
1588
restriction
nerves
##storms
blew
hobby
igbo
pentecost
expectancy
patrons
yester
ponzi
admiralty
analytic
enhance
manned
dmitri
guildhall
mobil
compressors
outbreaks
hierogly
ligament
gigantic
leno
lenin
pharaohs
thanksgiving
crystallography
engravings
inferno
chords
margot
margherita
conferred
prescribed
elaborated
paleontologists
wreath
antibiotics
feminine
follower
##negative
rodriguez
nautil
nikolaev
xviii
disagreements
unixlike
bursts
##integr
apprentices
guarantees
kobayashi
supplemented
bulldog
rijndael
warehouse
metabolic
hierarchical
prompting
stegosaurus
torrance
diminished
gunnedah
wessel
heidfeld
fowler
overlooking
disappointment
amphibians
perturb
weinberg
daimler
##obacteria
landslides
bikini
invasions
lactose
resonance
fiddle
polyphemus
dispatched
angloirish
cesspool
recruitment
twodimensional
pursuing
olmec
bischoff
stoneman
deutscher
peloponnes
carpentaria
australopithecines
graffiti
scripting
monotre
ferreira
hawthorn
keeper
metabolism
dwellings
deutschland
caracas
hallucinations
kozlov
oneday
antisemitism
crucifixion
lollip
thessalon
shonan
muppet
cuckoo
preex
plankton
adequate
flattened
##functions
arachnids
asymmetric
##otechnology
alaskan
patroclus
threecushion
muzaffar
leibniz
theresa
chaiyo
hexadecimal
indochina
porcupines
nicktoons
suzerainty
poughkeeps
ulyss
##clyde
cannabis
carstens
embankment
konkani
oviraptor
mausoleum
pyrenees
ibrehem
inadequ
unspecified
abkhaz
desdemona
rembrandt
rockefeller
mckinley
abercrombie
hieroglyph
poughkeepsie
060
430
511
90s
911
978
a4
bother
bung
dall
dard
dons
dink
dush
danes
dahl
dsharp
fost
fence
fused
fsharp
gher
gird
gdr
hl
hin
hok
hue
haus
jok
kins
khl
kij
kappa
lz
lust
lore
lick
lson
lech
lille
lili
lola
lagr
lublin
lubb
llingua
mister
mma
nder
nyp
oise
osh
oven
pains
psp
rund
rash
rector
sgen
ting
tav
wither
yy
zerm
zabel
##uag
##best
##bahn
##tur
##table
##tech
##lith
##lasting
##dap
##dles
##sche
##size
##ska
##gel
##gra
##glad
##nad
##now
##numbered
##ozy
##hair
##rab
##cope
##mour
##phe
##pel
##vity
##vale
##voir
##kas
##kie
##wess
##wash
##watha
##1000
##jas
##jul
##jans
##fal
##800
##erel
##eratops
##onc
##onius
##anse
##esters
inward
##atoth
##arctic
##arvon
anter
anoxic
##isations
##iscover
##icist
ando
##rep
istr
##leine
##amis
##amante
##stroke
##elage
thong
thwart
##econom
stry
forear
foraging
wasser
##acil
##acus
##oton
##ivel
##terozoic
##owar
##oware
alde
algon
beams
##chka
##utic
##utta
wha
##ulles
##ulata
chol
chun
chong
chald
chlam
chavo
conical
conform
unpr
##alls
##umat
##ainen
atkins
##ocate
prokary
sein
enron
##abal
nehru
prone
sphero
tris
##antas
leah
shiny
bru
brib
##aryan
##seat
##quim
##endom
hasbro
##ubach
afro
graf
##oger
mangro
marines
comply
compose
oneway
##assen
##assment
##izawa
##ermore
knighth
twinned
allman
regal
regulatory
recession
paraa
centimetres
resume
disall
##roportion
shea
carav
carmel
##hedra
engel
cobol
appenz
##independent
agra
distract
distracted
somehow
genghis
betrayed
##ubljana
maha
weing
weald
weaver
overview
overthe
southcentral
southsoutheast
##oldest
##author
##azon
willow
warp
##inta
##ollah
noaa
schwe
subpages
subpref
minster
##format
metron
17000
1715
1727
1723
##phr
acacia
thrashers
brood
britons
impuls
guelph
##issy
1524
##anner
endpoints
1220
retic
retina
electors
interven
interstellar
transcauc
##obur
crich
highbury
highquality
airship
slaugh
septuag
janu
geographer
geelong
songwriters
arminius
differed
invading
surm
surve
barric
barrow
baruch
barclay
##spoken
militar
awarding
valle
##chener
glide
glock
##anyan
supper
idamante
portman
portrays
childers
italia
heli
brew
corals
shortening
##parated
christendom
expose
exposing
justinian
listings
mycen
entente
##boa
cym
runway
eck
ecoreg
thirdparty
303
paume
generalized
boron
patt
mercer
kea
keeling
##echtenstein
delac
##ynthetic
catcher
supercontinent
supermarkets
freel
irl
faraday
vienn
racetrack
resta
holst
visions
volupt
pakenham
multit
adverse
whitehall
leth
lethal
goodall
goodwill
moreno
castell
castling
cantonese
billab
##uncture
burj
debated
vein
veeck
deriving
salted
missiles
erz
eras
greenish
greenville
honest
potent
representations
needing
snail
nonfamilies
egret
312
sunk
diacrit
davy
hardly
hardest
furious
faa
##apeutic
##affin
destined
maluku
walled
wallpaper
renf
robes
robotic
##defin
researched
voter
oxp
hautes
haiku
macdon
objections
linnean
baa
denise
liechtenstein
colla
collisions
uracil
cyclonic
##ophilia
oceania
##ibranch
fortification
taito
karel
blockade
##bolt
cites
khowar
kindness
kilkenny
trot
judah
translating
osbourne
oskar
cornelius
certainty
benin
federalist
sanders
costly
costello
rhiz
##forward
darlington
garhi
garlic
examining
babbage
##royd
turkana
takeshi
librarian
substrate
ilia
##iantes
splits
rosina
rosberg
escarp
martinique
calcutta
fundament
observable
casey
masterpieces
trainers
azatoth
##legged
embro
##zoic
maser
rotate
printmaker
papen
packers
subtraction
802
cartwright
saltwater
therapeutic
champlain
leonid
mccain
sweep
bodily
75000
excurs
exciting
misleading
##zzar
distinguishing
shaun
333
bronch
##rolling
##2007
ghaz
sensor
shelves
sheltered
alphabetic
polygon
kenyan
##iably
sinh
1601
corrected
rumor
kelvin
missionaries
illustrate
landsberg
rhyme
onesa
appleton
mitochond
44th
sanger
385
coupling
18thcentury
comiccon
franchises
noneu
implementing
carnarvon
1753
backgrounds
comedies
kitaky
kitchener
abdominal
lancia
aerobic
aerospace
bathilde
bundled
worthy
integrate
protestantism
mpul
abstractions
004
alec
alekh
badenpow
staal
airborne
revolver
revolves
circumc
1746
1747
megad
assassin
spirituality
gmr
gmina
poisonous
tatiana
1558
rc5
scrapped
kgb
vampires
townships
buncombe
triangles
livermore
oxidizing
revere
revered
orgasm
sylv
artificially
copyrighted
hendrick
miamidade
gladys
##pointed
accelerate
gastro
gastornis
nerva
##reaty
proliferation
sagami
subsidiaries
dragged
preserves
preserving
ukrainians
laurel
sterile
javan
trumpeter
analyze
analyzed
##friendly
stimulus
simultaneous
verbal
bastien
bishara
nsdap
marinos
bestseller
transpiration
transposing
lombok
ankyl
tutor
ambassad
trinita
shinji
satisfy
chiral
bomber
convened
beeh
shunters
adjustment
robertson
nakamura
clinics
prescription
wikiped
helmets
electromagnetism
heterosexual
miyamoto
eustace
luckless
sparked
constellations
kotor
s2006
euphrates
##straa
fianca
surnames
##querque
orphaned
disagreed
zurich
hilbert
tajiri
heatherwick
dumpster
honours
honourable
greatgrandson
plumage
consonant
spheres
prefectures
parsley
bloomington
stabilize
polynesian
mandaean
terrace
ninja
unexpectedly
sevilla
hazardous
inlinefour
highlighted
crickets
feces
wormwood
flamsteed
##1989
ambiguity
yamaguchi
hulk
##verein
twentysecond
elliptical
natalie
frustrated
fragrant
tattoo
dobson
spokesperson
enhancements
moulin
##platform
herzog
fontsize
seawater
chromatography
reintroduced
nchenglad
reappear
hydrocarbons
rheinfelden
perpetual
ejaculation
sermon
##urpose
##opteryg
mohamed
aerosmith
surprisingly
ignorance
indoors
albuquerque
falsely
delicacy
vickie
beagle
laptop
conclusions
rosalind
hypertension
ljubljana
##ocean
trivial
endocrine
franciscan
refurbished
microphone
criterion
##arynx
extermination
amalgamated
pliocene
amniotes
pidgin
phoebe
tajikistan
pashto
historiography
nightingale
danzig
afflicted
swindon
estudiantes
microwave
namibia
hiawatha
wandsworth
##represented
beirut
cholesterol
endowment
insufficient
grenadines
byrne
neapolitan
yesterday
ulysses
dushku
lubbock
mangroves
knighthood
appenzell
subprefecture
septuagint
##definition
kitakyushu
alekhine
badenpowell
nchengladbach
70s
a5
aaa
bt
bum
baux
bounce
cud
cah
coss
dp
dich
dok
dile
dare
dement
deng
daintree
ef
eis
eels
gyn
gomes
h3
huts
hokka
huckle
ionic
iupac
jong
jeter
kull
koma
kla
kahn
lign
lons
lays
lfs
mey
mima
mno
nix
nxt
nchwil
oe
oll
pter
pais
pious
pena
rother
rida
sj
sams
sights
tular
taper
uri
umar
upton
vail
vivid
wad
wint
wakes
womena
zent
zoro
zheng
##tal
##tub
##iour
##lot
##lich
##living
##ehan
##dos
##gil
##got
##gust
##nan
##nis
##niac
##aul
##august
##ht
##hok
##handed
##cas
##counter
##casters
##coded
##meter
##mara
##zum
##wy
##jc
##jig
##jah
##fund
##fred
##fined
##hegg
##heavy
##erk
##erunner
##aney
##anza
##ormer
##eser
##atal
##atical
##enon
##enay
##enassau
anom
##itat
##isy
##isaurus
##icuous
##oula
##rex
##rets
isb
isthm
##omir
##lequ
##lebone
##amen
##rof
##rogate
##ecret
##ecchi
##ecourse
##etown
stokes
##uran
##urious
##achers
asi
ashe
aspar
reel
fry
altenburg
##unting
wholes
whisk
comuni
chug
chased
chants
chasing
##estan
##osia
##ositive
unblock
##allis
##allike
defer
dejima
atten
##opyl
##opoly
##ocan
plastics
##bergen
##ipation
suu
suites
promet
arauc
arlington
spacing
##ifted
lein
excel
shaman
shirov
shostak
brace
##ornith
##gebou
##ustice
##ongwe
grange
grendel
abused
canals
canoe
ads
adler
adele
##outi
##outine
newts
knives
knopp
scsi
alluv
intend
intonation
regain
reggio
##eye
aftersh
rechar
colts
colosse
##iedler
##achine
induce
northnortheast
##wee
##weeds
flocks
rover
peake
shewh
carly
carval
##ensitive
formulas
sycor
evolving
##awks
##prince
maze
greer
monoxide
offense
##olding
1485
1422
outright
outpost
nationalisation
##athi
##ickers
poaching
quill
quake
charism
2020
movable
capric
schwer
schoen
subter
minas
minors
##nee
stranded
stranger
acdc
caliber
attaining
atticus
impala
assam
##encipher
finances
swazil
guil
1550
1596
emission
verified
verifiable
systematics
endgame
129
modelled
transist
##obal
##oble
cron
crush
crista
imitation
incomes
bandleader
geo
##vee
oprah
champs
redford
olduv
##ussy
barren
##chev
millard
##rowth
harr
harem
iiis
daytod
openair
titular
titania
humber
wrang
mid18
lita
helix
brewers
headlines
continually
basics
revenues
corby
corrupted
wording
clube
##henian
justification
steppe
stebbins
animations
##arkand
runoff
romani
thirdlargest
306
246
243
soninlaw
##ervis
patton
downed
georget
##tya
equestrian
racecourse
winfrey
rested
archaic
halle
authored
advise
saintmar
motivated
palermo
roadside
moritz
castaways
italianamerican
finalists
burley
burrowing
sque
squee
##helia
devan
ledger
missile
discord
biomed
saty
sangh
immense
##looking
ape
apology
federally
crochet
##mex
nightclub
richie
suns
camar
34th
##cedented
##agoza
ministerpresident
woodford
##bao
broadcasters
denounced
constructing
middleweight
franca
petrol
homage
##ophile
astley
voj
void
##queville
curios
madness
samba
electrically
##werk
##werks
wilma
501
donnie
marylebone
flagella
##bola
lichen
specifications
gotten
peterhead
benign
payne
sirens
herefordshire
lyman
lyme
psalm
rankin
garcia
##escents
vanity
policeman
celebrates
browne
boyz
aeg
##registered
banbury
bellini
splicing
rosen
sarat
jesuits
noteworthy
323
aziz
##boxing
bowell
pui
warship
optimal
convergence
concertgebou
##rosis
ironic
##guards
sacs
assistants
rotary
savings
##quarter
4500
pilota
tsuk
earnest
settler
##ommand
communicating
cosmet
bearer
subduction
##islava
gunther
vaishn
bodine
qualifications
misora
misfits
formatted
fatty
selfd
##holland
customized
##namara
husbandry
##ycles
lacks
sundays
tamils
ticonder
mouthpiece
wwii
ramen
problematic
hillsborough
sensible
eyewall
acquire
cassette
freshman
goalsagainst
akadem
narrows
conflicting
bolas
thermometers
thermopyl
welter
fossilized
touching
mahmud
hatred
dunes
theorists
transformations
lindisf
outermost
quarterly
dubois
assumpt
virtues
ducal
pollard
outputs
1708
travis
grasslands
besie
imagin
imagined
hyperion
owens
droplets
bags
sherwan
baptized
pullman
partnered
collaborations
subsaharan
okayama
pretender
pretoria
toni
pasco
bourgeois
cricet
implicit
##speople
appealing
treasurer
##biotic
nyon
wythe
tienn
##uyoshi
##pherson
flavoring
surveyed
scranton
crocus
hazards
emphasizing
nikki
cordillera
hester
srin
gainare
dresses
hippo
choirs
wrongly
fragile
rigorous
substitutes
##martre
apostle
vinci
commemorated
commemorating
1582
1589
grossing
truths
tortured
roux
mid1990s
intensification
patriotic
1543
binocular
ernesto
marlborough
quadrup
anthropomorphic
battersea
analyzing
analytical
bicameral
stimulated
ebner
tombstone
blowfish
tapir
paradox
intentionally
steinfurt
[...]
