{
  "version": "1.0",
  "truncation": {
    "direction": "Right",
    "max_length": 128,
    "strategy": "LongestFirst",
    "stride": 0
  },
  "padding": {
    "strategy": {
      "Fixed": 128
    },
    "direction": "Right",
    "pad_to_multiple_of": null,
    "pad_id": 0,
    "pad_type_id": 0,
    "pad_token": "[PAD]"
  },
  "added_tokens": [
    {
      "id": 0,
      "content": "[PAD]",
      "single_word": false,
      "lstrip": false,
      "rstrip": false,
      "normalized": false,
      "special": true
    },
    {
      "id": 1,
      "content": "[UNK]",
      "single_word": false,
      "lstrip": false,
      "rstrip": false,
      "normalized": false,
      "special": true
    },
    {
      "id": 2,
      "content": "[CLS]",
      "single_word": false,
      "lstrip": false,
      "rstrip": false,
      "normalized": false,
      "special": true
    },
    {
      "id": 3,
      "content": "[SEP]",
      "single_word": false,
      "lstrip": false,
      "rstrip": false,
      "normalized": false,
      "special": true
    },
    {
      "id": 4,
      "content": "[MASK]",
      "single_word": false,
      "lstrip": false,
      "rstrip": false,
      "normalized": false,
      "special": true
    }
  ],
  "normalizer": {
    "type": "BertNormalizer",
    "clean_text": true,
    "handle_chinese_chars": true,
    "strip_accents": null,
    "lowercase": true
  },
  "pre_tokenizer": {
    "type": "BertPreTokenizer"
  },
  "post_processor": {
    "type": "TemplateProcessing",
    "single": [
      {
        "SpecialToken": {
          "id": "[CLS]",
          "type_id": 0
        }
      },
      {
        "Sequence": {
          "id": "A",
          "type_id": 0
        }
      },
      {
        "SpecialToken": {
          "id": "[SEP]",
          "type_id": 0
        }
      }
    ],
    "pair": [
      {
        "SpecialToken": {
          "id": "[CLS]",
          "type_id": 0
        }
      },
      {
        "Sequence": {
          "id": "A",
          "type_id": 0
        }
      },
      {
        "SpecialToken": {
          "id": "[SEP]",
          "type_id": 0
        }
      },
      {
        "Sequence": {
          "id": "B",
          "type_id": 1
        }
      },
      {
        "SpecialToken": {
          "id": "[SEP]",
          "type_id": 1
        }
      }
    ],
    "special_tokens": {
      "[CLS]": {
        "id": "[CLS]",
        "ids": [
          2
        ],
        "tokens": [
          "[CLS]"
        ]
      },
      "[SEP]": {
        "id": "[SEP]",
        "ids": [
          3
        ],
        "tokens": [
          "[SEP]"
        ]
      }
    }
  },
  "decoder": {
    "type": "WordPiece",
    "prefix": "##",
    "cleanup": true
  },
  "model": {
    "type": "WordPiece",
    "unk_token": "[UNK]",
    "continuing_subword_prefix": "##",
    "max_input_chars_per_word": 100,
    "vocab": {
      "[PAD]": 0,
      "[UNK]": 1,
      "[CLS]": 2,
      "[SEP]": 3,
      "[MASK]": 4,
      "0": 5,
      "1": 6,
      "2": 7,
      "3": 8,
      "4": 9,
      "5": 10,
      "6": 11,
      "7": 12,
      "8": 13,
      "9": 14,
      "a": 15,
      "b": 16,
      "c": 17,
      "d": 18,
      "e": 19,
      "f": 20,
      "g": 21,
      "h": 22,
      "i": 23,
      "j": 24,
      "k": 25,
      "l": 26,
      "m": 27,
      "n": 28,
      "o": 29,
      "p": 30,
      "q": 31,
      "r": 32,
      "s": 33,
      "t": 34,
      "u": 35,
      "v": 36,
      "w": 37,
      "x": 38,
      "y": 39,
      "z": 40,
      "##e": 41,
      "##s": 42,
      "##c": 43,
      "##h": 44,
      "##a": 45,
      "##d": 46,
      "##i": 47,
      "##g": 48,
      "##u": 49,
      "##n": 50,
      "##t": 51,
      "##l": 52,
      "##6": 53,
      "##9": 54,
      "##o": 55,
      "##m": 56,
      "##f": 57,
      "##r": 58,
      "##k": 59,
      "##b": 60,
      "##p": 61,
      "##v": 62,
      "##z": 63,
      "##w": 64,
      "##3": 65,
      "##0": 66,
      "##y": 67,
      "##5": 68,
      "##j": 69,
      "##7": 70,
      "##1": 71,
      "##q": 72,
      "##2": 73,
      "##x": 74,
      "##4": 75,
      "##8": 76,
      "##en": 77,
      "##er": 78,
      "##ch": 79,
      "##ie": 80,
      "##in": 81,
      "##ei": 82,
      "##st": 83,
      "##un": 84,
      "##an": 85,
      "##on": 86,
      "die": 87,
      "ein": 88,
      "##ich": 89,
      "##ung": 90,
      "##sch": 91,
      "##el": 92,
      "##ur": 93,
      "un": 94,
      "##or": 95,
      "##as": 96,
      "##us": 97,
      "der": 98,
      "##es": 99,
      "##hr": 100,
      "##at": 101,
      "##der": 102,
      "in": 103,
      "##it": 104,
      "##al": 105,
      "##ar": 106,
      "##te": 107,
      "be": 108,
      "sie": 109,
      "und": 110,
      "##ten": 111,
      "##ig": 112,
      "##em": 113,
      "##den": 114,
      "##ach": 115,
      "##ter": 116,
      "au": 117,
      "an": 118,
      "zu": 119,
      "##gen": 120,
      "das": 121,
      "##au": 122,
      "##ge": 123,
      "##ol": 124,
      "ge": 125,
      "ver": 126,
      "##ann": 127,
      "##le": 128,
      "##ben": 129,
      "##sen": 130,
      "##icht": 131,
      "er": 132,
      "bei": 133,
      "sch": 134,
      "##ber": 135,
      "##nen": 136,
      "##tr": 137,
      "##de": 138,
      "##mm": 139,
      "##lich": 140,
      "mit": 141,
      "##ir": 142,
      "##eit": 143,
      "##ut": 144,
      "ist": 145,
      "##se": 146,
      "den": 147,
      "eine": 148,
      "##and": 149,
      "##ein": 150,
      "al": 151,
      "##ag": 152,
      "aus": 153,
      "##len": 154,
      "##il": 155,
      "##is": 156,
      "##ier": 157,
      "im": 158,
      "auf": 159,
      "kon": 160,
      "oder": 161,
      "fur": 162,
      "##schen": 163,
      "##am": 164,
      "von": 165,
      "##ion": 166,
      "st": 167,
      "##sp": 168,
      "##ungen": 169,
      "nicht": 170,
      "##et": 171,
      "##kt": 172,
      "sich": 173,
      "##iel": 174,
      "##ro": 175,
      "##ahr": 176,
      "##fen": 177,
      "##ah": 178,
      "##ind": 179,
      "##ft": 180,
      "es": 181,
      "##ehr": 182,
      "auch": 183,
      "##ck": 184,
      "##chen": 185,
      "ar": 186,
      "##und": 187,
      "wir": 188,
      "wer": 189,
      "##eh": 190,
      "konnen": 191,
      "ihr": 192,
      "##re": 193,
      "vor": 194,
      "##ik": 195,
      "ha": 196,
      "##zt": 197,
      "##ser": 198,
      "zum": 199,
      "dann": 200,
      "des": 201,
      "dem": 202,
      "mus": 203,
      "so": 204,
      "##wei": 205,
      "sind": 206,
      "men": 207,
      "##nt": 208,
      "##ru": 209,
      "##eu": 210,
      "##zen": 211,
      "##rei": 212,
      "##omm": 213,
      "werden": 214,
      "##ien": 215,
      "##ran": 216,
      "nach": 217,
      "##ers": 218,
      "##om": 219,
      "##hal": 220,
      "##be": 221,
      "##och": 222,
      "kann": 223,
      "unter": 224,
      "menschen": 225,
      "##cht": 226,
      "wie": 227,
      "wen": 228,
      "sp": 229,
      "ab": 230,
      "uber": 231,
      "##oh": 232,
      "##ungs": 233,
      "##pf": 234,
      "##lei": 235,
      "##ra": 236,
      "##ot": 237,
      "##sten": 238,
      "##gel": 239,
      "##oll": 240,
      "haben": 241,
      "einer": 242,
      "ent": 243,
      "##ation": 244,
      "da": 245,
      "hat": 246,
      "##rank": 247,
      "##aus": 248,
      "mehr": 249,
      "##ell": 250,
      "##of": 251,
      "##ger": 252,
      "##spiel": 253,
      "##men": 254,
      "##ul": 255,
      "##ommen": 256,
      "beispiel": 257,
      "##erson": 258,
      "wenn": 259,
      "##fe": 260,
      "am": 261,
      "##ort": 262,
      "re": 263,
      "##inder": 264,
      "dur": 265,
      "##eil": 266,
      "##orm": 267,
      "##ass": 268,
      "person": 269,
      "##igen": 270,
      "als": 271,
      "##wer": 272,
      "einen": 273,
      "##isch": 274,
      "##all": 275,
      "##ap": 276,
      "um": 277,
      "##bt": 278,
      "##ver": 279,
      "##ed": 280,
      "##os": 281,
      "##um": 282,
      "ander": 283,
      "durch": 284,
      "bl": 285,
      "ber": 286,
      "##per": 287,
      "##eben": 288,
      "wei": 289,
      "man": 290,
      "mussen": 291,
      "wird": 292,
      "##og": 293,
      "betr": 294,
      "##zu": 295,
      "##schl": 296,
      "##scha": 297,
      "##her": 298,
      "ges": 299,
      "##zei": 300,
      "##iv": 301,
      "##rau": 302,
      "arzt": 303,
      "##bei": 304,
      "##ang": 305,
      "de": 306,
      "##ab": 307,
      "dass": 308,
      "##agen": 309,
      "##ad": 310,
      "##acht": 311,
      "pro": 312,
      "sein": 313,
      "beh": 314,
      "geh": 315,
      "einem": 316,
      "##ige": 317,
      "aber": 318,
      "##mer": 319,
      "bis": 320,
      "gi": 321,
      "##ist": 322,
      "soll": 323,
      "##achen": 324,
      "##uhr": 325,
      "##tet": 326,
      "diese": 327,
      "##ken": 328,
      "gibt": 329,
      "##tz": 330,
      "her": 331,
      "##imm": 332,
      "##ern": 333,
      "##auf": 334,
      "gel": 335,
      "jahr": 336,
      "##tel": 337,
      "zur": 338,
      "##che": 339,
      "##gt": 340,
      "##ischen": 341,
      "##eits": 342,
      "##liche": 343,
      "inf": 344,
      "bek": 345,
      "lei": 346,
      "##aut": 347,
      "##op": 348,
      "##schaft": 349,
      "all": 350,
      "war": 351,
      "##atz": 352,
      "noch": 353,
      "dar": 354,
      "##assen": 355,
      "##ner": 356,
      "best": 357,
      "##ktion": 358,
      "deut": 359,
      "kein": 360,
      "viel": 361,
      "nur": 362,
      "##ache": 363,
      "##achsen": 364,
      "##oron": 365,
      "##we": 366,
      "##amen": 367,
      "vie": 368,
      "##00": 369,
      "##dr": 370,
      "##ellen": 371,
      "krank": 372,
      "##ne": 373,
      "blut": 374,
      "##uch": 375,
      "##lichen": 376,
      "bes": 377,
      "##art": 378,
      "##cken": 379,
      "leben": 380,
      "coron": 381,
      "weiter": 382,
      "med": 383,
      "##fall": 384,
      "##ationen": 385,
      "##he": 386,
      "gegen": 387,
      "##unde": 388,
      "ihre": 389,
      "##tw": 390,
      "##geb": 391,
      "##ark": 392,
      "##offen": 393,
      "##tern": 394,
      "##unden": 395,
      "##ast": 396,
      "##ieren": 397,
      "neu": 398,
      "geb": 399,
      "ste": 400,
      "##weis": 401,
      "##ahl": 402,
      "##iert": 403,
      "##mit": 404,
      "##ander": 405,
      "##halb": 406,
      "viele": 407,
      "ih": 408,
      "##ollen": 409,
      "##ste": 410,
      "##uss": 411,
      "##hen": 412,
      "##fahr": 413,
      "##ri": 414,
      "gen": 415,
      "##kl": 416,
      "##zi": 417,
      "uns": 418,
      "##pp": 419,
      "##halt": 420,
      "##ehmen": 421,
      "sachsen": 422,
      "##ische": 423,
      "##krank": 424,
      "##trag": 425,
      "wur": 426,
      "##schie": 427,
      "##mmer": 428,
      "muss": 429,
      "pol": 430,
      "##weise": 431,
      "##keit": 432,
      "##aten": 433,
      "bund": 434,
      "hei": 435,
      "##orper": 436,
      "##mal": 437,
      "20": 438,
      "fin": 439,
      "##ichtig": 440,
      "##age": 441,
      "##etz": 442,
      "##bl": 443,
      "alle": 444,
      "##oren": 445,
      "sel": 446,
      "inform": 447,
      "str": 448,
      "betroffen": 449,
      "##ges": 450,
      "##sst": 451,
      "wieder": 452,
      "##min": 453,
      "##ild": 454,
      "kinder": 455,
      "##pt": 456,
      "##ing": 457,
      "##innen": 458,
      "##atien": 459,
      "mog": 460,
      "hier": 461,
      "bekommen": 462,
      "##est": 463,
      "##onder": 464,
      "##heit": 465,
      "##ros": 466,
      "hin": 467,
      "##fl": 468,
      "bundes": 469,
      "br": 470,
      "ur": 471,
      "##me": 472,
      "erf": 473,
      "gr": 474,
      "arb": 475,
      "##elt": 476,
      "##iger": 477,
      "sehr": 478,
      "hal": 479,
      "ihnen": 480,
      "besch": 481,
      "zus": 482,
      "ger": 483,
      "##utz": 484,
      "##ahlen": 485,
      "vom": 486,
      "##iz": 487,
      "##ikamen": 488,
      "##dem": 489,
      "dies": 490,
      "##agt": 491,
      "##pr": 492,
      "##ingen": 493,
      "land": 494,
      "ko": 495,
      "stad": 496,
      "we": 497,
      "schl": 498,
      "##amm": 499,
      "##ma": 500,
      "medikamen": 501,
      "##stand": 502,
      "##stell": 503,
      "was": 504,
      "deshalb": 505,
      "##elle": 506,
      "woh": 507,
      "##uh": 508,
      "##bst": 509,
      "behinder": 510,
      "##igung": 511,
      "kommen": 512,
      "##lin": 513,
      "th": 514,
      "##etzt": 515,
      "korper": 516,
      "##nah": 517,
      "informationen": 518,
      "##nis": 519,
      "##det": 520,
      "keine": 521,
      "ich": 522,
      "beg": 523,
      "##undung": 524,
      "patien": 525,
      "##zeit": 526,
      "##ak": 527,
      "##ffen": 528,
      "##alt": 529,
      "##ister": 530,
      "##ose": 531,
      "##ies": 532,
      "or": 533,
      "schw": 534,
      "gem": 535,
      "beim": 536,
      "##end": 537,
      "dam": 538,
      "eur": 539,
      "sei": 540,
      "zw": 541,
      "spr": 542,
      "##ehen": 543,
      "regel": 544,
      "behand": 545,
      "mon": 546,
      "##lau": 547,
      "machen": 548,
      "##allen": 549,
      "wo": 550,
      "##rechen": 551,
      "##herap": 552,
      "fahr": 553,
      "##mittel": 554,
      "fuhr": 555,
      "gros": 556,
      "bez": 557,
      "lebens": 558,
      "moglich": 559,
      "##haus": 560,
      "##id": 561,
      "mei": 562,
      "dieser": 563,
      "##schieden": 564,
      "zwei": 565,
      "##schland": 566,
      "##tag": 567,
      "##order": 568,
      "##sel": 569,
      "##off": 570,
      "etw": 571,
      "rei": 572,
      "gew": 573,
      "zei": 574,
      "dort": 575,
      "teil": 576,
      "##fer": 577,
      "##schein": 578,
      "immer": 579,
      "##ym": 580,
      "##halten": 581,
      "##merzen": 582,
      "##bs": 583,
      "##land": 584,
      "##itz": 585,
      "ob": 586,
      "poli": 587,
      "##ill": 588,
      "damit": 589,
      "##lo": 590,
      "##str": 591,
      "##fur": 592,
      "finden": 593,
      "andere": 594,
      "##ilfe": 595,
      "je": 596,
      "##gan": 597,
      "personen": 598,
      "##lung": 599,
      "##ef": 600,
      "zeit": 601,
      "##mpf": 602,
      "frau": 603,
      "dazu": 604,
      "schwer": 605,
      "impf": 606,
      "##teil": 607,
      "##bar": 608,
      "##ick": 609,
      "wichtig": 610,
      "##amt": 611,
      "##leicht": 612,
      "deutschland": 613,
      "##uck": 614,
      "en": 615,
      "fl": 616,
      "##ent": 617,
      "##akt": 618,
      "bestimm": 619,
      "corona": 620,
      "##pl": 621,
      "##herapie": 622,
      "verschieden": 623,
      "ihren": 624,
      "##hei": 625,
      "oft": 626,
      "##wie": 627,
      "##anz": 628,
      "##ahn": 629,
      "vielleicht": 630,
      "stadt": 631,
      "##ommt": 632,
      "anderen": 633,
      "unser": 634,
      "14": 635,
      "verb": 636,
      "hel": 637,
      "##nung": 638,
      "##enk": 639,
      "dr": 640,
      "##stag": 641,
      "##ess": 642,
      "##igt": 643,
      "gef": 644,
      "selbst": 645,
      "gut": 646,
      "hand": 647,
      "##ht": 648,
      "##werden": 649,
      "heisst": 650,
      "gesch": 651,
      "##anger": 652,
      "##ruck": 653,
      "pl": 654,
      "polizei": 655,
      "##zeu": 656,
      "##zeichen": 657,
      "##igkeit": 658,
      "wel": 659,
      "##eln": 660,
      "kn": 661,
      "stark": 662,
      "entz": 663,
      "dabei": 664,
      "##asse": 665,
      "##utzen": 666,
      "##irus": 667,
      "##su": 668,
      "sollten": 669,
      "kl": 670,
      "erst": 671,
      "haut": 672,
      "##gef": 673,
      "##urt": 674,
      "ins": 675,
      "##ragen": 676,
      "##esen": 677,
      "##isik": 678,
      "kol": 679,
      "##du": 680,
      "##fach": 681,
      "##ate": 682,
      "min": 683,
      "el": 684,
      "hauf": 685,
      "dafur": 686,
      "schon": 687,
      "##wir": 688,
      "herz": 689,
      "se": 690,
      "##leich": 691,
      "##sy": 692,
      "wurde": 693,
      "euro": 694,
      "##eich": 695,
      "bau": 696,
      "kind": 697,
      "ma": 698,
      "##bur": 699,
      "ang": 700,
      "##ater": 701,
      "arbeit": 702,
      "##let": 703,
      "##zial": 704,
      "tr": 705,
      "schn": 706,
      "ihrem": 707,
      "patienten": 708,
      "wollen": 709,
      "ange": 710,
      "wirk": 711,
      "##ff": 712,
      "ausser": 713,
      "##arm": 714,
      "jetzt": 715,
      "tag": 716,
      "beschwerden": 717,
      "##arbei": 718,
      "##aben": 719,
      "##itte": 720,
      "ben": 721,
      "##hoh": 722,
      "##ink": 723,
      "##fektion": 724,
      "##schei": 725,
      "verl": 726,
      "haus": 727,
      "##tzundung": 728,
      "##ic": 729,
      "##geben": 730,
      "verm": 731,
      "betroffene": 732,
      "thur": 733,
      "##mass": 734,
      "aller": 735,
      "##vor": 736,
      "seit": 737,
      "##ster": 738,
      "gehen": 739,
      "lassen": 740,
      "##ammen": 741,
      "lie": 742,
      "##ult": 743,
      "##uhl": 744,
      "##ats": 745,
      "besonder": 746,
      "not": 747,
      "##nehmen": 748,
      "geld": 749,
      "##gung": 750,
      "##urz": 751,
      "ihrer": 752,
      "brau": 753,
      "##ord": 754,
      "kle": 755,
      "medikamente": 756,
      "neben": 757,
      "##such": 758,
      "erkrank": 759,
      "##ov": 760,
      "##urk": 761,
      "ant": 762,
      "schul": 763,
      "##ierung": 764,
      "##ome": 765,
      "kranken": 766,
      "ch": 767,
      "##inn": 768,
      "##tem": 769,
      "jahren": 770,
      "einfach": 771,
      "##ok": 772,
      "##richt": 773,
      "##jahr": 774,
      "bede": 775,
      "manch": 776,
      "voll": 777,
      "risik": 778,
      "eines": 779,
      "jed": 780,
      "##ud": 781,
      "##asen": 782,
      "helfen": 783,
      "kr": 784,
      "##auer": 785,
      "##gr": 786,
      "##gang": 787,
      "##ange": 788,
      "##att": 789,
      "##zeug": 790,
      "##gend": 791,
      "##tre": 792,
      "##unter": 793,
      "##test": 794,
      "fru": 795,
      "manchmal": 796,
      "##itis": 797,
      "##rupp": 798,
      "bel": 799,
      "zusammen": 800,
      "##utet": 801,
      "neue": 802,
      "oh": 803,
      "##tragen": 804,
      "kommt": 805,
      "##unst": 806,
      "kont": 807,
      "grund": 808,
      "##ant": 809,
      "##ausweis": 810,
      "201": 811,
      "koln": 812,
      "mann": 813,
      "te": 814,
      "##satz": 815,
      "##yp": 816,
      "##icher": 817,
      "fol": 818,
      "gil": 819,
      "etwa": 820,
      "le": 821,
      "##anhalt": 822,
      "##itt": 823,
      "sachsenanhalt": 824,
      "wohn": 825,
      "fall": 826,
      "wurden": 827,
      "##pro": 828,
      "arbei": 829,
      "fr": 830,
      "weil": 831,
      "verh": 832,
      "##reis": 833,
      "antrag": 834,
      "##fahren": 835,
      "sowie": 836,
      "##heits": 837,
      "##ob": 838,
      "##amil": 839,
      "##rech": 840,
      "tel": 841,
      "##uf": 842,
      "##drus": 843,
      "bezahlen": 844,
      "nehmen": 845,
      "sollen": 846,
      "##ler": 847,
      "##ine": 848,
      "##ale": 849,
      "##rebs": 850,
      "ohne": 851,
      "bitte": 852,
      "hoh": 853,
      "gesund": 854,
      "sprache": 855,
      "sozial": 856,
      "akt": 857,
      "drei": 858,
      "##leim": 859,
      "##are": 860,
      "weitere": 861,
      "##virus": 862,
      "urs": 863,
      "frauen": 864,
      "##net": 865,
      "##lege": 866,
      "##ympt": 867,
      "eigen": 868,
      "##hilfe": 869,
      "##arzt": 870,
      "##klar": 871,
      "gilt": 872,
      "##sche": 873,
      "personal": 874,
      "oper": 875,
      "thuringen": 876,
      "frei": 877,
      "##druck": 878,
      "##od": 879,
      "sollte": 880,
      "##ze": 881,
      "bereits": 882,
      "famil": 883,
      "##ium": 884,
      "##lie": 885,
      "##issen": 886,
      "##schw": 887,
      "darm": 888,
      "##nahme": 889,
      "wochen": 890,
      "##ere": 891,
      "##ase": 892,
      "bedeutet": 893,
      "##wirk": 894,
      "kom": 895,
      "vers": 896,
      "verschiedene": 897,
      "dien": 898,
      "##unktion": 899,
      "behinderung": 900,
      "##fuhr": 901,
      "schmerzen": 902,
      "##ha": 903,
      "##stens": 904,
      "##izin": 905,
      "##zentr": 906,
      "entst": 907,
      "haufig": 908,
      "##ke": 909,
      "##woh": 910,
      "##zent": 911,
      "allem": 912,
      "pf": 913,
      "intern": 914,
      "schu": 915,
      "##schutz": 916,
      "tro": 917,
      "##stoff": 918,
      "durfen": 919,
      "wahr": 920,
      "##sam": 921,
      "aut": 922,
      "acht": 923,
      "##mel": 924,
      "zusatz": 925,
      "##orden": 926,
      "##ruch": 927,
      "welche": 928,
      "##ativ": 929,
      "eltern": 930,
      "##hn": 931,
      "erhoh": 932,
      "alter": 933,
      "zwischen": 934,
      "##chsel": 935,
      "coronavirus": 936,
      "di": 937,
      "##apier": 938,
      "jahre": 939,
      "##alen": 940,
      "ober": 941,
      "##raf": 942,
      "krankenhaus": 943,
      "ju": 944,
      "##artner": 945,
      "manche": 946,
      "uhr": 947,
      "prozent": 948,
      "stand": 949,
      "##falls": 950,
      "##entzundung": 951,
      "##minister": 952,
      "##arkt": 953,
      "also": 954,
      "hil": 955,
      "chr": 956,
      "diesem": 957,
      "nie": 958,
      "offen": 959,
      "##br": 960,
      "geburt": 961,
      "diesen": 962,
      "##eht": 963,
      "gehoren": 964,
      "##oten": 965,
      "##genann": 966,
      "##akter": 967,
      "gei": 968,
      "magen": 969,
      "##atur": 970,
      "##eute": 971,
      "##pfl": 972,
      "##kel": 973,
      "mittel": 974,
      "form": 975,
      "##ding": 976,
      "##stat": 977,
      "bewe": 978,
      "geben": 979,
      "arbeits": 980,
      "amt": 981,
      "heraus": 982,
      "##uber": 983,
      "##bild": 984,
      "##vers": 985,
      "ausge": 986,
      "blei": 987,
      "sol": 988,
      "sogenann": 989,
      "##efon": 990,
      "schnell": 991,
      "bur": 992,
      "fest": 993,
      "pass": 994,
      "##uell": 995,
      "recht": 996,
      "sympt": 997,
      "therapie": 998,
      "##ekt": 999,
      "meist": 1000,
      "##itat": 1001,
      "##ett": 1002,
      "##beh": 1003,
      "ak": 1004,
      "hatte": 1005,
      "zeigen": 1006,
      "bar": 1007,
      "bil": 1008,
      "##ormon": 1009,
      "behandlung": 1010,
      "##anden": 1011,
      "##offe": 1012,
      "##kommen": 1013,
      "konn": 1014,
      "steht": 1015,
      "##pz": 1016,
      "denn": 1017,
      "lungen": 1018,
      "pr": 1019,
      "##bel": 1020,
      "##ossen": 1021,
      "krankheit": 1022,
      "##reiben": 1023,
      "##alle": 1024,
      "verst": 1025,
      "stellen": 1026,
      "##spr": 1027,
      "son": 1028,
      "##geld": 1029,
      "leipz": 1030,
      "##ogen": 1031,
      "stehen": 1032,
      "ex": 1033,
      "link": 1034,
      "papier": 1035,
      "sprechen": 1036,
      "##gem": 1037,
      "##lass": 1038,
      "##wend": 1039,
      "bef": 1040,
      "fragen": 1041,
      "lang": 1042,
      "infektion": 1043,
      "verd": 1044,
      "##euer": 1045,
      "erfol": 1046,
      "##treten": 1047,
      "##angen": 1048,
      "##arbeiter": 1049,
      "arbeiten": 1050,
      "neuen": 1051,
      "brauchen": 1052,
      "telefon": 1053,
      "##esse": 1054,
      "202": 1055,
      "art": 1056,
      "##reg": 1057,
      "##burg": 1058,
      "kurz": 1059,
      "einige": 1060,
      "norm": 1061,
      "##hy": 1062,
      "einz": 1063,
      "eben": 1064,
      "rau": 1065,
      "kosten": 1066,
      "kap": 1067,
      "##agte": 1068,
      "arz": 1069,
      "habe": 1070,
      "gest": 1071,
      "##eiten": 1072,
      "##nahmen": 1073,
      "achtung": 1074,
      "einge": 1075,
      "schild": 1076,
      "##setz": 1077,
      "##geln": 1078,
      "fahrzeug": 1079,
      "pru": 1080,
      "##af": 1081,
      "##ost": 1082,
      "##kehr": 1083,
      "landes": 1084,
      "##wirkungen": 1085,
      "19": 1086,
      "gesetz": 1087,
      "##iess": 1088,
      "##dung": 1089,
      "##ungsst": 1090,
      "risiko": 1091,
      "ter": 1092,
      "##kon": 1093,
      "##enden": 1094,
      "##los": 1095,
      "nam": 1096,
      "ru": 1097,
      "tre": 1098,
      "veran": 1099,
      "##annt": 1100,
      "chron": 1101,
      "kar": 1102,
      "##stellt": 1103,
      "personalausweis": 1104,
      "ne": 1105,
      "bauch": 1106,
      "gleich": 1107,
      "hoch": 1108,
      "##uten": 1109,
      "##licher": 1110,
      "sta": 1111,
      "bestimmte": 1112,
      "schilddrus": 1113,
      "##laub": 1114,
      "kunst": 1115,
      "##ock": 1116,
      "su": 1117,
      "##ieh": 1118,
      "##stem": 1119,
      "anzeichen": 1120,
      "##schafts": 1121,
      "gemein": 1122,
      "fach": 1123,
      "##asst": 1124,
      "gemacht": 1125,
      "##ert": 1126,
      "##stellung": 1127,
      "##dur": 1128,
      "##ute": 1129,
      "##itik": 1130,
      "betroffenen": 1131,
      "##urkunde": 1132,
      "bakter": 1133,
      "bundesland": 1134,
      "##iessen": 1135,
      "sagt": 1136,
      "test": 1137,
      "##enz": 1138,
      "empf": 1139,
      "##inden": 1140,
      "waren": 1141,
      "##suchung": 1142,
      "##urs": 1143,
      "ausserdem": 1144,
      "zahl": 1145,
      "##heiten": 1146,
      "har": 1147,
      "qu": 1148,
      "sof": 1149,
      "##ischer": 1150,
      "##merz": 1151,
      "fuhrt": 1152,
      "sagte": 1153,
      "verw": 1154,
      "erw": 1155,
      "15": 1156,
      "##haut": 1157,
      "schleim": 1158,
      "lesen": 1159,
      "##ochen": 1160,
      "##schmerzen": 1161,
      "##mus": 1162,
      "##zug": 1163,
      "fallen": 1164,
      "sonder": 1165,
      "##ib": 1166,
      "abge": 1167,
      "wegen": 1168,
      "jugend": 1169,
      "mel": 1170,
      "##letz": 1171,
      "jedoch": 1172,
      "##im": 1173,
      "leich": 1174,
      "##blem": 1175,
      "urk": 1176,
      "12": 1177,
      "##rie": 1178,
      "##achst": 1179,
      "anmel": 1180,
      "##olle": 1181,
      "medizin": 1182,
      "leipzig": 1183,
      "wissen": 1184,
      "##darm": 1185,
      "ern": 1186,
      "weniger": 1187,
      "ehe": 1188,
      "ganz": 1189,
      "zun": 1190,
      "unterst": 1191,
      "besser": 1192,
      "besonders": 1193,
      "kop": 1194,
      "mein": 1195,
      "##kte": 1196,
      "reg": 1197,
      "kontakt": 1198,
      "forder": 1199,
      "will": 1200,
      "##inger": 1201,
      "sport": 1202,
      "gesagt": 1203,
      "##gebot": 1204,
      "##stellen": 1205,
      "lange": 1206,
      "##ckt": 1207,
      "termin": 1208,
      "##ker": 1209,
      "##schied": 1210,
      "ort": 1211,
      "folgen": 1212,
      "##pass": 1213,
      "##ember": 1214,
      "verander": 1215,
      "par": 1216,
      "##ss": 1217,
      "bru": 1218,
      "##koh": 1219,
      "hatten": 1220,
      "##sucht": 1221,
      "mund": 1222,
      "moch": 1223,
      "##essen": 1224,
      "bean": 1225,
      "##sa": 1226,
      "##achten": 1227,
      "geht": 1228,
      "wasser": 1229,
      "##aden": 1230,
      "##kreis": 1231,
      "internet": 1232,
      "##gehen": 1233,
      "gelenk": 1234,
      "selten": 1235,
      "##icherung": 1236,
      "unterschied": 1237,
      "laut": 1238,
      "erhalten": 1239,
      "##reichen": 1240,
      "##gesetz": 1241,
      "reise": 1242,
      "pflege": 1243,
      "daten": 1244,
      "##ziel": 1245,
      "##ande": 1246,
      "fa": 1247,
      "hau": 1248,
      "##els": 1249,
      "gefahr": 1250,
      "verf": 1251,
      "dan": 1252,
      "##iss": 1253,
      "hormon": 1254,
      "##othe": 1255,
      "##werk": 1256,
      "patient": 1257,
      "##kohol": 1258,
      "##lu": 1259,
      "etwas": 1260,
      "zusatzlich": 1261,
      "mass": 1262,
      "##ssen": 1263,
      "##sweise": 1264,
      "wechsel": 1265,
      "##if": 1266,
      "##iden": 1267,
      "##macht": 1268,
      "##set": 1269,
      "entw": 1270,
      "##massig": 1271,
      "wicht": 1272,
      "##ote": 1273,
      "sicher": 1274,
      "##rift": 1275,
      "imm": 1276,
      "##dien": 1277,
      "##lauf": 1278,
      "alkohol": 1279,
      "zuruck": 1280,
      "##000": 1281,
      "##ruppe": 1282,
      "gesundheits": 1283,
      "mitarbeiter": 1284,
      "typ": 1285,
      "##keiten": 1286,
      "##vent": 1287,
      "##unft": 1288,
      "anf": 1289,
      "##irn": 1290,
      "schwanger": 1291,
      "##system": 1292,
      "klein": 1293,
      "operation": 1294,
      "dir": 1295,
      "tum": 1296,
      "##sprechen": 1297,
      "spe": 1298,
      "##wert": 1299,
      "##schlossen": 1300,
      "regeln": 1301,
      "normal": 1302,
      "worden": 1303,
      "##iren": 1304,
      "dres": 1305,
      "erkrankung": 1306,
      "verhut": 1307,
      "namlich": 1308,
      "##erin": 1309,
      "schmerz": 1310,
      "##dings": 1311,
      "##ften": 1312,
      "##stoffe": 1313,
      "berat": 1314,
      "montag": 1315,
      "fuhren": 1316,
      "rund": 1317,
      "##hol": 1318,
      "##ummer": 1319,
      "##erkrank": 1320,
      "##igte": 1321,
      "##genommen": 1322,
      "##ierte": 1323,
      "##ionen": 1324,
      "bron": 1325,
      "knochen": 1326,
      "allerdings": 1327,
      "gallen": 1328,
      "zahn": 1329,
      "inner": 1330,
      "##ika": 1331,
      "atem": 1332,
      "mehrere": 1333,
      "genau": 1334,
      "familien": 1335,
      "dah": 1336,
      "zahlen": 1337,
      "##schu": 1338,
      "##legen": 1339,
      "darf": 1340,
      "##gangen": 1341,
      "##az": 1342,
      "##ug": 1343,
      "##arz": 1344,
      "entschei": 1345,
      "sofort": 1346,
      "##bes": 1347,
      "##rad": 1348,
      "##ular": 1349,
      "bronch": 1350,
      "app": 1351,
      "hilfe": 1352,
      "##zentrum": 1353,
      "symptome": 1354,
      "hu": 1355,
      "##abe": 1356,
      "##ian": 1357,
      "##hrom": 1358,
      "##arten": 1359,
      "##raft": 1360,
      "anderem": 1361,
      "wahrend": 1362,
      "##durch": 1363,
      "entwick": 1364,
      "immun": 1365,
      "##sf": 1366,
      "##rat": 1367,
      "##ph": 1368,
      "ausland": 1369,
      "##verb": 1370,
      "##iehen": 1371,
      "beruf": 1372,
      "##immt": 1373,
      "behinderungen": 1374,
      "lu": 1375,
      "##pfen": 1376,
      "##erv": 1377,
      "##aufen": 1378,
      "lebenshilfe": 1379,
      "##gemein": 1380,
      "bakterien": 1381,
      "langer": 1382,
      "nah": 1383,
      "##unkt": 1384,
      "##klarung": 1385,
      "ap": 1386,
      "mal": 1387,
      "##echt": 1388,
      "zulass": 1389,
      "verein": 1390,
      "problem": 1391,
      "halten": 1392,
      "at": 1393,
      "##ief": 1394,
      "auftreten": 1395,
      "##regel": 1396,
      "mensch": 1397,
      "##app": 1398,
      "bild": 1399,
      "dauer": 1400,
      "heil": 1401,
      "pra": 1402,
      "ven": 1403,
      "verg": 1404,
      "geburts": 1405,
      "einzel": 1406,
      "adr": 1407,
      "##von": 1408,
      "##itten": 1409,
      "produ": 1410,
      "entzundung": 1411,
      "##grund": 1412,
      "ebenfalls": 1413,
      "letz": 1414,
      "wahl": 1415,
      "##olog": 1416,
      "kopf": 1417,
      "benot": 1418,
      "##funktion": 1419,
      "##orungen": 1420,
      "##asiden": 1421,
      "##arf": 1422,
      "##ehn": 1423,
      "liegt": 1424,
      "ursache": 1425,
      "burger": 1426,
      "sondern": 1427,
      "on": 1428,
      "##ade": 1429,
      "innen": 1430,
      "##oche": 1431,
      "keinen": 1432,
      "##pflicht": 1433,
      "mochten": 1434,
      "##hromb": 1435,
      "ast": 1436,
      "fir": 1437,
      "tun": 1438,
      "##hang": 1439,
      "##ack": 1440,
      "##met": 1441,
      "##pft": 1442,
      "##orgen": 1443,
      "organ": 1444,
      "unserem": 1445,
      "2g": 1446,
      "macht": 1447,
      "##gesch": 1448,
      "beispielsweise": 1449,
      "##ont": 1450,
      "##orn": 1451,
      "##tens": 1452,
      "ersten": 1453,
      "apothe": 1454,
      "10": 1455,
      "##ennen": 1456,
      "##chten": 1457,
      "##unf": 1458,
      "verurs": 1459,
      "##utter": 1460,
      "weihn": 1461,
      "##eg": 1462,
      "##lage": 1463,
      "##voll": 1464,
      "##ichten": 1465,
      "europ": 1466,
      "seh": 1467,
      "##icken": 1468,
      "##eiden": 1469,
      "##tra": 1470,
      "##ille": 1471,
      "##webe": 1472,
      "coronare": 1473,
      "sach": 1474,
      "##iot": 1475,
      "##uter": 1476,
      "##inken": 1477,
      "versch": 1478,
      "don": 1479,
      "ema": 1480,
      "fuss": 1481,
      "##ingt": 1482,
      "##anzen": 1483,
      "##gew": 1484,
      "##weisen": 1485,
      "betreu": 1486,
      "##ahlt": 1487,
      "##prache": 1488,
      "medikament": 1489,
      "onlin": 1490,
      "11": 1491,
      "##glie": 1492,
      "##wehr": 1493,
      "bet": 1494,
      "##spie": 1495,
      "demon": 1496,
      "##ucher": 1497,
      "##losen": 1498,
      "asth": 1499,
      "##ho": 1500,
      "##erk": 1501,
      "coronaregeln": 1502,
      "##erschein": 1503,
      "##ald": 1504,
      "anste": 1505,
      "zudem": 1506,
      "##utzt": 1507,
      "deutschen": 1508,
      "tumor": 1509,
      "18": 1510,
      "for": 1511,
      "mdr": 1512,
      "sit": 1513,
      "angeb": 1514,
      "besteht": 1515,
      "##iehungs": 1516,
      "sachen": 1517,
      "##enn": 1518,
      "##leist": 1519,
      "behandelt": 1520,
      "chem": 1521,
      "trotz": 1522,
      "bleiben": 1523,
      "daher": 1524,
      "nun": 1525,
      "##inf": 1526,
      "##schn": 1527,
      "essen": 1528,
      "einfacher": 1529,
      "##richtungen": 1530,
      "woche": 1531,
      "##ank": 1532,
      "end": 1533,
      "14r": 1534,
      "entstehen": 1535,
      "##dienst": 1536,
      "##eren": 1537,
      "##rage": 1538,
      "##indern": 1539,
      "deutsche": 1540,
      "email": 1541,
      "tage": 1542,
      "##krebs": 1543,
      "##uren": 1544,
      "erforder": 1545,
      "seien": 1546,
      "##io": 1547,
      "##unge": 1548,
      "seine": 1549,
      "vielen": 1550,
      "zunachst": 1551,
      "##aschen": 1552,
      "##tlich": 1553,
      "##qu": 1554,
      "verk": 1555,
      "##agn": 1556,
      "##standig": 1557,
      "gross": 1558,
      "##versicherung": 1559,
      "##19": 1560,
      "##angebot": 1561,
      "##dern": 1562,
      "augen": 1563,
      "##trau": 1564,
      "allen": 1565,
      "##ziden": 1566,
      "unsere": 1567,
      "minister": 1568,
      "##ruppen": 1569,
      "papiere": 1570,
      "200": 1571,
      "heute": 1572,
      "vier": 1573,
      "##hin": 1574,
      "##ide": 1575,
      "##inge": 1576,
      "##geber": 1577,
      "##ampf": 1578,
      "##ablet": 1579,
      "infos": 1580,
      "dieses": 1581,
      "##ac": 1582,
      "##ober": 1583,
      "##par": 1584,
      "##chs": 1585,
      "##stalt": 1586,
      "stunden": 1587,
      "##osit": 1588,
      "verschiedenen": 1589,
      "##sicht": 1590,
      "##ure": 1591,
      "##lecht": 1592,
      "erk": 1593,
      "ausweis": 1594,
      "##omp": 1595,
      "ursachen": 1596,
      "dienstag": 1597,
      "##nungs": 1598,
      "##esprache": 1599,
      "##ehl": 1600,
      "##reger": 1601,
      "minde": 1602,
      "angaben": 1603,
      "fre": 1604,
      "per": 1605,
      "##emen": 1606,
      "##einigung": 1607,
      "hinter": 1608,
      "entzund": 1609,
      "##bildung": 1610,
      "konnten": 1611,
      "harn": 1612,
      "tagen": 1613,
      "##isten": 1614,
      "##neh": 1615,
      "statt": 1616,
      "##beschein": 1617,
      "entfer": 1618,
      "##ull": 1619,
      "##ive": 1620,
      "allgemein": 1621,
      "grosse": 1622,
      "fruher": 1623,
      "dresden": 1624,
      "adresse": 1625,
      "demonstr": 1626,
      "50": 1627,
      "kunden": 1628,
      "##ow": 1629,
      "davon": 1630,
      "##zeitig": 1631,
      "nebenwirkungen": 1632,
      "europa": 1633,
      "eher": 1634,
      "gab": 1635,
      "klin": 1636,
      "##dro": 1637,
      "stud": 1638,
      "##recht": 1639,
      "blutdruck": 1640,
      "arzte": 1641,
      "nutzen": 1642,
      "zehn": 1643,
      "##fung": 1644,
      "hilft": 1645,
      "weihnacht": 1646,
      "kult": 1647,
      "ren": 1648,
      "thromb": 1649,
      "##hor": 1650,
      "##gie": 1651,
      "##erweise": 1652,
      "schreiben": 1653,
      "##einander": 1654,
      "politik": 1655,
      "kleine": 1656,
      "##bau": 1657,
      "##ende": 1658,
      "##chn": 1659,
      "##isk": 1660,
      "vorher": 1661,
      "##impf": 1662,
      "##lander": 1663,
      "##eile": 1664,
      "##eilen": 1665,
      "ind": 1666,
      "beein": 1667,
      "einfachesprache": 1668,
      "online": 1669,
      "##bescheinigung": 1670,
      "einfachespracheangebot": 1671,
      "kal": 1672,
      "##eig": 1673,
      "hinweis": 1674,
      "monate": 1675,
      "##zidenz": 1676,
      "30": 1677,
      "doch": 1678,
      "fot": 1679,
      "funf": 1680,
      "ph": 1681,
      "##infektion": 1682,
      "verletz": 1683,
      "antib": 1684,
      "belast": 1685,
      "sogenannte": 1686,
      "brust": 1687,
      "##asident": 1688,
      "tat": 1689,
      "intens": 1690,
      "gegeben": 1691,
      "##gelenk": 1692,
      "##schliessen": 1693,
      "##angt": 1694,
      "16": 1695,
      "##opf": 1696,
      "unternehmen": 1697,
      "wenig": 1698,
      "darauf": 1699,
      "pfl": 1700,
      "##egt": 1701,
      "erken": 1702,
      "regelmassig": 1703,
      "lebensmittel": 1704,
      "##ovid": 1705,
      "richt": 1706,
      "##lagen": 1707,
      "##kunft": 1708,
      "beschaft": 1709,
      "##bereich": 1710,
      "##uhren": 1711,
      "##gebnis": 1712,
      "##fluss": 1713,
      "ende": 1714,
      "##ministerium": 1715,
      "fort": 1716,
      "lander": 1717,
      "mich": 1718,
      "off": 1719,
      "##ieber": 1720,
      "##stelle": 1721,
      "betrie": 1722,
      "bisher": 1723,
      "kopie": 1724,
      "direkt": 1725,
      "du": 1726,
      "tragen": 1727,
      "##unsch": 1728,
      "##arb": 1729,
      "##andem": 1730,
      "muskel": 1731,
      "##blut": 1732,
      "erhoht": 1733,
      "##sm": 1734,
      "##walt": 1735,
      "denen": 1736,
      "kontr": 1737,
      "personlich": 1738,
      "beraten": 1739,
      "grun": 1740,
      "husten": 1741,
      "ster": 1742,
      "##ip": 1743,
      "##cher": 1744,
      "##int": 1745,
      "halle": 1746,
      "##sych": 1747,
      "staats": 1748,
      "reisepass": 1749,
      "nov": 1750,
      "pe": 1751,
      "##ust": 1752,
      "##mpft": 1753,
      "##rier": 1754,
      "##chte": 1755,
      "##ieten": 1756,
      "einsatz": 1757,
      "##berg": 1758,
      "nachweis": 1759,
      "untersuchung": 1760,
      "##schluss": 1761,
      "##nerstag": 1762,
      "##klus": 1763,
      "tages": 1764,
      "fruh": 1765,
      "donnerstag": 1766,
      "fle": 1767,
      "sagen": 1768,
      "sehen": 1769,
      "##stad": 1770,
      "erz": 1771,
      "untersucht": 1772,
      "##ordnung": 1773,
      "asthma": 1774,
      "covid": 1775,
      "lasst": 1776,
      "trau": 1777,
      "##ucht": 1778,
      "##deut": 1779,
      "untersch": 1780,
      "gelten": 1781,
      "weg": 1782,
      "jeder": 1783,
      "##suchen": 1784,
      "##behinder": 1785,
      "antibiot": 1786,
      "funktion": 1787,
      "welt": 1788,
      "##lungen": 1789,
      "##ussen": 1790,
      "##ard": 1791,
      "bein": 1792,
      "##terin": 1793,
      "ansp": 1794,
      "##trage": 1795,
      "stell": 1796,
      "stuhl": 1797,
      "leicht": 1798,
      "deutlich": 1799,
      "danach": 1800,
      "venen": 1801,
      "##scher": 1802,
      "beziehungs": 1803,
      "##letzt": 1804,
      "schuler": 1805,
      "vollmacht": 1806,
      "schule": 1807,
      "druck": 1808,
      "sen": 1809,
      "##ohr": 1810,
      "##fr": 1811,
      "##kr": 1812,
      "##erst": 1813,
      "##org": 1814,
      "inter": 1815,
      "##eitung": 1816,
      "spater": 1817,
      "##ellschaft": 1818,
      "weiteren": 1819,
      "grosser": 1820,
      "sogenannten": 1821,
      "beziehungsweise": 1822,
      "60": 1823,
      "viren": 1824,
      "##pol": 1825,
      "beachten": 1826,
      "gewebe": 1827,
      "prostat": 1828,
      "fuhrerschein": 1829,
      "anmelden": 1830,
      "beantragen": 1831,
      "25": 1832,
      "namen": 1833,
      "##oder": 1834,
      "##bung": 1835,
      "##stein": 1836,
      "##schrank": 1837,
      "##ital": 1838,
      "schutz": 1839,
      "##riff": 1840,
      "fahren": 1841,
      "impfung": 1842,
      "##burger": 1843,
      "notwend": 1844,
      "diagn": 1845,
      "intensiv": 1846,
      "november": 1847,
      "22": 1848,
      "comp": 1849,
      "part": 1850,
      "richtig": 1851,
      "sal": 1852,
      "##hand": 1853,
      "##fol": 1854,
      "##ierten": 1855,
      "##uhrt": 1856,
      "bekommt": 1857,
      "##sprache": 1858,
      "klinik": 1859,
      "he": 1860,
      "##mog": 1861,
      "##buch": 1862,
      "##spartner": 1863,
      "voraus": 1864,
      "##serv": 1865,
      "leist": 1866,
      "##gesetzt": 1867,
      "geimpft": 1868,
      "konnte": 1869,
      "gemeinsam": 1870,
      "##rieben": 1871,
      "speziel": 1872,
      "gult": 1873,
      "mag": 1874,
      "sa": 1875,
      "alt": 1876,
      "umw": 1877,
      "schwere": 1878,
      "geschw": 1879,
      "starke": 1880,
      "tex": 1881,
      "##wohner": 1882,
      "##regierung": 1883,
      "schilddrusen": 1884,
      "innerhalb": 1885,
      "bin": 1886,
      "tablet": 1887,
      "wann": 1888,
      "##osen": 1889,
      "##form": 1890,
      "##ka": 1891,
      "##punkt": 1892,
      "##igten": 1893,
      "##reich": 1894,
      "haupt": 1895,
      "letzten": 1896,
      "nerv": 1897,
      "virus": 1898,
      "einmal": 1899,
      "##esamt": 1900,
      "besten": 1901,
      "meisten": 1902,
      "erwachsen": 1903,
      "dinge": 1904,
      "##hau": 1905,
      "##lassen": 1906,
      "##leben": 1907,
      "##schlag": 1908,
      "##zeiten": 1909,
      "bestat": 1910,
      "##heim": 1911,
      "met": 1912,
      "##pru": 1913,
      "##eigen": 1914,
      "daruber": 1915,
      "wohnen": 1916,
      "komp": 1917,
      "krebs": 1918,
      "mig": 1919,
      "##umen": 1920,
      "##stit": 1921,
      "##lichkeit": 1922,
      "##ehlen": 1923,
      "lebenspartner": 1924,
      "wirkung": 1925,
      "schulen": 1926,
      "melde": 1927,
      "urkunde": 1928,
      "beratung": 1929,
      "mindestens": 1930,
      "13": 1931,
      "fieber": 1932,
      "gast": 1933,
      "wort": 1934,
      "##aktion": 1935,
      "##nach": 1936,
      "##ane": 1937,
      "##asser": 1938,
      "bed": 1939,
      "##gegen": 1940,
      "##ahrung": 1941,
      "bereich": 1942,
      "##zeich": 1943,
      "platz": 1944,
      "liegen": 1945,
      "arthr": 1946,
      "schilddruse": 1947,
      "massnahmen": 1948,
      "##andemie": 1949,
      "psych": 1950,
      "##ator": 1951,
      "spiel": 1952,
      "seiner": 1953,
      "leber": 1954,
      "aktu": 1955,
      "band": 1956,
      "che": 1957,
      "##sitz": 1958,
      "##gabe": 1959,
      "##falle": 1960,
      "entsprechen": 1961,
      "gehirn": 1962,
      "medikamenten": 1963,
      "freit": 1964,
      "##ative": 1965,
      "anstecken": 1966,
      "kultur": 1967,
      "cdu": 1968,
      "nasen": 1969,
      "##hem": 1970,
      "##mat": 1971,
      "##bruch": 1972,
      "##bed": 1973,
      "##weg": 1974,
      "kindern": 1975,
      "bescheinigung": 1976,
      "schlag": 1977,
      "bestimmten": 1978,
      "standesamt": 1979,
      "solche": 1980,
      "##setzen": 1981,
      "##aun": 1982,
      "##fte": 1983,
      "##ren": 1984,
      "##erne": 1985,
      "##rafte": 1986,
      "bahn": 1987,
      "ul": 1988,
      "##bahn": 1989,
      "##wahl": 1990,
      "##ennt": 1991,
      "##stet": 1992,
      "##eld": 1993,
      "erlau": 1994,
      "schicken": 1995,
      "aufgrund": 1996,
      "sprech": 1997,
      "##pflege": 1998,
      "##ograf": 1999,
      "##twort": 2000,
      "##atienten": 2001,
      "familie": 2002,
      "verdacht": 2003,
      "migran": 2004,
      "event": 2005,
      "##yn": 2006,
      "coronap": 2007,
      "##twoch": 2008,
      "erfurt": 2009,
      "vermeiden": 2010,
      "treten": 2011,
      "freitag": 2012,
      "##mann": 2013,
      "einnahme": 2014,
      "mittwoch": 2015,
      "##ramm": 2016,
      "##peratur": 2017,
      "##press": 2018,
      "angst": 2019,
      "trinken": 2020,
      "niedr": 2021,
      "natur": 2022,
      "##mt": 2023,
      "##person": 2024,
      "##ichtet": 2025,
      "##orge": 2026,
      "derzeit": 2027,
      "spd": 2028,
      "##haft": 2029,
      "bleibt": 2030,
      "##laubnis": 2031,
      "leichter": 2032,
      "100": 2033,
      "mill": 2034,
      "##kop": 2035,
      "nacht": 2036,
      "##utzung": 2037,
      "jugendliche": 2038,
      "##stadt": 2039,
      "computer": 2040,
      "02": 2041,
      "##pel": 2042,
      "vergangen": 2043,
      "arm": 2044,
      "formular": 2045,
      "luft": 2046,
      "covid19": 2047,
      "21": 2048,
      "il": 2049,
      "##ipp": 2050,
      "##ffe": 2051,
      "##wasser": 2052,
      "##ichte": 2053,
      "##agel": 2054,
      "##schliess": 2055,
      "##klart": 2056,
      "mogliche": 2057,
      "##itze": 2058,
      "##teilung": 2059,
      "fluss": 2060,
      "sechs": 2061,
      "benutzen": 2062,
      "urkunden": 2063,
      "##gewicht": 2064,
      "chef": 2065,
      "dig": 2066,
      "ruck": 2067,
      "##iet": 2068,
      "##schuss": 2069,
      "##iges": 2070,
      "ausreichen": 2071,
      "##rucken": 2072,
      "##ohn": 2073,
      "##ivid": 2074,
      "gebuhren": 2075,
      "steu": 2076,
      "firma": 2077,
      "individ": 2078,
      "sinn": 2079,
      "ziel": 2080,
      "##annten": 2081,
      "stelle": 2082,
      "##reise": 2083,
      "aktuell": 2084,
      "situ": 2085,
      "##staltungen": 2086,
      "posit": 2087,
      "##ift": 2088,
      "##gar": 2089,
      "##zw": 2090,
      "##sta": 2091,
      "##aren": 2092,
      "dadurch": 2093,
      "wohnung": 2094,
      "##wohl": 2095,
      "bilder": 2096,
      "nahe": 2097,
      "##bein": 2098,
      "##entr": 2099,
      "##ullen": 2100,
      "##verkehr": 2101,
      "beglaub": 2102,
      "##aktoren": 2103,
      "barrier": 2104,
      "fer": 2105,
      "feuer": 2106,
      "tier": 2107,
      "##bil": 2108,
      "##wand": 2109,
      "einigen": 2110,
      "##schleim": 2111,
      "sieben": 2112,
      "##gestellt": 2113,
      "mitglie": 2114,
      "##ager": 2115,
      "##ondere": 2116,
      "insbes": 2117,
      "besondere": 2118,
      "##setzung": 2119,
      "chronische": 2120,
      "wichtige": 2121,
      "anfang": 2122,
      "bronchitis": 2123,
      "##spiegel": 2124,
      "##nehmer": 2125,
      "insbesondere": 2126,
      "jem": 2127,
      "lau": 2128,
      "##sk": 2129,
      "##usse": 2130,
      "verfahren": 2131,
      "ergebnis": 2132,
      "##irur": 2133,
      "bestehen": 2134,
      "kostet": 2135,
      "grossen": 2136,
      "##aunus": 2137,
      "rat": 2138,
      "rad": 2139,
      "tra": 2140,
      "zentr": 2141,
      "##so": 2142,
      "##ima": 2143,
      "##ufen": 2144,
      "##nummer": 2145,
      "##lungs": 2146,
      "##kten": 2147,
      "##ball": 2148,
      "##itzen": 2149,
      "##arte": 2150,
      "##ismus": 2151,
      "##cker": 2152,
      "gehort": 2153,
      "meistens": 2154,
      "folge": 2155,
      "hoher": 2156,
      "erfolgt": 2157,
      "trotzdem": 2158,
      "jan": 2159,
      "komm": 2160,
      "##oster": 2161,
      "##arken": 2162,
      "geeig": 2163,
      "##gericht": 2164,
      "##schad": 2165,
      "gerade": 2166,
      "##baren": 2167,
      "prufung": 2168,
      "rufen": 2169,
      "barrieref": 2170,
      "24": 2171,
      "park": 2172,
      "ub": 2173,
      "beiden": 2174,
      "wert": 2175,
      "prof": 2176,
      "genesen": 2177,
      "jeden": 2178,
      "##eichel": 2179,
      "akute": 2180,
      "entscheiden": 2181,
      "probleme": 2182,
      "erforderlich": 2183,
      "mob": 2184,
      "nieren": 2185,
      "##kn": 2186,
      "deren": 2187,
      "erste": 2188,
      "ihn": 2189,
      "brief": 2190,
      "handelt": 2191,
      "renten": 2192,
      "##stitut": 2193,
      "af": 2194,
      "dun": 2195,
      "kenn": 2196,
      "##ial": 2197,
      "##th": 2198,
      "##eid": 2199,
      "##stimm": 2200,
      "zug": 2201,
      "##abil": 2202,
      "seinen": 2203,
      "krankheiten": 2204,
      "##prasident": 2205,
      "##platz": 2206,
      "##untersuchung": 2207,
      "##zept": 2208,
      "neur": 2209,
      "partei": 2210,
      "eventuell": 2211,
      "fast": 2212,
      "gl": 2213,
      "nagel": 2214,
      "##anfall": 2215,
      "##schrift": 2216,
      "bew": 2217,
      "nichts": 2218,
      "##ktur": 2219,
      "enthalten": 2220,
      "##krankheit": 2221,
      "##uhlen": 2222,
      "##teilt": 2223,
      "##abend": 2224,
      "##schnitt": 2225,
      "arthrose": 2226,
      "migrane": 2227,
      "ahn": 2228,
      "fal": 2229,
      "kor": 2230,
      "##egen": 2231,
      "##nei": 2232,
      "anw": 2233,
      "verkehr": 2234,
      "alten": 2235,
      "aussen": 2236,
      "betre": 2237,
      "alles": 2238,
      "symptom": 2239,
      "exper": 2240,
      "immunsystem": 2241,
      "erkennen": 2242,
      "kam": 2243,
      "leute": 2244,
      "mand": 2245,
      "post": 2246,
      "##zahl": 2247,
      "##ikum": 2248,
      "##undet": 2249,
      "stra": 2250,
      "##rosser": 2251,
      "bringen": 2252,
      "seite": 2253,
      "monat": 2254,
      "geschlecht": 2255,
      "##okumen": 2256,
      "karte": 2257,
      "staat": 2258,
      "schwangerschaft": 2259,
      "gruppe": 2260,
      "woll": 2261,
      "##ugung": 2262,
      "##nitz": 2263,
      "##last": 2264,
      "##mei": 2265,
      "##standen": 2266,
      "ung": 2267,
      "##esser": 2268,
      "##ema": 2269,
      "##olf": 2270,
      "sogar": 2271,
      "##weil": 2272,
      "##betr": 2273,
      "reag": 2274,
      "behinderten": 2275,
      "notig": 2276,
      "eigenen": 2277,
      "priv": 2278,
      "##wendung": 2279,
      "rauchen": 2280,
      "treffen": 2281,
      "wichtigen": 2282,
      "##intaunus": 2283,
      "gar": 2284,
      "me": 2285,
      "pille": 2286,
      "##fallen": 2287,
      "##forder": 2288,
      "##gefahr": 2289,
      "auszu": 2290,
      "##isches": 2291,
      "##verein": 2292,
      "erkrankungen": 2293,
      "2013": 2294,
      "entsteht": 2295,
      "grad": 2296,
      "mar": 2297,
      "##sh": 2298,
      "##umm": 2299,
      "##nnen": 2300,
      "##mon": 2301,
      "##pack": 2302,
      "##ven": 2303,
      "##ys": 2304,
      "einkommen": 2305,
      "##igkeiten": 2306,
      "getr": 2307,
      "##illen": 2308,
      "aufge": 2309,
      "##gelegt": 2310,
      "gesellschaft": 2311,
      "leiden": 2312,
      "##rimin": 2313,
      "findet": 2314,
      "spricht": 2315,
      "##plan": 2316,
      "klima": 2317,
      "##gefuhrt": 2318,
      "sep": 2319,
      "##ice": 2320,
      "hohe": 2321,
      "geist": 2322,
      "bewegung": 2323,
      "kapnnen": 2324,
      "##erkrankungen": 2325,
      "61": 2326,
      "bunde": 2327,
      "kre": 2328,
      "kraft": 2329,
      "merk": 2330,
      "##son": 2331,
      "##sichtig": 2332,
      "##to": 2333,
      "##lang": 2334,
      "##ron": 2335,
      "##ahmen": 2336,
      "musik": 2337,
      "##edizin": 2338,
      "bekannt": 2339,
      "moglichst": 2340,
      "##wiesen": 2341,
      "gefunden": 2342,
      "beweg": 2343,
      "bi": 2344,
      "fe": 2345,
      "glei": 2346,
      "mun": 2347,
      "partner": 2348,
      "##licht": 2349,
      "##for": 2350,
      "##fah": 2351,
      "##keits": 2352,
      "##krafte": 2353,
      "##stru": 2354,
      "##ungsp": 2355,
      "##atzen": 2356,
      "bevor": 2357,
      "ermittel": 2358,
      "werde": 2359,
      "##otz": 2360,
      "##ations": 2361,
      "##ivers": 2362,
      "dez": 2363,
      "behandeln": 2364,
      "herzinf": 2365,
      "aktiv": 2366,
      "2020": 2367,
      "geburtsurkunde": 2368,
      "##ologie": 2369,
      "umwelt": 2370,
      "gerne": 2371,
      "##gruppen": 2372,
      "##frei": 2373,
      "##ition": 2374,
      "stimm": 2375,
      "##ause": 2376,
      "##wechsel": 2377,
      "blutger": 2378,
      "genug": 2379,
      "arbeitgeber": 2380,
      "manner": 2381,
      "dienst": 2382,
      "weihnachtsm": 2383,
      "dro": 2384,
      "nimmt": 2385,
      "rahmen": 2386,
      "##ider": 2387,
      "##endet": 2388,
      "##onnen": 2389,
      "##annte": 2390,
      "erb": 2391,
      "##raum": 2392,
      "##auftrag": 2393,
      "##blatt": 2394,
      "schweren": 2395,
      "14ssen": 2396,
      "maintaunus": 2397,
      "vermehr": 2398,
      "falls": 2399,
      "##setzungen": 2400,
      "##schule": 2401,
      "35": 2402,
      "achten": 2403,
      "bank": 2404,
      "kreis": 2405,
      "lehr": 2406,
      "mil": 2407,
      "to": 2408,
      "##orgung": 2409,
      "##itter": 2410,
      "geschlossen": 2411,
      "berlin": 2412,
      "alltag": 2413,
      "schlimm": 2414,
      "auto": 2415,
      "gefahrlich": 2416,
      "sachs": 2417,
      "chemnitz": 2418,
      "notwendig": 2419,
      "lin": 2420,
      "sicht": 2421,
      "##asten": 2422,
      "##gien": 2423,
      "##finden": 2424,
      "##orung": 2425,
      "ihres": 2426,
      "##reicht": 2427,
      "untersuch": 2428,
      "strassen": 2429,
      "plotz": 2430,
      "haufiger": 2431,
      "offent": 2432,
      "arznei": 2433,
      "prufen": 2434,
      "wechselwirkungen": 2435,
      "verursacht": 2436,
      "##own": 2437,
      "dezember": 2438,
      "40": 2439,
      "bald": 2440,
      "lunge": 2441,
      "mutter": 2442,
      "nase": 2443,
      "rett": 2444,
      "##gaben": 2445,
      "##bol": 2446,
      "unfall": 2447,
      "##usst": 2448,
      "siehe": 2449,
      "beide": 2450,
      "##liches": 2451,
      "##rankt": 2452,
      "##ohlen": 2453,
      "umf": 2454,
      "##verfahren": 2455,
      "finger": 2456,
      "strom": 2457,
      "strasse": 2458,
      "##strasse": 2459,
      "verlauf": 2460,
      "krampf": 2461,
      "##erkrankung": 2462,
      "benotigen": 2463,
      "herzinfarkt": 2464,
      "17": 2465,
      "fett": 2466,
      "vide": 2467,
      "weit": 2468,
      "##mas": 2469,
      "##pra": 2470,
      "##partner": 2471,
      "##zogen": 2472,
      "bewohner": 2473,
      "anschliessen": 2474,
      "##aum": 2475,
      "zeigt": 2476,
      "schwerbehinder": 2477,
      "199": 2478,
      "##ungsstelle": 2479,
      "unterstutzen": 2480,
      "##verband": 2481,
      "##schrankungen": 2482,
      "##ografie": 2483,
      "eu": 2484,
      "##hof": 2485,
      "##des": 2486,
      "##iver": 2487,
      "##uar": 2488,
      "##ufe": 2489,
      "##therapie": 2490,
      "##zellen": 2491,
      "##ernen": 2492,
      "##under": 2493,
      "##alter": 2494,
      "anal": 2495,
      "erklar": 2496,
      "##tritt": 2497,
      "##spl": 2498,
      "##etten": 2499,
      "##etzen": 2500,
      "##reiten": 2501,
      "##verordnung": 2502,
      "##abet": 2503,
      "jeweil": 2504,
      "eng": 2505,
      "##ministerin": 2506,
      "schneller": 2507,
      "erfolgen": 2508,
      "entfernt": 2509,
      "magde": 2510,
      "januar": 2511,
      "zellen": 2512,
      "##21": 2513,
      "##iesst": 2514,
      "##scht": 2515,
      "verz": 2516,
      "verletzt": 2517,
      "erfahren": 2518,
      "schad": 2519,
      "##oss": 2520,
      "blutgef": 2521,
      "##ripp": 2522,
      "bundeslander": 2523,
      "tritt": 2524,
      "internation": 2525,
      "bilden": 2526,
      "wissenschaft": 2527,
      "verhutungs": 2528,
      "sinnvoll": 2529,
      "rettungs": 2530,
      "bruch": 2531,
      "hangt": 2532,
      "tran": 2533,
      "##affen": 2534,
      "##gruppe": 2535,
      "##rt": 2536,
      "##bin": 2537,
      "##yl": 2538,
      "einnehmen": 2539,
      "##berecht": 2540,
      "##amin": 2541,
      "##wege": 2542,
      "##nete": 2543,
      "##mitt": 2544,
      "##klin": 2545,
      "landtag": 2546,
      "##innsel": 2547,
      "gesundheit": 2548,
      "##schwache": 2549,
      "benotigt": 2550,
      "diagnose": 2551,
      "kennzeichen": 2552,
      "ei": 2553,
      "ele": 2554,
      "##storungen": 2555,
      "##isierung": 2556,
      "manchen": 2557,
      "##schaften": 2558,
      "##merk": 2559,
      "monaten": 2560,
      "##loser": 2561,
      "##ometr": 2562,
      "sonst": 2563,
      "rucken": 2564,
      "verantwort": 2565,
      "unterschiedlich": 2566,
      "verursachen": 2567,
      "politiker": 2568,
      "vergangenen": 2569,
      "##meister": 2570,
      "dick": 2571,
      "glau": 2572,
      "gute": 2573,
      "ost": 2574,
      "rolle": 2575,
      "win": 2576,
      "##man": 2577,
      "##pen": 2578,
      "##vol": 2579,
      "##indet": 2580,
      "##orben": 2581,
      "##alten": 2582,
      "erreger": 2583,
      "schei": 2584,
      "##trem": 2585,
      "blasen": 2586,
      "##halts": 2587,
      "##plant": 2588,
      "sex": 2589,
      "thuringer": 2590,
      "jedem": 2591,
      "2019": 2592,
      "bewegen": 2593,
      "2gregel": 2594,
      "apotheker": 2595,
      "thrombose": 2596,
      "grunen": 2597,
      "text": 2598,
      "nerven": 2599,
      "bedarf": 2600,
      "##iftung": 2601,
      "bundestag": 2602,
      "hande": 2603,
      "of": 2604,
      "##ia": 2605,
      "##imal": 2606,
      "##ko": 2607,
      "##ktr": 2608,
      "##beu": 2609,
      "##iter": 2610,
      "##ters": 2611,
      "vorlauf": 2612,
      "mussten": 2613,
      "##rufen": 2614,
      "unterlagen": 2615,
      "##gelassen": 2616,
      "##verletz": 2617,
      "durchfall": 2618,
      "##iste": 2619,
      "besucher": 2620,
      "welch": 2621,
      "knie": 2622,
      "legen": 2623,
      "normalerweise": 2624,
      "berufs": 2625,
      "studien": 2626,
      "sterbe": 2627,
      "disk": 2628,
      "kur": 2629,
      "lernen": 2630,
      "##samen": 2631,
      "##hoch": 2632,
      "##gb": 2633,
      "##oge": 2634,
      "##fan": 2635,
      "einrichtungen": 2636,
      "sieht": 2637,
      "##achlich": 2638,
      "schutzen": 2639,
      "##sport": 2640,
      "wirkt": 2641,
      "wirken": 2642,
      "andern": 2643,
      "zwar": 2644,
      "plan": 2645,
      "trink": 2646,
      "sonnt": 2647,
      "infektions": 2648,
      "##register": 2649,
      "leichte": 2650,
      "vergrosser": 2651,
      "beeinfl": 2652,
      "schlaganfall": 2653,
      "##mung": 2654,
      "##korper": 2655,
      "##ziehen": 2656,
      "##weit": 2657,
      "##chter": 2658,
      "##arant": 2659,
      "##bers": 2660,
      "wirt": 2661,
      "##iven": 2662,
      "weiterhin": 2663,
      "zweiten": 2664,
      "starker": 2665,
      "kindes": 2666,
      "erhohen": 2667,
      "unterschiedliche": 2668,
      "angebote": 2669,
      "kontroll": 2670,
      "##folge": 2671,
      "ausreichend": 2672,
      "hy": 2673,
      "lage": 2674,
      "ol": 2675,
      "rein": 2676,
      "wider": 2677,
      "zy": 2678,
      "##fern": 2679,
      "##one": 2680,
      "##igungs": 2681,
      "ged": 2682,
      "impfen": 2683,
      "##etsch": 2684,
      "gespr": 2685,
      "gelangen": 2686,
      "stefan": 2687,
      "hinweise": 2688,
      "landkreis": 2689,
      "schliess": 2690,
      "##arbeiten": 2691,
      "2021": 2692,
      "##bedingt": 2693,
      "##schleimhaut": 2694,
      "effe": 2695,
      "rel": 2696,
      "##keln": 2697,
      "##igkeits": 2698,
      "##auern": 2699,
      "##etin": 2700,
      "vorlie": 2701,
      "abs": 2702,
      "##schaden": 2703,
      "hals": 2704,
      "reiz": 2705,
      "allerg": 2706,
      "kretsch": 2707,
      "erfolg": 2708,
      "gleichzeitig": 2709,
      "quarant": 2710,
      "schleimhaut": 2711,
      "verfugung": 2712,
      "zulassungs": 2713,
      "tabletten": 2714,
      "cop": 2715,
      "##ael": 2716,
      "##20": 2717,
      "##eite": 2718,
      "##hren": 2719,
      "##ichts": 2720,
      "abwehr": 2721,
      "##krankheiten": 2722,
      "bundesregierung": 2723,
      "thema": 2724,
      "hormone": 2725,
      "##holen": 2726,
      "##drom": 2727,
      "leistungen": 2728,
      "anschliessend": 2729,
      "elektr": 2730,
      "gripp": 2731,
      "rot": 2732,
      "the": 2733,
      "##ieb": 2734,
      "##innt": 2735,
      "##anzei": 2736,
      "##schul": 2737,
      "##eldet": 2738,
      "##sein": 2739,
      "vorsprache": 2740,
      "##ikation": 2741,
      "##reiche": 2742,
      "nachsten": 2743,
      "##tzund": 2744,
      "##nisse": 2745,
      "beginn": 2746,
      "moglichkeit": 2747,
      "vermie": 2748,
      "vollstandig": 2749,
      "frie": 2750,
      "kleinen": 2751,
      "kundenzentrum": 2752,
      "##blutung": 2753,
      "prostata": 2754,
      "millionen": 2755,
      "steuer": 2756,
      "copd": 2757,
      "bab": 2758,
      "jen": 2759,
      "oben": 2760,
      "sgb": 2761,
      "##sd": 2762,
      "##not": 2763,
      "##markt": 2764,
      "##fra": 2765,
      "##inzidenz": 2766,
      "##stuhl": 2767,
      "##orten": 2768,
      "inzidenz": 2769,
      "beteil": 2770,
      "anwendung": 2771,
      "zuge": 2772,
      "ausstellung": 2773,
      "auslosen": 2774,
      "stei": 2775,
      "spie": 2776,
      "leisten": 2777,
      "coronat": 2778,
      "gewalt": 2779,
      "max": 2780,
      "konto": 2781,
      "verandert": 2782,
      "situation": 2783,
      "kretschmer": 2784,
      "3g": 2785,
      "95": 2786,
      "atel": 2787,
      "ham": 2788,
      "pc": 2789,
      "rh": 2790,
      "ziehen": 2791,
      "##uz": 2792,
      "##ffer": 2793,
      "##zet": 2794,
      "##ww": 2795,
      "##orde": 2796,
      "zustand": 2797,
      "sod": 2798,
      "menge": 2799,
      "##beut": 2800,
      "abgeben": 2801,
      "##mals": 2802,
      "stress": 2803,
      "halt": 2804,
      "wirkstoff": 2805,
      "##hohlen": 2806,
      "jedes": 2807,
      "folgende": 2808,
      "##setzt": 2809,
      "produz": 2810,
      "apotheke": 2811,
      "michael": 2812,
      "##ummern": 2813,
      "krampfa": 2814,
      "sonntag": 2815,
      "atelier": 2816,
      "bieten": 2817,
      "falle": 2818,
      "koron": 2819,
      "mot": 2820,
      "roll": 2821,
      "tem": 2822,
      "ubel": 2823,
      "wunde": 2824,
      "##uchen": 2825,
      "##mar": 2826,
      "##schall": 2827,
      "ausbildung": 2828,
      "##iker": 2829,
      "##reifen": 2830,
      "arztin": 2831,
      "bremen": 2832,
      "##altung": 2833,
      "##mitteln": 2834,
      "##mpfte": 2835,
      "verbind": 2836,
      "angehor": 2837,
      "##zentren": 2838,
      "wahrschein": 2839,
      "bildet": 2840,
      "chronischen": 2841,
      "##saure": 2842,
      "##lustr": 2843,
      "##traschall": 2844,
      "##frist": 2845,
      "komplet": 2846,
      "ultraschall": 2847,
      "illustr": 2848,
      "##spiegelung": 2849,
      "quarantane": 2850,
      "has": 2851,
      "klei": 2852,
      "##bru": 2853,
      "##pes": 2854,
      "##30": 2855,
      "inhal": 2856,
      "ausf": 2857,
      "##reitet": 2858,
      "##omat": 2859,
      "##fekt": 2860,
      "betreuer": 2861,
      "geworden": 2862,
      "kompl": 2863,
      "krankenhauser": 2864,
      "unterstutzung": 2865,
      "##schulen": 2866,
      "kopfschmerzen": 2867,
      "##egister": 2868,
      "betreuung": 2869,
      "ministerprasident": 2870,
      "##nungszeiten": 2871,
      "landern": 2872,
      "stellt": 2873,
      "##kret": 2874,
      "spezielle": 2875,
      "barrierefrei": 2876,
      "coronatest": 2877,
      "bus": 2878,
      "lindern": 2879,
      "nor": 2880,
      "okt": 2881,
      "zie": 2882,
      "##anc": 2883,
      "univers": 2884,
      "##als": 2885,
      "##igungen": 2886,
      "verlau": 2887,
      "stoff": 2888,
      "mehreren": 2889,
      "bislang": 2890,
      "hervor": 2891,
      "##atze": 2892,
      "krankheits": 2893,
      "##aster": 2894,
      "##linien": 2895,
      "verbesser": 2896,
      "eigene": 2897,
      "##wohn": 2898,
      "krankenhausern": 2899,
      "rechts": 2900,
      "belastung": 2901,
      "sprecher": 2902,
      "jemand": 2903,
      "profess": 2904,
      "geistiger": 2905,
      "ermittelt": 2906,
      "blutgerinnsel": 2907,
      "oktober": 2908,
      "bander": 2909,
      "ev": 2910,
      "eis": 2911,
      "mas": 2912,
      "nation": 2913,
      "ra": 2914,
      "##ay": 2915,
      "##mark": 2916,
      "##racht": 2917,
      "##park": 2918,
      "##zus": 2919,
      "##war": 2920,
      "##will": 2921,
      "##xis": 2922,
      "##eitet": 2923,
      "##stau": 2924,
      "##alitat": 2925,
      "and": 2926,
      "ermog": 2927,
      "schrift": 2928,
      "##mmel": 2929,
      "albers": 2930,
      "##ison": 2931,
      "##besch": 2932,
      "##iziert": 2933,
      "verloren": 2934,
      "braucht": 2935,
      "##jahrige": 2936,
      "##tests": 2937,
      "techn": 2938,
      "wohngeld": 2939,
      "diabet": 2940,
      "akuten": 2941,
      "suchen": 2942,
      "firmen": 2943,
      "entzundungen": 2944,
      "entfernen": 2945,
      "fleetin": 2946,
      "antibiotika": 2947,
      "fersen": 2948,
      "magdeburg": 2949,
      "##zettel": 2950,
      "illustrator": 2951,
      "fleetinsel": 2952,
      "80": 2953,
      "frank": 2954,
      "ss": 2955,
      "zah": 2956,
      "auge": 2957,
      "verschw": 2958,
      "ersch": 2959,
      "##sehen": 2960,
      "ausloser": 2961,
      "##veran": 2962,
      "krankenk": 2963,
      "##astik": 2964,
      "genu": 2965,
      "gener": 2966,
      "##zisten": 2967,
      "##heimer": 2968,
      "antik": 2969,
      "versamm": 2970,
      "##habe": 2971,
      "nieder": 2972,
      "kunstler": 2973,
      "region": 2974,
      "dauert": 2975,
      "##zwischen": 2976,
      "##hochdruck": 2977,
      "65": 2978,
      "buch": 2979,
      "dos": 2980,
      "vater": 2981,
      "##hil": 2982,
      "##drucken": 2983,
      "##feld": 2984,
      "##ritten": 2985,
      "##kraft": 2986,
      "aug": 2987,
      "erlaubnis": 2988,
      "erklart": 2989,
      "##tracht": 2990,
      "##sex": 2991,
      "##reie": 2992,
      "abstand": 2993,
      "beglei": 2994,
      "polizisten": 2995,
      "gefass": 2996,
      "hause": 2997,
      "fussball": 2998,
      "erwachsene": 2999,
      "rentenversicherung": 3000,
      "verkehrs": 3001,
      "bo": 3002,
      "sin": 3003,
      "##seite": 3004,
      "##gramm": 3005,
      "##kund": 3006,
      "##err": 3007,
      "erwei": 3008,
      "##verg": 3009,
      "anders": 3010,
      "##abhang": 3011,
      "##opfen": 3012,
      "daran": 3013,
      "gebarm": 3014,
      "moglichen": 3015,
      "hinaus": 3016,
      "##load": 3017,
      "##syn": 3018,
      "notfall": 3019,
      "ernahrung": 3020,
      "##gehend": 3021,
      "demonstration": 3022,
      "kalte": 3023,
      "ansprech": 3024,
      "##pruft": 3025,
      "gebarmutter": 3026,
      "fehl": 3027,
      "ib": 3028,
      "los": 3029,
      "pandemie": 3030,
      "##sorge": 3031,
      "##machen": 3032,
      "##ki": 3033,
      "##patienten": 3034,
      "##zy": 3035,
      "##jekt": 3036,
      "bezeich": 3037,
      "zuvor": 3038,
      "zufolge": 3039,
      "##agung": 3040,
      "##serreger": 3041,
      "weiss": 3042,
      "##rauch": 3043,
      "gehei": 3044,
      "##wegen": 3045,
      "schluss": 3046,
      "begunst": 3047,
      "ord": 3048,
      "##teilte": 3049,
      "grundsatz": 3050,
      "frem": 3051,
      "kombin": 3052,
      "passiert": 3053,
      "kostenlos": 3054,
      "##ocker": 3055,
      "verwenden": 3056,
      "##vention": 3057,
      "gallenstein": 3058,
      "##hode": 3059,
      "foto": 3060,
      "flussigkeit": 3061,
      "digital": 3062,
      "plotzlich": 3063,
      "trinkwasser": 3064,
      "##beutel": 3065,
      "rollstuhl": 3066,
      "ubelkeit": 3067,
      "em": 3068,
      "fert": 3069,
      "kaufen": 3070,
      "liste": 3071,
      "mark": 3072,
      "morgen": 3073,
      "ront": 3074,
      "sam": 3075,
      "taus": 3076,
      "teilen": 3077,
      "##dip": 3078,
      "##zess": 3079,
      "##erinnen": 3080,
      "inklus": 3081,
      "schaden": 3082,
      "##rochen": 3083,
      "##ikel": 3084,
      "##serklarung": 3085,
      "wenige": 3086,
      "entsp": 3087,
      "##zeigt": 3088,
      "##abor": 3089,
      "darin": 3090,
      "##gesamt": 3091,
      "zeichen": 3092,
      "teilweise": 3093,
      "klar": 3094,
      "insgesamt": 3095,
      "##scheiden": 3096,
      "##urkunden": 3097,
      "##jahrigen": 3098,
      "##ativen": 3099,
      "##bringen": 3100,
      "##hys": 3101,
      "raum": 3102,
      "neg": 3103,
      "##ratet": 3104,
      "verletzungen": 3105,
      "##service": 3106,
      "straft": 3107,
      "##tzundungen": 3108,
      "rontgen": 3109,
      "hor": 3110,
      "jod": 3111,
      "res": 3112,
      "##zheimer": 3113,
      "##iegen": 3114,
      "##eiche": 3115,
      "##artet": 3116,
      "zugelassen": 3117,
      "##auft": 3118,
      "beipack": 3119,
      "alzheimer": 3120,
      "##ikationen": 3121,
      "##gere": 3122,
      "redu": 3123,
      "##verstand": 3124,
      "##oskop": 3125,
      "flucht": 3126,
      "##arbeitet": 3127,
      "verlust": 3128,
      "##gangs": 3129,
      "##behand": 3130,
      "krankheitserreger": 3131,
      "anmeldung": 3132,
      "##arbeit": 3133,
      "binde": 3134,
      "individuell": 3135,
      "##ownload": 3136,
      "grippe": 3137,
      "beipackzettel": 3138,
      "download": 3139,
      "hot": 3140,
      "ide": 3141,
      "nahr": 3142,
      "passen": 3143,
      "vit": 3144,
      "wunsch": 3145,
      "##hmt": 3146,
      "##griff": 3147,
      "##no": 3148,
      "##utt": 3149,
      "##isiert": 3150,
      "##amten": 3151,
      "##spe": 3152,
      "##indert": 3153,
      "herunter": 3154,
      "warme": 3155,
      "bluthochdruck": 3156,
      "##mittag": 3157,
      "finanz": 3158,
      "jede": 3159,
      "##gefuhl": 3160,
      "##isiko": 3161,
      "minuten": 3162,
      "verlanger": 3163,
      "##richtung": 3164,
      "wohnsitz": 3165,
      "2022": 3166,
      "ebenso": 3167,
      "veranstaltungen": 3168,
      "verandern": 3169,
      "eheregister": 3170,
      "offnungszeiten": 3171,
      "unterschreiben": 3172,
      "intensivst": 3173,
      "aktuellen": 3174,
      "bandschei": 3175,
      "##ippen": 3176,
      "anwenden": 3177,
      "offentlichen": 3178,
      "dop": 3179,
      "messen": 3180,
      "pa": 3181,
      "##lt": 3182,
      "##kde": 3183,
      "eingesetzt": 3184,
      "unbedingt": 3185,
      "##orgt": 3186,
      "bewer": 3187,
      "##tert": 3188,
      "##leg": 3189,
      "arten": 3190,
      "##eum": 3191,
      "##euten": 3192,
      "ubertragen": 3193,
      "enthalt": 3194,
      "##kenn": 3195,
      "geboren": 3196,
      "ihm": 3197,
      "schlaf": 3198,
      "schwell": 3199,
      "moglicherweise": 3200,
      "impfstoff": 3201,
      "hilf": 3202,
      "bauchsp": 3203,
      "beeintracht": 3204,
      "##ohre": 3205,
      "##irurgie": 3206,
      "##stimmung": 3207,
      "video": 3208,
      "glauben": 3209,
      "##hmtkde": 3210,
      "co": 3211,
      "fehlen": 3212,
      "netz": 3213,
      "nennt": 3214,
      "tats": 3215,
      "tod": 3216,
      "##ct": 3217,
      "##iose": 3218,
      "##leit": 3219,
      "##medizin": 3220,
      "##institut": 3221,
      "##steuer": 3222,
      "##orl": 3223,
      "##orf": 3224,
      "inzwischen": 3225,
      "zukunft": 3226,
      "##lex": 3227,
      "##lechter": 3228,
      "ermitt": 3229,
      "beitrag": 3230,
      "aufent": 3231,
      "starken": 3232,
      "##ehm": 3233,
      "##reibt": 3234,
      "##ienen": 3235,
      "##ranz": 3236,
      "uberlast": 3237,
      "anderes": 3238,
      "blase": 3239,
      "##neten": 3240,
      "beginnt": 3241,
      "schwier": 3242,
      "bezahlt": 3243,
      "##temperatur": 3244,
      "##druse": 3245,
      "verdau": 3246,
      "atemwege": 3247,
      "##leistungen": 3248,
      "richtige": 3249,
      "gultig": 3250,
      "lebenspartnerschafts": 3251,
      "geeignet": 3252,
      "munchen": 3253,
      "antikorper": 3254,
      "bauchspeichel": 3255,
      "faktoren": 3256,
      "jung": 3257,
      "junge": 3258,
      "kaum": 3259,
      "laufen": 3260,
      "##fot": 3261,
      "##falt": 3262,
      "##fels": 3263,
      "##ina": 3264,
      "##eichen": 3265,
      "##anwalt": 3266,
      "##ese": 3267,
      "geschafts": 3268,
      "verr": 3269,
      "erklarung": 3270,
      "alte": 3271,
      "altern": 3272,
      "##reisen": 3273,
      "##beding": 3274,
      "##vertrag": 3275,
      "##rise": 3276,
      "stren": 3277,
      "urin": 3278,
      "gren": 3279,
      "##tages": 3280,
      "brauche": 3281,
      "lungenentzundung": 3282,
      "wechseljahr": 3283,
      "entwicklung": 3284,
      "sehnen": 3285,
      "##impfung": 3286,
      "lebenspartnerschaft": 3287,
      "experten": 3288,
      "##klinik": 3289,
      "##syndrom": 3290,
      "bran": 3291,
      "gruppen": 3292,
      "rober": 3293,
      "##enfalls": 3294,
      "##ieg": 3295,
      "##anken": 3296,
      "erne": 3297,
      "denken": 3298,
      "##ungshem": 3299,
      "##assungs": 3300,
      "kindertages": 3301,
      "gericht": 3302,
      "wohl": 3303,
      "lebensjahr": 3304,
      "##ymph": 3305,
      "wirkstoffe": 3306,
      "verhindern": 3307,
      "trocken": 3308,
      "##affe": 3309,
      "fordert": 3310,
      "gesundheitsamt": 3311,
      "apps": 3312,
      "entwickelt": 3313,
      "betriebs": 3314,
      "voraussetzungen": 3315,
      "kommun": 3316,
      "rettungsdienst": 3317,
      "##anzeige": 3318,
      "reduz": 3319,
      "robert": 3320,
      "erneut": 3321,
      "fund": 3322,
      "hiess": 3323,
      "sauer": 3324,
      "##sau": 3325,
      "##ius": 3326,
      "##upro": 3327,
      "##tau": 3328,
      "##pa": 3329,
      "##vest": 3330,
      "##wunsch": 3331,
      "##ietet": 3332,
      "##atter": 3333,
      "angel": 3334,
      "angebot": 3335,
      "erreichen": 3336,
      "personliche": 3337,
      "gesicht": 3338,
      "protest": 3339,
      "schwimm": 3340,
      "sprung": 3341,
      "zeitpunkt": 3342,
      "bestimmt": 3343,
      "##ickt": 3344,
      "versicher": 3345,
      "##fuhrung": 3346,
      "elterngeld": 3347,
      "##statten": 3348,
      "bargeld": 3349,
      "infektionen": 3350,
      "empfehlen": 3351,
      "zunehmen": 3352,
      "demonstrationen": 3353,
      "gegebenenfalls": 3354,
      "anspruch": 3355,
      "bestatigung": 3356,
      "mobil": 3357,
      "afd": 3358,
      "kreuz": 3359,
      "##bolie": 3360,
      "beeinflussen": 3361,
      "zulassungsbescheinigung": 3362,
      "pcr": 3363,
      "diabetes": 3364,
      "ibupro": 3365,
      "ibuprofen": 3366,
      "bas": 3367,
      "eck": 3368,
      "hol": 3369,
      "ja": 3370,
      "jungen": 3371,
      "sau": 3372,
      "setzt": 3373,
      "therap": 3374,
      "##ile": 3375,
      "##iner": 3376,
      "##unkte": 3377,
      "zugang": 3378,
      "##geschw": 3379,
      "erhalt": 3380,
      "ausnahme": 3381,
      "##schenkel": 3382,
      "vorh": 3383,
      "##ohann": 3384,
      "##otherapie": 3385,
      "##fest": 3386,
      "##weder": 3387,
      "neues": 3388,
      "##steckt": 3389,
      "informieren": 3390,
      "##akte": 3391,
      "seiten": 3392,
      "##fuhren": 3393,
      "zusatzliche": 3394,
      "befindet": 3395,
      "##traum": 3396,
      "coronapandemie": 3397,
      "##staat": 3398,
      "gleichen": 3399,
      "verringer": 3400,
      "hunde": 3401,
      "pil": 3402,
      "wind": 3403,
      "##daten": 3404,
      "##kul": 3405,
      "##10": 3406,
      "##iefer": 3407,
      "##itaten": 3408,
      "anrufen": 3409,
      "zuerst": 3410,
      "##auen": 3411,
      "mitt": 3412,
      "##ckung": 3413,
      "abk": 3414,
      "entweder": 3415,
      "rechte": 3416,
      "durchgefuhrt": 3417,
      "gelegen": 3418,
      "stadten": 3419,
      "moglichkeiten": 3420,
      "wirksam": 3421,
      "risikof": 3422,
      "arbeitet": 3423,
      "hohen": 3424,
      "##fuhrer": 3425,
      "name": 3426,
      "zahlreiche": 3427,
      "medizinischen": 3428,
      "erlaubt": 3429,
      "merkzeichen": 3430,
      "zyklus": 3431,
      "maximal": 3432,
      "temperatur": 3433,
      "ansprechpartner": 3434,
      "samstag": 3435,
      "28": 3436,
      "fra": 3437,
      "johann": 3438,
      "lymph": 3439,
      "setzen": 3440,
      "wes": 3441,
      "wachst": 3442,
      "zeu": 3443,
      "##co": 3444,
      "##gri": 3445,
      "##gleich": 3446,
      "##nasen": 3447,
      "##nimmt": 3448,
      "##raten": 3449,
      "##ring": 3450,
      "##kopf": 3451,
      "##band": 3452,
      "##pe": 3453,
      "##inal": 3454,
      "##stoffen": 3455,
      "##itats": 3456,
      "##tete": 3457,
      "geplant": 3458,
      "vertre": 3459,
      "verpflicht": 3460,
      "##ierungs": 3461,
      "muskeln": 3462,
      "ubergewicht": 3463,
      "entde": 3464,
      "dagegen": 3465,
      "##uma": 3466,
      "##schlagen": 3467,
      "depress": 3468,
      "seinem": 3469,
      "##mitis": 3470,
      "korperliche": 3471,
      "gewesen": 3472,
      "mai": 3473,
      "elternbei": 3474,
      "passfot": 3475,
      "sonnen": 3476,
      "##gemacht": 3477,
      "langsam": 3478,
      "gesetze": 3479,
      "schleimbeutel": 3480,
      "vergleich": 3481,
      "##odermitis": 3482,
      "neurodermitis": 3483,
      "ausfullen": 3484,
      "ag": 3485,
      "fern": 3486,
      "gorl": 3487,
      "kei": 3488,
      "kort": 3489,
      "kehl": 3490,
      "mut": 3491,
      "mik": 3492,
      "wahlen": 3493,
      "##riss": 3494,
      "##ittel": 3495,
      "##aler": 3496,
      "##arian": 3497,
      "konserv": 3498,
      "##ions": 3499,
      "werk": 3500,
      "##ient": 3501,
      "##pfer": 3502,
      "warten": 3503,
      "##stellungen": 3504,
      "begr": 3505,
      "teilhabe": 3506,
      "wirklich": 3507,
      "##iclo": 3508,
      "##massnahmen": 3509,
      "##uhlt": 3510,
      "freiwill": 3511,
      "telefonnummer": 3512,
      "veranderungen": 3513,
      "bildungs": 3514,
      "##parate": 3515,
      "symptomen": 3516,
      "##volker": 3517,
      "krampfadern": 3518,
      "august": 3519,
      "gorlitz": 3520,
      "bietet": 3521,
      "dokumen": 3522,
      "dauern": 3523,
      "frage": 3524,
      "hirn": 3525,
      "kunft": 3526,
      "opt": 3527,
      "tau": 3528,
      "##ucken": 3529,
      "##tage": 3530,
      "##thy": 3531,
      "##ans": 3532,
      "unten": 3533,
      "indem": 3534,
      "beauftrag": 3535,
      "##achtet": 3536,
      "##termin": 3537,
      "vertrau": 3538,
      "##leber": 3539,
      "##bend": 3540,
      "mitteilte": 3541,
      "##einrichtungen": 3542,
      "##amte": 3543,
      "##ielle": 3544,
      "##cke": 3545,
      "vorbeu": 3546,
      "abhang": 3547,
      "##abchen": 3548,
      "gift": 3549,
      "bekomm": 3550,
      "sachsens": 3551,
      "zwick": 3552,
      "##bare": 3553,
      "elter": 3554,
      "arbeitspl": 3555,
      "verstopf": 3556,
      "chronisch": 3557,
      "##licherweise": 3558,
      "kopp": 3559,
      "##vollmacht": 3560,
      "europaischen": 3561,
      "##rechts": 3562,
      "##deutschland": 3563,
      "erwachsenen": 3564,
      "##hauten": 3565,
      "sterbeurkunde": 3566,
      "jena": 3567,
      "komplett": 3568,
      "grundsatzlich": 3569,
      "bandscheiben": 3570,
      "baut": 3571,
      "ganzen": 3572,
      "leit": 3573,
      "mir": 3574,
      "pul": 3575,
      "sil": 3576,
      "teile": 3577,
      "zo": 3578,
      "##da": 3579,
      "##na": 3580,
      "##leitung": 3581,
      "##mart": 3582,
      "##kom": 3583,
      "##wur": 3584,
      "##erken": 3585,
      "##inde": 3586,
      "##anzt": 3587,
      "##angeb": 3588,
      "einzu": 3589,
      "schlecht": 3590,
      "aufgaben": 3591,
      "##sporn": 3592,
      "##rohr": 3593,
      "##ahnen": 3594,
      "demnach": 3595,
      "##leisch": 3596,
      "##werte": 3597,
      "##verd": 3598,
      "gesp": 3599,
      "##riften": 3600,
      "##blase": 3601,
      "strei": 3602,
      "landk": 3603,
      "##linge": 3604,
      "unserer": 3605,
      "##urzung": 3606,
      "##angehor": 3607,
      "##zeugnis": 3608,
      "versorgung": 3609,
      "##brennen": 3610,
      "subst": 3611,
      "formen": 3612,
      "aktuelle": 3613,
      "feuerwehr": 3614,
      "mitglied": 3615,
      "wollte": 3616,
      "##forderung": 3617,
      "masken": 3618,
      "##beschwerden": 3619,
      "begunstigen": 3620,
      "tausend": 3621,
      "elternt": 3622,
      "ass": 3623,
      "labor": 3624,
      "markt": 3625,
      "syn": 3626,
      "##sum": 3627,
      "##ias": 3628,
      "##uellen": 3629,
      "##ichter": 3630,
      "##eloff": 3631,
      "##tend": 3632,
      "anerk": 3633,
      "##olmet": 3634,
      "erfahr": 3635,
      "##reiz": 3636,
      "nachge": 3637,
      "rech": 3638,
      "bestell": 3639,
      "polit": 3640,
      "beginnen": 3641,
      "##offnet": 3642,
      "selbsthilfe": 3643,
      "tee": 3644,
      "##produ": 3645,
      "autos": 3646,
      "lungenem": 3647,
      "eheurkunde": 3648,
      "folgenden": 3649,
      "typische": 3650,
      "atemnot": 3651,
      "bildung": 3652,
      "heilpfl": 3653,
      "organis": 3654,
      "bewusst": 3655,
      "eisen": 3656,
      "welches": 3657,
      "fersensporn": 3658,
      "##anwaltschaft": 3659,
      "kopping": 3660,
      "abend": 3661,
      "jur": 3662,
      "lippen": 3663,
      "vol": 3664,
      "##je": 3665,
      "##12": 3666,
      "einf": 3667,
      "beob": 3668,
      "anges": 3669,
      "gebe": 3670,
      "gescha": 3671,
      "gewerk": 3672,
      "verab": 3673,
      "##leger": 3674,
      "erle": 3675,
      "ergan": 3676,
      "stoffe": 3677,
      "musse": 3678,
      "spei": 3679,
      "reaktion": 3680,
      "betragt": 3681,
      "warum": 3682,
      "blutungen": 3683,
      "##krankungen": 3684,
      "haltest": 3685,
      "teilnehmer": 3686,
      "bestimmen": 3687,
      "geschrieben": 3688,
      "entzundet": 3689,
      "##prochen": 3690,
      "soziale": 3691,
      "hilfen": 3692,
      "geimpfte": 3693,
      "magendarm": 3694,
      "solchen": 3695,
      "##kontr": 3696,
      "veranl": 3697,
      "##iehlt": 3698,
      "empfiehlt": 3699,
      "unterstutzt": 3700,
      "mundnasen": 3701,
      "seltenen": 3702,
      "verhutungsp": 3703,
      "##verbot": 3704,
      "prostatak": 3705,
      "niedrig": 3706,
      "weihnachtsmark": 3707,
      "untersuchungen": 3708,
      "bundeslandern": 3709,
      "scheide": 3710,
      "sodbrennen": 3711,
      "produziert": 3712,
      "professor": 3713,
      "sauerstoff": 3714,
      "verpflichtung": 3715,
      "ac": 3716,
      "cr": 3717,
      "licht": 3718,
      "nutz": 3719,
      "rki": 3720,
      "sorgen": 3721,
      "smart": 3722,
      "tri": 3723,
      "##heil": 3724,
      "##teile": 3725,
      "##bo": 3726,
      "##enken": 3727,
      "##inson": 3728,
      "eindeut": 3729,
      "einschrankungen": 3730,
      "uner": 3731,
      "##itzt": 3732,
      "anzu": 3733,
      "gekommen": 3734,
      "erreicht": 3735,
      "ausfuhr": 3736,
      "vorzu": 3737,
      "sowohl": 3738,
      "##ochinstitut": 3739,
      "##raut": 3740,
      "gegenuber": 3741,
      "allein": 3742,
      "alleine": 3743,
      "hierzu": 3744,
      "##altungs": 3745,
      "orig": 3746,
      "reicht": 3747,
      "obwohl": 3748,
      "schwerer": 3749,
      "unseren": 3750,
      "angem": 3751,
      "##aterial": 3752,
      "taglich": 3753,
      "##massige": 3754,
      "haufigsten": 3755,
      "befinden": 3756,
      "landesregierung": 3757,
      "karies": 3758,
      "haup": 3759,
      "schmerzmittel": 3760,
      "bronchien": 3761,
      "##apps": 3762,
      "endometr": 3763,
      "##ullt": 3764,
      "tagespflege": 3765,
      "erbrechen": 3766,
      "jeweils": 3767,
      "vorlaufigen": 3768,
      "theater": 3769,
      "sprunggelenk": 3770,
      "abkurzung": 3771,
      "endometriose": 3772,
      "kund": 3773,
      "rud": 3774,
      "##acken": 3775,
      "##oper": 3776,
      "##mand": 3777,
      "##komm": 3778,
      "##zer": 3779,
      "##xin": 3780,
      "##ied": 3781,
      "##urm": 3782,
      "unbe": 3783,
      "##ath": 3784,
      "##atte": 3785,
      "##alition": 3786,
      "##arben": 3787,
      "##dent": 3788,
      "zuletzt": 3789,
      "gek": 3790,
      "stabil": 3791,
      "##ette": 3792,
      "vorber": 3793,
      "nachdem": 3794,
      "gebaut": 3795,
      "genauer": 3796,
      "##kler": 3797,
      "##zif": 3798,
      "grunden": 3799,
      "stadium": 3800,
      "##scheinen": 3801,
      "impfungen": 3802,
      "##wirken": 3803,
      "##tember": 3804,
      "fallt": 3805,
      "freizeit": 3806,
      "darmspiegelung": 3807,
      "links": 3808,
      "tests": 3809,
      "eheschliess": 3810,
      "meine": 3811,
      "fordern": 3812,
      "##arzte": 3813,
      "entwickeln": 3814,
      "freu": 3815,
      "pflicht": 3816,
      "petra": 3817,
      "##moglich": 3818,
      "entsprechende": 3819,
      "##schliesslich": 3820,
      "##bilden": 3821,
      "ublicherweise": 3822,
      "reagiert": 3823,
      "september": 3824,
      "schwerbehinderten": 3825,
      "gesprach": 3826,
      "schliesslich": 3827,
      "inzidenzwert": 3828,
      "kleidung": 3829,
      "##veranstaltungen": 3830,
      "##kennzeichen": 3831,
      "tatsachlich": 3832,
      "haltestelle": 3833,
      "08": 3834,
      "45": 3835,
      "dolmet": 3836,
      "waschen": 3837,
      "##di": 3838,
      "##dner": 3839,
      "##uelle": 3840,
      "##upfen": 3841,
      "##laden": 3842,
      "##iefe": 3843,
      "##stande": 3844,
      "unge": 3845,
      "union": 3846,
      "##orb": 3847,
      "##use": 3848,
      "##usion": 3849,
      "##empf": 3850,
      "verhalten": 3851,
      "erg": 3852,
      "schaffen": 3853,
      "##sprech": 3854,
      "##kturen": 3855,
      "nachweisen": 3856,
      "##omie": 3857,
      "##becken": 3858,
      "unterricht": 3859,
      "##pflich": 3860,
      "##auskunft": 3861,
      "umge": 3862,
      "##verwalt": 3863,
      "blick": 3864,
      "infrage": 3865,
      "stecken": 3866,
      "##ahlung": 3867,
      "genannt": 3868,
      "heissen": 3869,
      "kinderreise": 3870,
      "themen": 3871,
      "teilte": 3872,
      "verbr": 3873,
      "plastik": 3874,
      "angesteckt": 3875,
      "ausserhalb": 3876,
      "erkranken": 3877,
      "altere": 3878,
      "offentlich": 3879,
      "dennoch": 3880,
      "gestorben": 3881,
      "facharzt": 3882,
      "melden": 3883,
      "gelenke": 3884,
      "dauerhaft": 3885,
      "##geschritten": 3886,
      "beschaftigten": 3887,
      "fortgeschritten": 3888,
      "mitglieder": 3889,
      "##schadigt": 3890,
      "parkinson": 3891,
      "betreut": 3892,
      "betreffen": 3893,
      "reagieren": 3894,
      "verantwortlich": 3895,
      "##mangel": 3896,
      "haseloff": 3897,
      "erweiter": 3898,
      "bekomme": 3899,
      "##hautentzundung": 3900,
      "verpflichtungserklarung": 3901,
      "1000": 3902,
      "feu": 3903,
      "lag": 3904,
      "nahrung": 3905,
      "pfe": 3906,
      "phys": 3907,
      "sy": 3908,
      "teu": 3909,
      "wander": 3910,
      "##dokumen": 3911,
      "##ios": 3912,
      "##gl": 3913,
      "##ubl": 3914,
      "##oid": 3915,
      "##mik": 3916,
      "##korn": 3917,
      "##bul": 3918,
      "##po": 3919,
      "##entzundungen": 3920,
      "eingenommen": 3921,
      "eingriff": 3922,
      "##orte": 3923,
      "zustandig": 3924,
      "gestellt": 3925,
      "vertrag": 3926,
      "erleich": 3927,
      "schm": 3928,
      "schock": 3929,
      "auslander": 3930,
      "stat": 3931,
      "##rogen": 3932,
      "##rose": 3933,
      "##roxin": 3934,
      "arch": 3935,
      "vorlegen": 3936,
      "sommer": 3937,
      "nachricht": 3938,
      "personlichen": 3939,
      "jahres": 3940,
      "##ierenden": 3941,
      "heiraten": 3942,
      "brennen": 3943,
      "gemeldet": 3944,
      "zwolf": 3945,
      "##fert": 3946,
      "entzunden": 3947,
      "hausarzt": 3948,
      "frauenarzt": 3949,
      "diver": 3950,
      "christ": 3951,
      "##ormone": 3952,
      "leipziger": 3953,
      "pruft": 3954,
      "##losigkeit": 3955,
      "sofern": 3956,
      "dresdner": 3957,
      "zulassungsstelle": 3958,
      "sitzen": 3959,
      "betrieb": 3960,
      "antibiotikum": 3961,
      "0221": 3962,
      "digit": 3963,
      "positiv": 3964,
      "geschlechts": 3965,
      "privat": 3966,
      "hamor": 3967,
      "komplikationen": 3968,
      "zwickau": 3969,
      "bro": 3970,
      "dist": 3971,
      "eig": 3972,
      "fuhlen": 3973,
      "hem": 3974,
      "luf": 3975,
      "rb": 3976,
      "tot": 3977,
      "##ce": 3978,
      "##oe": 3979,
      "##zahlen": 3980,
      "##inen": 3981,
      "ing": 3982,
      "anhalten": 3983,
      "##ole": 3984,
      "##truf": 3985,
      "ausdrucken": 3986,
      "arn": 3987,
      "##omografie": 3988,
      "wenden": 3989,
      "##verander": 3990,
      "##adag": 3991,
      "warm": 3992,
      "genannten": 3993,
      "##zip": 3994,
      "monats": 3995,
      "##strich": 3996,
      "##gange": 3997,
      "helfer": 3998,
      "handgelenk": 3999,
      "arbeitslosen": 4000,
      "befr": 4001,
      "kaputt": 4002,
      "gestagen": 4003,
      "gesetzliche": 4004,
      "praxis": 4005,
      "allgemeinen": 4006,
      "ahnlich": 4007,
      "##riminal": 4008,
      "sichtbar": 4009,
      "dickdarm": 4010,
      "wirtschaft": 4011,
      "national": 4012,
      "zahne": 4013,
      "##vergiftung": 4014,
      "fremd": 4015,
      "gallensteine": 4016,
      "vorhanden": 4017,
      "##angebote": 4018,
      "elternteil": 4019,
      "veranlagung": 4020,
      "eheschliessung": 4021,
      "pfeffer": 4022,
      "teufels": 4023,
      "500": 4024,
      "gur": 4025,
      "jul": 4026,
      "koh": 4027,
      "kleist": 4028,
      "nsu": 4029,
      "nord": 4030,
      "nummer": 4031,
      "tater": 4032,
      "ummel": 4033,
      "##ub": 4034,
      "##tt": 4035,
      "##ks": 4036,
      "##kw": 4037,
      "##ps": 4038,
      "##wart": 4039,
      "##xen": 4040,
      "##iti": 4041,
      "bevolker": 4042,
      "gezeigt": 4043,
      "verord": 4044,
      "erh": 4045,
      "##iere": 4046,
      "konne": 4047,
      "konzentr": 4048,
      "stamm": 4049,
      "somit": 4050,
      "abzu": 4051,
      "herzen": 4052,
      "##gebiet": 4053,
      "##fahrzeug": 4054,
      "informiert": 4055,
      "##flache": 4056,
      "grunde": 4057,
      "##izierten": 4058,
      "fahrzeu": 4059,
      "gewahr": 4060,
      "verband": 4061,
      "drittel": 4062,
      "knor": 4063,
      "risiken": 4064,
      "##unterfunktion": 4065,
      "eigentlich": 4066,
      "automat": 4067,
      "mittels": 4068,
      "mittelohr": 4069,
      "ausgestellt": 4070,
      "verstehen": 4071,
      "eingesch": 4072,
      "verwendet": 4073,
      "typischen": 4074,
      "##holt": 4075,
      "entscheidung": 4076,
      "allgemeine": 4077,
      "schilddrusenunterfunktion": 4078,
      "##wegs": 4079,
      "mandel": 4080,
      "sachsischen": 4081,
      "blutgefasse": 4082,
      "##verletzungen": 4083,
      "reizdarm": 4084,
      "spielen": 4085,
      "##fristig": 4086,
      "kombination": 4087,
      "##griffen": 4088,
      "##tageinzidenz": 4089,
      "nachgewiesen": 4090,
      "26": 4091,
      "90": 4092,
      "ener": 4093,
      "fei": 4094,
      "hof": 4095,
      "hunder": 4096,
      "kurk": 4097,
      "kuhlen": 4098,
      "kummern": 4099,
      "lok": 4100,
      "pin": 4101,
      "##sitzen": 4102,
      "##ax": 4103,
      "##izei": 4104,
      "##les": 4105,
      "##risiko": 4106,
      "##zahlt": 4107,
      "##wort": 4108,
      "##enrei": 4109,
      "##stro": 4110,
      "##stra": 4111,
      "##organ": 4112,
      "##ign": 4113,
      "gepruft": 4114,
      "veren": 4115,
      "##utung": 4116,
      "musste": 4117,
      "##beg": 4118,
      "speichel": 4119,
      "ubernehmen": 4120,
      "##merken": 4121,
      "##immer": 4122,
      "besenrei": 4123,
      "##tworten": 4124,
      "gebau": 4125,
      "hierbei": 4126,
      "zeitraum": 4127,
      "##ymn": 4128,
      "wichtiger": 4129,
      "##aktiv": 4130,
      "geforder": 4131,
      "chanc": 4132,
      "##drusen": 4133,
      "##wirkung": 4134,
      "burno": 4135,
      "##belsau": 4136,
      "jugendlichen": 4137,
      "parac": 4138,
      "prakt": 4139,
      "stattfinden": 4140,
      "##infektionen": 4141,
      "tatig": 4142,
      "richtung": 4143,
      "staatsangehor": 4144,
      "schulerinnen": 4145,
      "diagnost": 4146,
      "##knoten": 4147,
      "##formen": 4148,
      "verhutungsring": 4149,
      "rasch": 4150,
      "##sextrem": 4151,
      "##dipin": 4152,
      "##behandlung": 4153,
      "intensivstationen": 4154,
      "kunftig": 4155,
      "kinderreisepass": 4156,
      "pfeffermin": 4157,
      "kurkuma": 4158,
      "23": 4159,
      "diclo": 4160,
      "ec": 4161,
      "ir": 4162,
      "mie": 4163,
      "omik": 4164,
      "zerst": 4165,
      "##ba": 4166,
      "##bark": 4167,
      "##betten": 4168,
      "##inom": 4169,
      "##asenk": 4170,
      "infekt": 4171,
      "##itel": 4172,
      "##teste": 4173,
      "##achte": 4174,
      "##olff": 4175,
      "versp": 4176,
      "mitmachen": 4177,
      "steigen": 4178,
      "##iell": 4179,
      "##fenac": 4180,
      "werte": 4181,
      "voruber": 4182,
      "##eller": 4183,
      "amlo": 4184,
      "umstanden": 4185,
      "herpes": 4186,
      "##weiss": 4187,
      "##fahrer": 4188,
      "selber": 4189,
      "hinzu": 4190,
      "koalition": 4191,
      "orten": 4192,
      "reisen": 4193,
      "gefuhl": 4194,
      "knapp": 4195,
      "##problem": 4196,
      "##haber": 4197,
      "alteren": 4198,
      "offenen": 4199,
      "festgestellt": 4200,
      "##behorde": 4201,
      "##spritze": 4202,
      "ruhe": 4203,
      "regierung": 4204,
      "##ingerdarm": 4205,
      "einzelnen": 4206,
      "produktion": 4207,
      "##spiele": 4208,
      "forsch": 4209,
      "staatsanwaltschaft": 4210,
      "##politik": 4211,
      "##polizei": 4212,
      "leistungs": 4213,
      "tablette": 4214,
      "erlauben": 4215,
      "niedriger": 4216,
      "beglaubigte": 4217,
      "genesene": 4218,
      "risikofaktoren": 4219,
      "hamorri": 4220,
      "gurtel": 4221,
      "knorpel": 4222,
      "burnout": 4223,
      "diclofenac": 4224,
      "omikron": 4225,
      "##olffingerdarm": 4226,
      "amlodipin": 4227,
      "27": 4228,
      "bal": 4229,
      "ball": 4230,
      "car": 4231,
      "ep": 4232,
      "kil": 4233,
      "lthy": 4234,
      "no": 4235,
      "opfer": 4236,
      "pn": 4237,
      "##dungen": 4238,
      "##garten": 4239,
      "##lose": 4240,
      "##lhmtkde": 4241,
      "##fin": 4242,
      "##chnet": 4243,
      "##anal": 4244,
      "unabhang": 4245,
      "##atung": 4246,
      "##itu": 4247,
      "verpflich": 4248,
      "##ehung": 4249,
      "abges": 4250,
      "##gelost": 4251,
      "ambul": 4252,
      "weise": 4253,
      "##angnis": 4254,
      "deutsch": 4255,
      "stre": 4256,
      "halterin": 4257,
      "##ingend": 4258,
      "schliessen": 4259,
      "korpertemperatur": 4260,
      "klass": 4261,
      "besonderen": 4262,
      "##ometer": 4263,
      "##okrat": 4264,
      "##yphil": 4265,
      "##odont": 4266,
      "forderung": 4267,
      "parodont": 4268,
      "##ifft": 4269,
      "mitarbeiterinnen": 4270,
      "schwangere": 4271,
      "kleiner": 4272,
      "burgerinnen": 4273,
      "betreuungs": 4274,
      "##droh": 4275,
      "##iskraut": 4276,
      "beschaftigte": 4277,
      "funktioniert": 4278,
      "spielt": 4279,
      "radio": 4280,
      "nierenbecken": 4281,
      "kreislauf": 4282,
      "milch": 4283,
      "winter": 4284,
      "elektron": 4285,
      "steigt": 4286,
      "3gregel": 4287,
      "angehorigen": 4288,
      "stoffwechsel": 4289,
      "657": 4290,
      "fertig": 4291,
      "eckarte": 4292,
      "mittler": 4293,
      "kortison": 4294,
      "vertrauen": 4295,
      "verstopfung": 4296,
      "bandscheibenvor": 4297,
      "original": 4298,
      "ingwer": 4299,
      "kleisthaus": 4300,
      "lthyroxin": 4301,
      "ad": 4302,
      "obst": 4303,
      "ruh": 4304,
      "wun": 4305,
      "wolf": 4306,
      "##seit": 4307,
      "##uche": 4308,
      "##mil": 4309,
      "##fp": 4310,
      "##varian": 4311,
      "##50": 4312,
      "##enzen": 4313,
      "##antrag": 4314,
      "einzug": 4315,
      "##urer": 4316,
      "unklar": 4317,
      "##tein": 4318,
      "##ement": 4319,
      "versucht": 4320,
      "##tran": 4321,
      "##tret": 4322,
      "ausb": 4323,
      "##amol": 4324,
      "##spfl": 4325,
      "##ehrung": 4326,
      "arter": 4327,
      "##regeln": 4328,
      "##omas": 4329,
      "untersuchen": 4330,
      "abholen": 4331,
      "##gerufen": 4332,
      "##eiligung": 4333,
      "##verf": 4334,
      "weib": 4335,
      "##west": 4336,
      "##uchs": 4337,
      "gebil": 4338,
      "##ppen": 4339,
      "straf": 4340,
      "brand": 4341,
      "gerat": 4342,
      "gerinn": 4343,
      "##izieren": 4344,
      "schla": 4345,
      "kommenden": 4346,
      "thomas": 4347,
      "gefasse": 4348,
      "masch": 4349,
      "2018": 4350,
      "eigent": 4351,
      "haufigste": 4352,
      "oberburger": 4353,
      "extrem": 4354,
      "medizinische": 4355,
      "mochte": 4356,
      "##ission": 4357,
      "spezial": 4358,
      "forscher": 4359,
      "angeboten": 4360,
      "naturlich": 4361,
      "##personen": 4362,
      "parteien": 4363,
      "klimaschutz": 4364,
      "sachsische": 4365,
      "fettleber": 4366,
      "ostrogen": 4367,
      "baby": 4368,
      "verbindung": 4369,
      "ermoglichen": 4370,
      "bezeichnet": 4371,
      "lymphknoten": 4372,
      "entdeckt": 4373,
      "mikro": 4374,
      "verhutungspfl": 4375,
      "smartph": 4376,
      "besenreiser": 4377,
      "hamorriden": 4378,
      "##yphilis": 4379,
      "mer": 4380,
      "ohr": 4381,
      "sitz": 4382,
      "##sal": 4383,
      "##hein": 4384,
      "##hard": 4385,
      "##asche": 4386,
      "##ts": 4387,
      "##teilen": 4388,
      "##ln": 4389,
      "##oben": 4390,
      "##fz": 4391,
      "##bet": 4392,
      "##statt": 4393,
      "ungefahr": 4394,
      "##usen": 4395,
      "##arab": 4396,
      "##arif": 4397,
      "##denk": 4398,
      "##gewebe": 4399,
      "geziel": 4400,
      "auss": 4401,
      "##isse": 4402,
      "##spruch": 4403,
      "##etamol": 4404,
      "##iellen": 4405,
      "##ehler": 4406,
      "##reaktion": 4407,
      "uberall": 4408,
      "ubersetz": 4409,
      "entfern": 4410,
      "bereit": 4411,
      "##zucker": 4412,
      "gebracht": 4413,
      "##mitglie": 4414,
      "##blick": 4415,
      "halter": 4416,
      "zwolffingerdarm": 4417,
      "verbunden": 4418,
      "handwerk": 4419,
      "arbeitnehmer": 4420,
      "##suchungen": 4421,
      "zusammenhang": 4422,
      "freistaat": 4423,
      "##bildungs": 4424,
      "##bele": 4425,
      "gesetzlichen": 4426,
      "##ungsstabchen": 4427,
      "ganze": 4428,
      "beantrag": 4429,
      "##issb": 4430,
      "verhutungsstabchen": 4431,
      "##appen": 4432,
      "produkte": 4433,
      "letzte": 4434,
      "ministerium": 4435,
      "##staltung": 4436,
      "##chnik": 4437,
      "verletzung": 4438,
      "brustkrebs": 4439,
      "trauben": 4440,
      "stuhlgang": 4441,
      "##formular": 4442,
      "falsch": 4443,
      "auszubilden": 4444,
      "weihnachtsmarkt": 4445,
      "verzichten": 4446,
      "##kosten": 4447,
      "effekt": 4448,
      "effekte": 4449,
      "vorliegen": 4450,
      "vorliegt": 4451,
      "verlaufen": 4452,
      "eispr": 4453,
      "schlussel": 4454,
      "ordnungs": 4455,
      "johanniskraut": 4456,
      "zoo": 4457,
      "juli": 4458,
      "##belsaule": 4459,
      "paracetamol": 4460,
      "oberburgermeister": 4461,
      "92": 4462,
      "bra": 4463,
      "boll": 4464,
      "dein": 4465,
      "fischer": 4466,
      "fuhlt": 4467,
      "ii": 4468,
      "kfz": 4469,
      "linken": 4470,
      "pau": 4471,
      "syphilis": 4472,
      "var": 4473,
      "##ugen": 4474,
      "##namen": 4475,
      "##pers": 4476,
      "##viren": 4477,
      "##zul": 4478,
      "##chirurgie": 4479,
      "##schmerz": 4480,
      "##altet": 4481,
      "anst": 4482,
      "verstand": 4483,
      "##trakt": 4484,
      "##sequ": 4485,
      "konsequ": 4486,
      "vorder": 4487,
      "spann": 4488,
      "spate": 4489,
      "##leiden": 4490,
      "##verlu": 4491,
      "blind": 4492,
      "berg": 4493,
      "##opad": 4494,
      "ware": 4495,
      "##astasen": 4496,
      "heimat": 4497,
      "##gesellschaft": 4498,
      "schwarz": 4499,
      "zeiten": 4500,
      "verboten": 4501,
      "herzk": 4502,
      "benacht": 4503,
      "##unterricht": 4504,
      "kontakte": 4505,
      "sozialen": 4506,
      "wochenende": 4507,
      "entstehung": 4508,
      "autob": 4509,
      "alters": 4510,
      "mitteldeutschland": 4511,
      "amts": 4512,
      "198": 4513,
      "bauchschmerzen": 4514,
      "fax": 4515,
      "fotos": 4516,
      "pflanzen": 4517,
      "interess": 4518,
      "speziellen": 4519,
      "##kammer": 4520,
      "meldebescheinigung": 4521,
      "##irurg": 4522,
      "rathaus": 4523,
      "ungei": 4524,
      "verbessern": 4525,
      "verschwinden": 4526,
      "krankenkassen": 4527,
      "vitamin": 4528,
      "herunterladen": 4529,
      "##ehmigung": 4530,
      "branden": 4531,
      "reduzieren": 4532,
      "lungenembolie": 4533,
      "weihnachtsmarkte": 4534,
      "divert": 4535,
      "teufelskr": 4536,
      "bm": 4537,
      "ehren": 4538,
      "gd": 4539,
      "hyp": 4540,
      "kir": 4541,
      "kaffe": 4542,
      "lka": 4543,
      "mult": 4544,
      "punkt": 4545,
      "reh": 4546,
      "taz": 4547,
      "vis": 4548,
      "##eut": 4549,
      "##ca": 4550,
      "##ilet": 4551,
      "##neben": 4552,
      "##frie": 4553,
      "##passen": 4554,
      "##prechen": 4555,
      "##zie": 4556,
      "##15": 4557,
      "##sto": 4558,
      "##unehmen": 4559,
      "unfalle": 4560,
      "institut": 4561,
      "##ars": 4562,
      "anb": 4563,
      "verhei": 4564,
      "schr": 4565,
      "ausgeb": 4566,
      "##ilm": 4567,
      "auffall": 4568,
      "aufgabe": 4569,
      "stunde": 4570,
      "##ielt": 4571,
      "vorbei": 4572,
      "vorgelegt": 4573,
      "##beauftrag": 4574,
      "abschnitt": 4575,
      "ubertrag": 4576,
      "##ungsgesetz": 4577,
      "entgegen": 4578,
      "##gert": 4579,
      "betrifft": 4580,
      "##herm": 4581,
      "leider": 4582,
      "gewoh": 4583,
      "floh": 4584,
      "##anze": 4585,
      "wohnungs": 4586,
      "kompress": 4587,
      "offene": 4588,
      "kapln": 4589,
      "##konvention": 4590,
      "empfohlen": 4591,
      "##muskel": 4592,
      "leichten": 4593,
      "wasserlassen": 4594,
      "internetseite": 4595,
      "zulassung": 4596,
      "organe": 4597,
      "##inform": 4598,
      "erkaltung": 4599,
      "kundenzentren": 4600,
      "seni": 4601,
      "##orgungs": 4602,
      "##haupt": 4603,
      "methode": 4604,
      "zentrum": 4605,
      "glas": 4606,
      "lehrer": 4607,
      "toilet": 4608,
      "##giene": 4609,
      "##maske": 4610,
      "rheu": 4611,
      "barrierefreiheit": 4612,
      "verlustanzeige": 4613,
      "paar": 4614,
      "##ungshemmen": 4615,
      "passfotos": 4616,
      "prostatakrebs": 4617,
      "##klerose": 4618,
      "eisprung": 4619,
      "asy": 4620,
      "hund": 4621,
      "hist": 4622,
      "hart": 4623,
      "jo": 4624,
      "lock": 4625,
      "mu": 4626,
      "oste": 4627,
      "ram": 4628,
      "rachen": 4629,
      "tief": 4630,
      "ve": 4631,
      "weits": 4632,
      "west": 4633,
      "##del": 4634,
      "##ieben": 4635,
      "##ining": 4636,
      "##ante": 4637,
      "##anom": 4638,
      "unver": 4639,
      "##oris": 4640,
      "##itor": 4641,
      "beamten": 4642,
      "verschl": 4643,
      "beitrage": 4644,
      "scheiden": 4645,
      "aufgenommen": 4646,
      "vorsprechen": 4647,
      "##betrag": 4648,
      "wenigen": 4649,
      "speich": 4650,
      "uberleben": 4651,
      "beruck": 4652,
      "gelangt": 4653,
      "##oph": 4654,
      "##artige": 4655,
      "strahlen": 4656,
      "erfr": 4657,
      "gering": 4658,
      "wearab": 4659,
      "thym": 4660,
      "##akul": 4661,
      "##hausen": 4662,
      "##ferenz": 4663,
      "klasse": 4664,
      "mannern": 4665,
      "dreimon": 4666,
      "##odell": 4667,
      "abgeord": 4668,
      "anmelde": 4669,
      "mediziner": 4670,
      "ernst": 4671,
      "meinen": 4672,
      "sachbe": 4673,
      "betten": 4674,
      "##hoden": 4675,
      "##leistung": 4676,
      "augenarzt": 4677,
      "phob": 4678,
      "phase": 4679,
      "sterben": 4680,
      "kliniken": 4681,
      "laufe": 4682,
      "tour": 4683,
      "wahrscheinlich": 4684,
      "buchst": 4685,
      "sinne": 4686,
      "fluchtlinge": 4687,
      "nahrungs": 4688,
      "arbeitsplatz": 4689,
      "##rohre": 4690,
      "heilpflanzen": 4691,
      "speiser": 4692,
      "crem": 4693,
      "fremdkorper": 4694,
      "bevolkerung": 4695,
      "eingeschrankt": 4696,
      "gurtelrose": 4697,
      "parodontitis": 4698,
      "schlusselbein": 4699,
      "spatestens": 4700,
      "flohsamen": 4701,
      "dreimonats": 4702,
      "aktion": 4703,
      "bay": 4704,
      "eg": 4705,
      "et": 4706,
      "ho": 4707,
      "ident": 4708,
      "kat": 4709,
      "kennen": 4710,
      "losen": 4711,
      "moder": 4712,
      "wal": 4713,
      "wald": 4714,
      "zell": 4715,
      "##horen": 4716,
      "##ime": 4717,
      "##gn": 4718,
      "##tes": 4719,
      "##ram": 4720,
      "##kal": 4721,
      "##bach": 4722,
      "##papier": 4723,
      "##erei": 4724,
      "##erklarung": 4725,
      "##chan": 4726,
      "##inzip": 4727,
      "einfluss": 4728,
      "##urn": 4729,
      "inst": 4730,
      "anteil": 4731,
      "##gende": 4732,
      "versuchen": 4733,
      "erhe": 4734,
      "schutzt": 4735,
      "##andt": 4736,
      "aufzu": 4737,
      "##amp": 4738,
      "storungen": 4739,
      "##spra": 4740,
      "##ruf": 4741,
      "##beschei": 4742,
      "unterhalts": 4743,
      "abteilung": 4744,
      "uberw": 4745,
      "##gerecht": 4746,
      "rechten": 4747,
      "deutscher": 4748,
      "##drich": 4749,
      "##drian": 4750,
      "blutung": 4751,
      "weiteres": 4752,
      "heilen": 4753,
      "gersten": 4754,
      "damals": 4755,
      "zweit": 4756,
      "behandlungs": 4757,
      "zweite": 4758,
      "insol": 4759,
      "herzkrankheit": 4760,
      "##untersuchungen": 4761,
      "grundlich": 4762,
      "verstarken": 4763,
      "telefonisch": 4764,
      "##kont": 4765,
      "empfind": 4766,
      "unterschiedlichen": 4767,
      "gallenblase": 4768,
      "atmen": 4769,
      "ather": 4770,
      "##ologische": 4771,
      "##asidenten": 4772,
      "chemotherapie": 4773,
      "harnrohre": 4774,
      "geschwur": 4775,
      "nasenneben": 4776,
      "tiere": 4777,
      "dunn": 4778,
      "korpers": 4779,
      "vermehren": 4780,
      "##masken": 4781,
      "erklarte": 4782,
      "ofter": 4783,
      "##verletzung": 4784,
      "kontrollieren": 4785,
      "##verstandnis": 4786,
      "##ranzgef": 4787,
      "wechseljahren": 4788,
      "verringern": 4789,
      "##rechtskonvention": 4790,
      "##adagog": 4791,
      "bandscheibenvorfall": 4792,
      "##spflicht": 4793,
      "verhutungspflaster": 4794,
      "brandenburg": 4795,
      "teufelskralle": 4796,
      "ehrenamt": 4797,
      "asyl": 4798,
      "dreimonatsspritze": 4799,
      "nasennebenhohlen": 4800,
      "apr": 4801,
      "dra": 4802,
      "go": 4803,
      "gas": 4804,
      "gro": 4805,
      "is": 4806,
      "ka": 4807,
      "kit": 4808,
      "kennt": 4809,
      "lem": 4810,
      "laden": 4811,
      "lkw": 4812,
      "op": 4813,
      "richtet": 4814,
      "wachsen": 4815,
      "www": 4816,
      "##sil": 4817,
      "##dauer": 4818,
      "##lager": 4819,
      "##falen": 4820,
      "##rich": 4821,
      "##richten": 4822,
      "##kur": 4823,
      "##bund": 4824,
      "##stehen": 4825,
      "##angel": 4826,
      "einher": 4827,
      "einburger": 4828,
      "##orfen": 4829,
      "becken": 4830,
      "bezug": 4831,
      "bevollmacht": 4832,
      "##tent": 4833,
      "##genden": 4834,
      "gegangen": 4835,
      "erwer": 4836,
      "##beratung": 4837,
      "miteinander": 4838,
      "##irma": 4839,
      "##irale": 4840,
      "aloe": 4841,
      "##ahren": 4842,
      "##ruckt": 4843,
      "##pfchen": 4844,
      "blaschen": 4845,
      "##ogra": 4846,
      "arztinnen": 4847,
      "##istische": 4848,
      "bestand": 4849,
      "##drhein": 4850,
      "##gebung": 4851,
      "poliz": 4852,
      "bringt": 4853,
      "regelungen": 4854,
      "##ymp": 4855,
      "fliesst": 4856,
      "entzunde": 4857,
      "klaren": 4858,
      "##gefangen": 4859,
      "sekret": 4860,
      "angina": 4861,
      "tragt": 4862,
      "schnupfen": 4863,
      "kleink": 4864,
      "##okken": 4865,
      "2017": 4866,
      "team": 4867,
      "sozialversicherung": 4868,
      "oberschenkel": 4869,
      "##versorgung": 4870,
      "passieren": 4871,
      "akut": 4872,
      "lungenkrebs": 4873,
      "sucht": 4874,
      "zahlt": 4875,
      "150": 4876,
      "verfassungs": 4877,
      "einzelne": 4878,
      "einzelfall": 4879,
      "##hoben": 4880,
      "erkannt": 4881,
      "mindest": 4882,
      "freund": 4883,
      "sens": 4884,
      "senken": 4885,
      "texte": 4886,
      "ansteckend": 4887,
      "##bedarf": 4888,
      "febru": 4889,
      "arzneimittel": 4890,
      "jeweiligen": 4891,
      "hyper": 4892,
      "##fraktion": 4893,
      "nordrhein": 4894,
      "genugt": 4895,
      "entspann": 4896,
      "negativ": 4897,
      "aufenthalt": 4898,
      "verdauung": 4899,
      "lebenspartnerschaftsurkunde": 4900,
      "##bedingungen": 4901,
      "elternbeitrag": 4902,
      "eisenach": 4903,
      "erganzen": 4904,
      "mundnasenschutz": 4905,
      "ummelden": 4906,
      "##barkeit": 4907,
      "baldrian": 4908,
      "##westfalen": 4909,
      "gebildet": 4910,
      "herzkranzgef": 4911,
      "thymian": 4912,
      "gerstenkorn": 4913,
      "februar": 4914,
      "nordrheinwestfalen": 4915,
      "300": 4916,
      "boten": 4917,
      "bucher": 4918,
      "ehem": 4919,
      "grei": 4920,
      "mr": 4921,
      "minder": 4922,
      "wbs": 4923,
      "waffen": 4924,
      "##gult": 4925,
      "##67": 4926,
      "##ond": 4927,
      "##schr": 4928,
      "##schle": 4929,
      "##schicht": 4930,
      "##schreiben": 4931,
      "##orter": 4932,
      "beat": 4933,
      "beine": 4934,
      "anzei": 4935,
      "zulassen": 4936,
      "##genehmigung": 4937,
      "##ologe": 4938,
      "gefahren": 4939,
      "geklart": 4940,
      "vertragen": 4941,
      "verordnung": 4942,
      "ersetzt": 4943,
      "scharf": 4944,
      "aufnahme": 4945,
      "aufsuchen": 4946,
      "stop": 4947,
      "##ropf": 4948,
      "vorsicht": 4949,
      "deswegen": 4950,
      "nachweise": 4951,
      "##ochter": 4952,
      "spuren": 4953,
      "##oton": 4954,
      "reden": 4955,
      "bern": 4956,
      "beruh": 4957,
      "##zustand": 4958,
      "gesunde": 4959,
      "gesunden": 4960,
      "##raumen": 4961,
      "##istischen": 4962,
      "warn": 4963,
      "besuch": 4964,
      "genommen": 4965,
      "##izierte": 4966,
      "korpereigen": 4967,
      "gewahlt": 4968,
      "gewonnen": 4969,
      "drusen": 4970,
      "kritis": 4971,
      "kratze": 4972,
      "testen": 4973,
      "operationen": 4974,
      "versorgungs": 4975,
      "oberen": 4976,
      "##ungsstorungen": 4977,
      "termine": 4978,
      "##saft": 4979,
      "sicherheit": 4980,
      "sicherheits": 4981,
      "heilt": 4982,
      "##geschrieben": 4983,
      "ansteckung": 4984,
      "erkrankt": 4985,
      "erkennt": 4986,
      "erziehungs": 4987,
      "unterschrift": 4988,
      "platze": 4989,
      "##betrieb": 4990,
      "gleiche": 4991,
      "untersuchungs": 4992,
      "erklaren": 4993,
      "universitat": 4994,
      "andre": 4995,
      "schwellung": 4996,
      "bauchspeicheldruse": 4997,
      "erfahrungen": 4998,
      "hauptw": 4999,
      "##moglichkeiten": 5000,
      "notruf": 5001,
      "##ituation": 5002,
      "##tretung": 5003,
      "smartphone": 5004,
      "##beteiligung": 5005,
      "autobahn": 5006,
      "histor": 5007,
      "april": 5008,
      "lemke": 5009,
      "polizist": 5010,
      "39": 5011,
      "55": 5012,
      "70": 5013,
      "88": 5014,
      "drucken": 5015,
      "fd": 5016,
      "hiv": 5017,
      "jun": 5018,
      "jud": 5019,
      "job": 5020,
      "makul": 5021,
      "poten": 5022,
      "samm": 5023,
      "tarif": 5024,
      "##sse": 5025,
      "##tur": 5026,
      "##tar": 5027,
      "##mb": 5028,
      "##fre": 5029,
      "##fell": 5030,
      "##kre": 5031,
      "##zol": 5032,
      "##wig": 5033,
      "##yer": 5034,
      "##chtet": 5035,
      "##inhaber": 5036,
      "##anke": 5037,
      "einwohner": 5038,
      "inhalt": 5039,
      "##arbe": 5040,
      "bedur": 5041,
      "anzahl": 5042,
      "auseinander": 5043,
      "##ikul": 5044,
      "demokrat": 5045,
      "##bewer": 5046,
      "abgeb": 5047,
      "abmel": 5048,
      "##leiter": 5049,
      "##ment": 5050,
      "##inderung": 5051,
      "prozess": 5052,
      "bekam": 5053,
      "daraus": 5054,
      "##gebir": 5055,
      "neuer": 5056,
      "gebrau": 5057,
      "##haltung": 5058,
      "hinweisen": 5059,
      "gere": 5060,
      "stadte": 5061,
      "##stands": 5062,
      "##uhle": 5063,
      "sprach": 5064,
      "teilnehmen": 5065,
      "##mpften": 5066,
      "handeln": 5067,
      "welcher": 5068,
      "kollegen": 5069,
      "##wirt": 5070,
      "chirurg": 5071,
      "frucht": 5072,
      "2015": 5073,
      "##ypen": 5074,
      "antragstellung": 5075,
      "sozialministerium": 5076,
      "versorgt": 5077,
      "##belast": 5078,
      "mundschutz": 5079,
      "gesundheitsministerin": 5080,
      "anforder": 5081,
      "heilung": 5082,
      "erforderlichen": 5083,
      "rente": 5084,
      "##bauen": 5085,
      "##impfstoff": 5086,
      "offnen": 5087,
      "fruhzeitig": 5088,
      "##handel": 5089,
      "entsprechenden": 5090,
      "sprecherin": 5091,
      "armut": 5092,
      "situationen": 5093,
      "falsche": 5094,
      "kreb": 5095,
      "internationalen": 5096,
      "blasenentzundung": 5097,
      "vermieter": 5098,
      "schriftlich": 5099,
      "geheiratet": 5100,
      "grenze": 5101,
      "verabreicht": 5102,
      "eindeutig": 5103,
      "##veranderungen": 5104,
      "automatisch": 5105,
      "mandelentzundung": 5106,
      "arbeitnehmerinnen": 5107,
      "speiserohre": 5108,
      "29": 5109,
      "bos": 5110,
      "cl": 5111,
      "eier": 5112,
      "ging": 5113,
      "mess": 5114,
      "sorg": 5115,
      "tu": 5116,
      "til": 5117,
      "tab": 5118,
      "volle": 5119,
      "##sympt": 5120,
      "##dar": 5121,
      "##gte": 5122,
      "##nommen": 5123,
      "##oide": 5124,
      "##fa": 5125,
      "##rate": 5126,
      "##bro": 5127,
      "##pil": 5128,
      "##ja": 5129,
      "##sturz": 5130,
      "##unken": 5131,
      "##anten": 5132,
      "##elde": 5133,
      "beding": 5134,
      "##denken": 5135,
      "antrage": 5136,
      "zusch": 5137,
      "##aug": 5138,
      "##auch": 5139,
      "veroffen": 5140,
      "ersetzen": 5141,
      "schlechter": 5142,
      "mitte": 5143,
      "denk": 5144,
      "sturm": 5145,
      "##indel": 5146,
      "##ehnt": 5147,
      "vorkommen": 5148,
      "vorsichtig": 5149,
      "##weite": 5150,
      "##hals": 5151,
      "##bestat": 5152,
      "##beschrankungen": 5153,
      "unterscheiden": 5154,
      "spat": 5155,
      "blah": 5156,
      "bere": 5157,
      "weimar": 5158,
      "mangel": 5159,
      "##schlage": 5160,
      "gesehen": 5161,
      "darum": 5162,
      "blutvergiftung": 5163,
      "##artig": 5164,
      "##ierende": 5165,
      "stein": 5166,
      "##krankung": 5167,
      "##orene": 5168,
      "##flu": 5169,
      "geringer": 5170,
      "##prach": 5171,
      "##prasidenten": 5172,
      "kopfl": 5173,
      "schloss": 5174,
      "##standige": 5175,
      "##nissen": 5176,
      "regelmassige": 5177,
      "##idin": 5178,
      "wichtigsten": 5179,
      "flug": 5180,
      "coronaschutz": 5181,
      "geschichte": 5182,
      "hautkrebs": 5183,
      "allergie": 5184,
      "antigen": 5185,
      "chol": 5186,
      "wohnort": 5187,
      "tele": 5188,
      "standort": 5189,
      "##versicher": 5190,
      "rechtsextrem": 5191,
      "linke": 5192,
      "verdienen": 5193,
      "normale": 5194,
      "landesk": 5195,
      "gemeinde": 5196,
      "##enza": 5197,
      "orth": 5198,
      "seltener": 5199,
      "##sfusion": 5200,
      "##geschichte": 5201,
      "##schnell": 5202,
      "endoskop": 5203,
      "##impfungen": 5204,
      "pect": 5205,
      "weltk": 5206,
      "klinikum": 5207,
      "##bahnlinien": 5208,
      "##personal": 5209,
      "100000": 5210,
      "ergebnisse": 5211,
      "after": 5212,
      "##abilit": 5213,
      "##venen": 5214,
      "getroffen": 5215,
      "bewegungen": 5216,
      "biometr": 5217,
      "bewohnerpark": 5218,
      "welchem": 5219,
      "relativ": 5220,
      "absol": 5221,
      "koronar": 5222,
      "##warzen": 5223,
      "krankenkasse": 5224,
      "hilfreich": 5225,
      "schwimmen": 5226,
      "##kulatur": 5227,
      "schwerbehindertenausweis": 5228,
      "arnika": 5229,
      "arbeitslosengeld": 5230,
      "irgend": 5231,
      "##asenkrebs": 5232,
      "nierenbeckenentzundung": 5233,
      "benachteil": 5234,
      "verheiratet": 5235,
      "erziehungsberecht": 5236,
      "fdp": 5237,
      "tilidin": 5238,
      "31": 5239,
      "himm": 5240,
      "kab": 5241,
      "kassen": 5242,
      "led": 5243,
      "mart": 5244,
      "marz": 5245,
      "mull": 5246,
      "nutzung": 5247,
      "tochter": 5248,
      "wehr": 5249,
      "##cov": 5250,
      "##azi": 5251,
      "##df": 5252,
      "##lamen": 5253,
      "##med": 5254,
      "##rik": 5255,
      "##bahnen": 5256,
      "##wogen": 5257,
      "##untern": 5258,
      "einverstandnis": 5259,
      "##ele": 5260,
      "inte": 5261,
      "invest": 5262,
      "beschlossen": 5263,
      "versuch": 5264,
      "mitge": 5265,
      "mitbringen": 5266,
      "ausschliesslich": 5267,
      "##ierter": 5268,
      "sturz": 5269,
      "nachmittag": 5270,
      "abw": 5271,
      "ubersch": 5272,
      "##gern": 5273,
      "##assnahmen": 5274,
      "##werke": 5275,
      "block": 5276,
      "##herpes": 5277,
      "##angaben": 5278,
      "desto": 5279,
      "##immun": 5280,
      "leiten": 5281,
      "bestellen": 5282,
      "vielfalt": 5283,
      "gebrochen": 5284,
      "heiat": 5285,
      "##gessen": 5286,
      "##gesund": 5287,
      "##flachen": 5288,
      "bundesweit": 5289,
      "bescheid": 5290,
      "korperlichen": 5291,
      "orient": 5292,
      "schwindel": 5293,
      "fahrer": 5294,
      "gewicht": 5295,
      "impfpflicht": 5296,
      "##wiegend": 5297,
      "selbstbe": 5298,
      "angegriffen": 5299,
      "erkrankten": 5300,
      "schulter": 5301,
      "wohnungen": 5302,
      "dient": 5303,
      "festgenommen": 5304,
      "verstarkt": 5305,
      "##sprung": 5306,
      "artikel": 5307,
      "bauchraum": 5308,
      "fachwort": 5309,
      "erwartet": 5310,
      "kopien": 5311,
      "bruchen": 5312,
      "zahnf": 5313,
      "genaue": 5314,
      "langere": 5315,
      "vereinbaren": 5316,
      "##parat": 5317,
      "erzie": 5318,
      "beinen": 5319,
      "saure": 5320,
      "schilddrusenh": 5321,
      "metastasen": 5322,
      "##staur": 5323,
      "barrierefreie": 5324,
      "entscheidend": 5325,
      "geschlechtsh": 5326,
      "kraftfahrzeug": 5327,
      "frankfur": 5328,
      "versammlungen": 5329,
      "inklusion": 5330,
      "straftaten": 5331,
      "downloads": 5332,
      "zunehmend": 5333,
      "pcrtest": 5334,
      "depressionen": 5335,
      "keime": 5336,
      "abhangig": 5337,
      "bautzen": 5338,
      "substanzen": 5339,
      "maskenpflicht": 5340,
      "bestellt": 5341,
      "angemeldet": 5342,
      "##operation": 5343,
      "system": 5344,
      "archiv": 5345,
      "luftr": 5346,
      "ruhig": 5347,
      "##variante": 5348,
      "##verlust": 5349,
      "senioren": 5350,
      "blahungen": 5351,
      "pectoris": 5352,
      "integr": 5353,
      "51": 5354,
      "97": 5355,
      "ct": 5356,
      "dom": 5357,
      "ek": 5358,
      "fun": 5359,
      "fleisch": 5360,
      "ffp": 5361,
      "hell": 5362,
      "mrt": 5363,
      "ro": 5364,
      "sars": 5365,
      "tw": 5366,
      "zer": 5367,
      "##hu": 5368,
      "##hel": 5369,
      "##ibt": 5370,
      "##tat": 5371,
      "##rig": 5372,
      "##port": 5373,
      "##yse": 5374,
      "##ender": 5375,
      "##steil": 5376,
      "##schef": 5377,
      "##eson": 5378,
      "int": 5379,
      "angefangen": 5380,
      "##gener": 5381,
      "gehalten": 5382,
      "getest": 5383,
      "gearbeitet": 5384,
      "beiblatt": 5385,
      "schau": 5386,
      "schwei": 5387,
      "##berker": 5388,
      "##deck": 5389,
      "##andid": 5390,
      "##agement": 5391,
      "auftritt": 5392,
      "stau": 5393,
      "##etter": 5394,
      "vorab": 5395,
      "zuminde": 5396,
      "##erseits": 5397,
      "uberpru": 5398,
      "##leichen": 5399,
      "rest": 5400,
      "##verm": 5401,
      "anderer": 5402,
      "anderung": 5403,
      "berichtet": 5404,
      "##perrt": 5405,
      "programm": 5406,
      "herr": 5407,
      "herbst": 5408,
      "gelenken": 5409,
      "influ": 5410,
      "##artigen": 5411,
      "##blaschen": 5412,
      "hierfur": 5413,
      "grimm": 5414,
      "stadien": 5415,
      "schlucken": 5416,
      "begonnen": 5417,
      "begleit": 5418,
      "zweimal": 5419,
      "##ucke": 5420,
      "bestimmter": 5421,
      "verbren": 5422,
      "erstmals": 5423,
      "angew": 5424,
      "angekund": 5425,
      "##vorschuss": 5426,
      "##asenz": 5427,
      "erhohte": 5428,
      "arbeitsmarkt": 5429,
      "rechtzeitig": 5430,
      "prasenz": 5431,
      "kurzsichtig": 5432,
      "verwaltungs": 5433,
      "abgeschlossen": 5434,
      "parag": 5435,
      "parlamen": 5436,
      "internets": 5437,
      "anfrage": 5438,
      "verhutung": 5439,
      "zahnarzt": 5440,
      "innere": 5441,
      "##arzinom": 5442,
      "apple": 5443,
      "##sfra": 5444,
      "praparate": 5445,
      "112": 5446,
      "endgult": 5447,
      "verkle": 5448,
      "##abletten": 5449,
      "##sichtlich": 5450,
      "entzundungs": 5451,
      "##istenz": 5452,
      "weihnachts": 5453,
      "belastungen": 5454,
      "##flussigkeit": 5455,
      "bisherige": 5456,
      "kontrolle": 5457,
      "salben": 5458,
      "zentral": 5459,
      "##eidigt": 5460,
      "##fahigkeit": 5461,
      "landtags": 5462,
      "wirtschafts": 5463,
      "kontrolliert": 5464,
      "##fraktur": 5465,
      "zustandigen": 5466,
      "motiv": 5467,
      "wahrscheinlichkeit": 5468,
      "morgens": 5469,
      "ermittlungen": 5470,
      "zeug": 5471,
      "mutmass": 5472,
      "puls": 5473,
      "##kompl": 5474,
      "lippenherpes": 5475,
      "magendarmtrakt": 5476,
      "unerwunsch": 5477,
      "freuen": 5478,
      "erweiterte": 5479,
      "digitale": 5480,
      "##riminalamt": 5481,
      "##sitzende": 5482,
      "gebaude": 5483,
      "staatsangehorigkeit": 5484,
      "traubensil": 5485,
      "sachbearbeiter": 5486,
      "unterhaltsvorschuss": 5487,
      "landeskriminalamt": 5488,
      "einverstandniserklarung": 5489,
      "getestet": 5490,
      "##berkerze": 5491,
      "zumindest": 5492,
      "verbrennung": 5493,
      "traubensilberkerze": 5494,
      "36": 5495,
      "32": 5496,
      "fein": 5497,
      "fab": 5498,
      "fusse": 5499,
      "horen": 5500,
      "ix": 5501,
      "kel": 5502,
      "kamen": 5503,
      "las": 5504,
      "mad": 5505,
      "pen": 5506,
      "sk": 5507,
      "ser": 5508,
      "sud": 5509,
      "tanz": 5510,
      "toten": 5511,
      "vir": 5512,
      "wand": 5513,
      "witten": 5514,
      "##gast": 5515,
      "##lasten": 5516,
      "##freie": 5517,
      "##karte": 5518,
      "##bis": 5519,
      "##bra": 5520,
      "##part": 5521,
      "##welt": 5522,
      "##11": 5523,
      "##stre": 5524,
      "##schriften": 5525,
      "##urter": 5526,
      "##atum": 5527,
      "##arim": 5528,
      "undoder": 5529,
      "anfall": 5530,
      "anerken": 5531,
      "zucker": 5532,
      "getragen": 5533,
      "geoffnet": 5534,
      "auffr": 5535,
      "vorlage": 5536,
      "##iko": 5537,
      "unterb": 5538,
      "unteren": 5539,
      "sper": 5540,
      "entschieden": 5541,
      "dav": 5542,
      "mehrheit": 5543,
      "restaur": 5544,
      "##umpen": 5545,
      "##ogle": 5546,
      "darunter": 5547,
      "besprechen": 5548,
      "genet": 5549,
      "##haltnis": 5550,
      "erfurter": 5551,
      "gerecht": 5552,
      "reich": 5553,
      "reichen": 5554,
      "##aktor": 5555,
      "gefuhrt": 5556,
      "knoten": 5557,
      "klassen": 5558,
      "seel": 5559,
      "char": 5560,
      "bedeutung": 5561,
      "##udigkeit": 5562,
      "kritik": 5563,
      "belehrung": 5564,
      "verhindert": 5565,
      "pfei": 5566,
      "##alender": 5567,
      "feststellen": 5568,
      "kurzzeit": 5569,
      "##hyth": 5570,
      "landesamt": 5571,
      "##konferenz": 5572,
      "##enzellen": 5573,
      "quelle": 5574,
      "patientinnen": 5575,
      "alkoholsucht": 5576,
      "typischer": 5577,
      "##besuch": 5578,
      "medikaments": 5579,
      "##chnungen": 5580,
      "erzahlt": 5581,
      "voraussetzung": 5582,
      "psychische": 5583,
      "coronapatienten": 5584,
      "illeg": 5585,
      "steuern": 5586,
      "individuellen": 5587,
      "radius": 5588,
      "parkausweis": 5589,
      "strafe": 5590,
      "privaten": 5591,
      "umfang": 5592,
      "planen": 5593,
      "friedrich": 5594,
      "beteiligt": 5595,
      "rhein": 5596,
      "banderriss": 5597,
      "geheim": 5598,
      "hotel": 5599,
      "bauchspeicheldrusen": 5600,
      "alternativ": 5601,
      "robertk": 5602,
      "ansprechpartnerin": 5603,
      "wesent": 5604,
      "##verdacht": 5605,
      "einfache": 5606,
      "geschafte": 5607,
      "dolmetscher": 5608,
      "physiot": 5609,
      "erleichtern": 5610,
      "hofheim": 5611,
      "unabhangig": 5612,
      "schlafen": 5613,
      "merkel": 5614,
      "##issbrauch": 5615,
      "rehabilit": 5616,
      "gewohnt": 5617,
      "buchstaben": 5618,
      "egal": 5619,
      "google": 5620,
      "greift": 5621,
      "krebser": 5622,
      "ledig": 5623,
      "##cov2": 5624,
      "geschlechtshormone": 5625,
      "sarscov2": 5626,
      "twitter": 5627,
      "influenza": 5628,
      "ddr": 5629,
      "fehler": 5630,
      "juck": 5631,
      "kohlen": 5632,
      "lo": 5633,
      "letzt": 5634,
      "mudigkeit": 5635,
      "nennen": 5636,
      "opel": 5637,
      "punkte": 5638,
      "san": 5639,
      "vollen": 5640,
      "wolle": 5641,
      "##ii": 5642,
      "##iat": 5643,
      "##ilen": 5644,
      "##lig": 5645,
      "##rats": 5646,
      "##kern": 5647,
      "##kunde": 5648,
      "##iefen": 5649,
      "##stieg": 5650,
      "##elten": 5651,
      "inse": 5652,
      "##alif": 5653,
      "ans": 5654,
      "anhand": 5655,
      "##geord": 5656,
      "verur": 5657,
      "##treson": 5658,
      "auszug": 5659,
      "##isieren": 5660,
      "storung": 5661,
      "##spro": 5662,
      "vorsorge": 5663,
      "haft": 5664,
      "##halte": 5665,
      "unterhalt": 5666,
      "abschrift": 5667,
      "##gerat": 5668,
      "berichten": 5669,
      "betracht": 5670,
      "##zustellen": 5671,
      "gesamt": 5672,
      "arztpra": 5673,
      "##istisch": 5674,
      "herum": 5675,
      "bekannten": 5676,
      "leiterin": 5677,
      "##netreson": 5678,
      "bluttran": 5679,
      "blutzucker": 5680,
      "##sstorungen": 5681,
      "erfullen": 5682,
      "gero": 5683,
      "kochen": 5684,
      "begriff": 5685,
      "##laufen": 5686,
      "##ferien": 5687,
      "impfzentrum": 5688,
      "flor": 5689,
      "##plus": 5690,
      "helic": 5691,
      "gefangnis": 5692,
      "handt": 5693,
      "klim": 5694,
      "erster": 5695,
      "herzr": 5696,
      "baume": 5697,
      "haushalt": 5698,
      "geldscheinen": 5699,
      "2016": 5700,
      "##proben": 5701,
      "verhand": 5702,
      "##obac": 5703,
      "soziales": 5704,
      "##hafte": 5705,
      "standig": 5706,
      "magensaure": 5707,
      "##statte": 5708,
      "bewegt": 5709,
      "herausfinden": 5710,
      "ausgepr": 5711,
      "presse": 5712,
      "##sprasident": 5713,
      "rauch": 5714,
      "fahrzeugschein": 5715,
      "##ungsstufe": 5716,
      "patientin": 5717,
      "tumoren": 5718,
      "spezif": 5719,
      "beton": 5720,
      "hintergrund": 5721,
      "kultus": 5722,
      "thrombosen": 5723,
      "trauung": 5724,
      "interesse": 5725,
      "lauft": 5726,
      "##totet": 5727,
      "alltags": 5728,
      "wissenschaftler": 5729,
      "babys": 5730,
      "leistenbruch": 5731,
      "angehorige": 5732,
      "verlauft": 5733,
      "genugend": 5734,
      "dosis": 5735,
      "boden": 5736,
      "digitalisierung": 5737,
      "reserv": 5738,
      "kehlkopf": 5739,
      "silvest": 5740,
      "selbsthilfegruppen": 5741,
      "##empfind": 5742,
      "##sprecher": 5743,
      "##verwaltung": 5744,
      "geschlechtsverkehr": 5745,
      "monatsblutung": 5746,
      "energie": 5747,
      "##beginn": 5748,
      "gefordert": 5749,
      "chancen": 5750,
      "gezielt": 5751,
      "##frieden": 5752,
      "bayern": 5753,
      "##unternehmen": 5754,
      "luftrohre": 5755,
      "auffrisch": 5756,
      "david": 5757,
      "juckreiz": 5758,
      "helicobac": 5759,
      "helicobacter": 5760,
      "bitter": 5761,
      "con": 5762,
      "cital": 5763,
      "eb": 5764,
      "kropf": 5765,
      "material": 5766,
      "publ": 5767,
      "wunden": 5768,
      "##saus": 5769,
      "##aer": 5770,
      "##dlich": 5771,
      "##down": 5772,
      "##gymn": 5773,
      "##nungen": 5774,
      "##fas": 5775,
      "##fort": 5776,
      "##kap": 5777,
      "##pelt": 5778,
      "##zunehmen": 5779,
      "##enter": 5780,
      "##ergebnis": 5781,
      "##inner": 5782,
      "##stamm": 5783,
      "##stherapie": 5784,
      "##stimmt": 5785,
      "##anfalle": 5786,
      "##schalen": 5787,
      "unmittel": 5788,
      "##emmer": 5789,
      "##acher": 5790,
      "##olitik": 5791,
      "##olker": 5792,
      "gefl": 5793,
      "vern": 5794,
      "mithilfe": 5795,
      "##seh": 5796,
      "##einrichtung": 5797,
      "ausgelost": 5798,
      "##ilder": 5799,
      "##isem": 5800,
      "station": 5801,
      "still": 5802,
      "##spru": 5803,
      "vorgehen": 5804,
      "demenz": 5805,
      "nachf": 5806,
      "##ochel": 5807,
      "uberschrift": 5808,
      "##gelt": 5809,
      "##ausgang": 5810,
      "##ausschuss": 5811,
      "rezept": 5812,
      "durchblut": 5813,
      "##immern": 5814,
      "leiter": 5815,
      "##opram": 5816,
      "keiner": 5817,
      "beseit": 5818,
      "gebuhr": 5819,
      "wiederbele": 5820,
      "kindergarten": 5821,
      "fahrt": 5822,
      "impfzentren": 5823,
      "handels": 5824,
      "haufige": 5825,
      "herzschwache": 5826,
      "verlang": 5827,
      "lieber": 5828,
      "##oviren": 5829,
      "antisem": 5830,
      "##okokken": 5831,
      "##lerin": 5832,
      "##arztin": 5833,
      "trommel": 5834,
      "erhohten": 5835,
      "solch": 5836,
      "normalen": 5837,
      "kapsel": 5838,
      "gemeinschaft": 5839,
      "verwand": 5840,
      "melanom": 5841,
      "dire": 5842,
      "huft": 5843,
      "##geschehen": 5844,
      "##ankungen": 5845,
      "verkauft": 5846,
      "grosses": 5847,
      "bisherigen": 5848,
      "salz": 5849,
      "salbe": 5850,
      "magnetreson": 5851,
      "nervenzellen": 5852,
      "beglaubigen": 5853,
      "anfangs": 5854,
      "ubungen": 5855,
      "zugleich": 5856,
      "experte": 5857,
      "kamer": 5858,
      "wollten": 5859,
      "einkommens": 5860,
      "bewegungs": 5861,
      "##fahigkeits": 5862,
      "dienstleistungen": 5863,
      "drogen": 5864,
      "internationale": 5865,
      "ofarim": 5866,
      "vergrossert": 5867,
      "inhalieren": 5868,
      "##wohnsitz": 5869,
      "losung": 5870,
      "##oskopie": 5871,
      "schwellungen": 5872,
      "beeintrachtigt": 5873,
      "aufenthalts": 5874,
      "uberlastungsstufe": 5875,
      "geschaftsfuhrer": 5876,
      "kindertagespflege": 5877,
      "zuganglich": 5878,
      "landkreisen": 5879,
      "synag": 5880,
      "fortgeschrittenen": 5881,
      "##dokument": 5882,
      "##oiditis": 5883,
      "hundert": 5884,
      "entfernung": 5885,
      "schritt": 5886,
      "kompression": 5887,
      "juni": 5888,
      "##bestatigung": 5889,
      "coronaschutzverordnung": 5890,
      "irgendw": 5891,
      "martin": 5892,
      "internetseiten": 5893,
      "##hythmus": 5894,
      "citalopram": 5895,
      "66": 5896,
      "eiter": 5897,
      "fas": 5898,
      "gol": 5899,
      "gang": 5900,
      "gabe": 5901,
      "htt": 5902,
      "jose": 5903,
      "krafte": 5904,
      "lern": 5905,
      "locker": 5906,
      "mahl": 5907,
      "mord": 5908,
      "matt": 5909,
      "po": 5910,
      "richten": 5911,
      "weh": 5912,
      "wild": 5913,
      "##hias": 5914,
      "##idr": 5915,
      "##gros": 5916,
      "##fle": 5917,
      "##fft": 5918,
      "##kanz": 5919,
      "##bad": 5920,
      "##vas": 5921,
      "##zung": 5922,
      "##wein": 5923,
      "##inu": 5924,
      "##inter": 5925,
      "##inett": 5926,
      "##ong": 5927,
      "eink": 5928,
      "eindr": 5929,
      "##atten": 5930,
      "##teten": 5931,
      "##aumen": 5932,
      "##legt": 5933,
      "beitragen": 5934,
      "mittag": 5935,
      "##utlich": 5936,
      "ausges": 5937,
      "ausnahmen": 5938,
      "auswahl": 5939,
      "aufmerk": 5940,
      "konsum": 5941,
      "##ame": 5942,
      "##amter": 5943,
      "stuck": 5944,
      "##sph": 5945,
      "##etit": 5946,
      "vordruck": 5947,
      "soweit": 5948,
      "##weile": 5949,
      "##zene": 5950,
      "##halle": 5951,
      "##bedroh": 5952,
      "kannst": 5953,
      "abschluss": 5954,
      "uberhaupt": 5955,
      "durchaus": 5956,
      "bereichen": 5957,
      "##ogramm": 5958,
      "leidet": 5959,
      "##opie": 5960,
      "weiterer": 5961,
      "medien": 5962,
      "information": 5963,
      "streit": 5964,
      "wiederum": 5965,
      "urteil": 5966,
      "##steller": 5967,
      "##stellte": 5968,
      "lebensbedroh": 5969,
      "##idar": 5970,
      "14ro": 5971,
      "dritten": 5972,
      "##gefunden": 5973,
      "elf": 5974,
      "hausmittel": 5975,
      "vermutlich": 5976,
      "##ordin": 5977,
      "sachsenanhalts": 5978,
      "fragt": 5979,
      "##rechte": 5980,
      "sozialgesetz": 5981,
      "darmkrebs": 5982,
      "tropfchen": 5983,
      "standard": 5984,
      "niesen": 5985,
      "solidar": 5986,
      "sonne": 5987,
      "terr": 5988,
      "hochzeit": 5989,
      "hochstens": 5990,
      "zahlreichen": 5991,
      "##rieg": 5992,
      "ehefahigkeits": 5993,
      "sportarten": 5994,
      "daneben": 5995,
      "##systems": 5996,
      "schmerzhaft": 5997,
      "montagabend": 5998,
      "gallengang": 5999,
      "entscheidet": 6000,
      "appetit": 6001,
      "atmet": 6002,
      "produkt": 6003,
      "##ologischen": 6004,
      "innenminister": 6005,
      "innenstadt": 6006,
      "weihnachten": 6007,
      "##qualitat": 6008,
      "fruherken": 6009,
      "europaische": 6010,
      "lebensmitteln": 6011,
      "offiz": 6012,
      "direktor": 6013,
      "erhohtes": 6014,
      "namens": 6015,
      "heft": 6016,
      "gultigen": 6017,
      "bestatigen": 6018,
      "bestatigt": 6019,
      "##zeichnet": 6020,
      "komme": 6021,
      "mandeln": 6022,
      "getranke": 6023,
      "merkblatt": 6024,
      "bundestags": 6025,
      "widerspruch": 6026,
      "gedacht": 6027,
      "##sdorf": 6028,
      "betreuerin": 6029,
      "ziele": 6030,
      "zieht": 6031,
      "##stausch": 6032,
      "ermoglicht": 6033,
      "technik": 6034,
      "abstands": 6035,
      "begleiten": 6036,
      "todes": 6037,
      "fundba": 6038,
      "wachstum": 6039,
      "beauftragte": 6040,
      "##kommission": 6041,
      "unbek": 6042,
      "verbrenn": 6043,
      "##itiative": 6044,
      "verordnet": 6045,
      "mittelohrentzundung": 6046,
      "##organis": 6047,
      "forschungs": 6048,
      "pneum": 6049,
      "mittlerweile": 6050,
      "beantragt": 6051,
      "braun": 6052,
      "berucksichtig": 6053,
      "strahlentherapie": 6054,
      "wearables": 6055,
      "phobie": 6056,
      "flohsamenschalen": 6057,
      "##urnal": 6058,
      "erheb": 6059,
      "ehemal": 6060,
      "mrna": 6061,
      "kopflause": 6062,
      "5110": 6063,
      "wittenberg": 6064,
      "robertkochinstitut": 6065,
      "rehabilitation": 6066,
      "bluttransfusion": 6067,
      "aufmerksam": 6068,
      "ehefahigkeitszeugnis": 6069,
      "2000": 6070,
      "bg": 6071,
      "brech": 6072,
      "dus": 6073,
      "fand": 6074,
      "got": 6075,
      "kiefer": 6076,
      "kochinstitut": 6077,
      "les": 6078,
      "log": 6079,
      "langen": 6080,
      "my": 6081,
      "pri": 6082,
      "sc": 6083,
      "tur": 6084,
      "ubr": 6085,
      "wor": 6086,
      "zwe": 6087,
      "##sul": 6088,
      "##sicherung": 6089,
      "##iw": 6090,
      "##ix": 6091,
      "##ikt": 6092,
      "##uster": 6093,
      "##la": 6094,
      "##ozy": 6095,
      "##morgen": 6096,
      "##kunden": 6097,
      "##passt": 6098,
      "##wunden": 6099,
      "##witz": 6100,
      "##enne": 6101,
      "##stich": 6102,
      "##stuck": 6103,
      "##stufe": 6104,
      "##onen": 6105,
      "eingel": 6106,
      "einiger": 6107,
      "einstellen": 6108,
      "indu": 6109,
      "##iten": 6110,
      "beschadigt": 6111,
      "zuver": 6112,
      "zuhaus": 6113,
      "##gegeben": 6114,
      "gewer": 6115,
      "gezogen": 6116,
      "schreibt": 6117,
      "##bert": 6118,
      "##sekret": 6119,
      "##einkommen": 6120,
      "##agd": 6121,
      "ausbildungs": 6122,
      "aufnehmen": 6123,
      "stich": 6124,
      "##reoiditis": 6125,
      "vormerken": 6126,
      "mengen": 6127,
      "##bedur": 6128,
      "unterk": 6129,
      "abgel": 6130,
      "uberpruft": 6131,
      "##othy": 6132,
      "entlasten": 6133,
      "##fekte": 6134,
      "rede": 6135,
      "andert": 6136,
      "blau": 6137,
      "bereiche": 6138,
      "gesamte": 6139,
      "arztliche": 6140,
      "##abwehr": 6141,
      "##abschluss": 6142,
      "##aufnahme": 6143,
      "##opft": 6144,
      "besuchen": 6145,
      "stru": 6146,
      "##esterin": 6147,
      "halb": 6148,
      "beschwer": 6149,
      "weder": 6150,
      "schluck": 6151,
      "##linie": 6152,
      "gemuse": 6153,
      "spritze": 6154,
      "lebensgefahr": 6155,
      "##landkreis": 6156,
      "##strahlung": 6157,
      "zeitung": 6158,
      "flache": 6159,
      "fliessen": 6160,
      "verbrau": 6161,
      "##zeugen": 6162,
      "##eicher": 6163,
      "bauen": 6164,
      "trager": 6165,
      "erkrankte": 6166,
      "antazi": 6167,
      "##udwig": 6168,
      "##gram": 6169,
      "##gress": 6170,
      "belegt": 6171,
      "2014": 6172,
      "leg": 6173,
      "legt": 6174,
      "##programm": 6175,
      "operiert": 6176,
      "dienen": 6177,
      "schuhe": 6178,
      "autof": 6179,
      "jucken": 6180,
      "niemand": 6181,
      "arzten": 6182,
      "eingetragen": 6183,
      "##ertif": 6184,
      "medizinisch": 6185,
      "gefahrliche": 6186,
      "typisch": 6187,
      "beratungs": 6188,
      "##sfah": 6189,
      "burgermeister": 6190,
      "##methode": 6191,
      "betreuten": 6192,
      "##glieder": 6193,
      "##quote": 6194,
      "freie": 6195,
      "freunde": 6196,
      "richtigen": 6197,
      "haupts": 6198,
      "methoden": 6199,
      "gaste": 6200,
      "entsprechend": 6201,
      "computert": 6202,
      "flussigkeits": 6203,
      "hoheres": 6204,
      "munzen": 6205,
      "stimmen": 6206,
      "linie": 6207,
      "engl": 6208,
      "blutgefass": 6209,
      "##klinikum": 6210,
      "verantwortung": 6211,
      "sodass": 6212,
      "koronare": 6213,
      "ultraschalluntersuchung": 6214,
      "coronatests": 6215,
      "downloadservice": 6216,
      "schwierig": 6217,
      "vertreter": 6218,
      "eigentum": 6219,
      "kaffee": 6220,
      "visum": 6221,
      "journal": 6222,
      "weitsichtig": 6223,
      "##itoring": 6224,
      "dunndarm": 6225,
      "hauptwohn": 6226,
      "demokratie": 6227,
      "tuv": 6228,
      "fahrerlaubnis": 6229,
      "angekundigt": 6230,
      "kurzsichtigkeit": 6231,
      "madchen": 6232,
      "restaurant": 6233,
      "charakter": 6234,
      "##olkerei": 6235,
      "antazida": 6236,
      "00": 6237,
      "37": 6238,
      "43": 6239,
      "7tageinzidenz": 6240,
      "as": 6241,
      "bom": 6242,
      "bot": 6243,
      "brechen": 6244,
      "fullen": 6245,
      "gra": 6246,
      "glie": 6247,
      "galle": 6248,
      "garten": 6249,
      "hangen": 6250,
      "kauf": 6251,
      "kri": 6252,
      "last": 6253,
      "mo": 6254,
      "ole": 6255,
      "ohren": 6256,
      "port": 6257,
      "preis": 6258,
      "pyl": 6259,
      "rats": 6260,
      "such": 6261,
      "trad": 6262,
      "wa": 6263,
      "##eten": 6264,
      "##situation": 6265,
      "##dos": 6266,
      "##nummern": 6267,
      "##bf": 6268,
      "##punkte": 6269,
      "##eist": 6270,
      "##stran": 6271,
      "##stark": 6272,
      "einsch": 6273,
      "einseit": 6274,
      "##arft": 6275,
      "##testen": 6276,
      "bemerk": 6277,
      "##emedizin": 6278,
      "anziehen": 6279,
      "##olz": 6280,
      "gedenk": 6281,
      "verteilt": 6282,
      "##leute": 6283,
      "schein": 6284,
      "##trei": 6285,
      "##decken": 6286,
      "ausgef": 6287,
      "##isst": 6288,
      "auftrag": 6289,
      "##amassnahmen": 6290,
      "stab": 6291,
      "##etyl": 6292,
      "arme": 6293,
      "##iene": 6294,
      "abb": 6295,
      "##pfleger": 6296,
      "##ausen": 6297,
      "##ulation": 6298,
      "##appt": 6299,
      "umsetzung": 6300,
      "anderungen": 6301,
      "durchblutung": 6302,
      "bericht": 6303,
      "gesperrt": 6304,
      "defin": 6305,
      "infiziert": 6306,
      "leiste": 6307,
      "##atzung": 6308,
      "coronak": 6309,
      "##gesprach": 6310,
      "##ings": 6311,
      "bundespolizei": 6312,
      "briefe": 6313,
      "schliesst": 6314,
      "korpergewicht": 6315,
      "##nahm": 6316,
      "schwar": 6317,
      "behandlungen": 6318,
      "##hauser": 6319,
      "teils": 6320,
      "##strel": 6321,
      "##icket": 6322,
      "##enthromb": 6323,
      "stadtteil": 6324,
      "stadtbahnlinien": 6325,
      "dritte": 6326,
      "gefal": 6327,
      "plak": 6328,
      "##hohle": 6329,
      "hauser": 6330,
      "##icin": 6331,
      "allergen": 6332,
      "nebenhohlen": 6333,
      "kratz": 6334,
      "fruhe": 6335,
      "grundlage": 6336,
      "##ichert": 6337,
      "hoheren": 6338,
      "operative": 6339,
      "versicherung": 6340,
      "formblatt": 6341,
      "ausgeschlossen": 6342,
      "solange": 6343,
      "prinzip": 6344,
      "sonn": 6345,
      "kurzer": 6346,
      "einzige": 6347,
      "##kehrt": 6348,
      "neun": 6349,
      "##ocke": 6350,
      "sub": 6351,
      "gemeinschafts": 6352,
      "harz": 6353,
      "unterstutz": 6354,
      "bildgeben": 6355,
      "innenministerium": 6356,
      "organen": 6357,
      "doner": 6358,
      "##ositas": 6359,
      "##arbeitung": 6360,
      "meldeauskunft": 6361,
      "bedingt": 6362,
      "feuerwerk": 6363,
      "jemanden": 6364,
      "korre": 6365,
      "mandat": 6366,
      "##fahig": 6367,
      "vermehrt": 6368,
      "offentliche": 6369,
      "umfassen": 6370,
      "##praparate": 6371,
      "verhutungsmittel": 6372,
      "##iterien": 6373,
      "allergisch": 6374,
      "general": 6375,
      "generell": 6376,
      "sinkt": 6377,
      "rollstuhlfahrer": 6378,
      "hilfs": 6379,
      "strengere": 6380,
      "therapien": 6381,
      "pilz": 6382,
      "pilze": 6383,
      "schleimbeutelentzundung": 6384,
      "freiwillige": 6385,
      "dokumente": 6386,
      "vorbeugen": 6387,
      "anerkannt": 6388,
      "jurgen": 6389,
      "christian": 6390,
      "dickdarmkrebs": 6391,
      "reizdarmsyndrom": 6392,
      "pfefferminzol": 6393,
      "##milben": 6394,
      "ausbreiten": 6395,
      "weiblichen": 6396,
      "ubersetzer": 6397,
      "fischerei": 6398,
      "rheumat": 6399,
      "lockdown": 6400,
      "bevollmachtigte": 6401,
      "gebraucht": 6402,
      "telegram": 6403,
      "weltkrieg": 6404,
      "zahnfleisch": 6405,
      "erzieher": 6406,
      "##generation": 6407,
      "##vermogen": 6408,
      "angewendet": 6409,
      "paragraf": 6410,
      "unerwunschte": 6411,
      "bauchspeicheldrusenentzundung": 6412,
      "lediglich": 6413,
      "gerotet": 6414,
      "dusel": 6415,
      "zuhause": 6416,
      "##bedurft": 6417,
      "hauptwohnsitz": 6418,
      "bemerkbar": 6419,
      "34": 6420,
      "96": 6421,
      "adip": 6422,
      "buss": 6423,
      "binnen": 6424,
      "col": 6425,
      "cay": 6426,
      "eil": 6427,
      "fil": 6428,
      "ganzt": 6429,
      "hen": 6430,
      "harm": 6431,
      "horn": 6432,
      "koch": 6433,
      "kra": 6434,
      "lar": 6435,
      "morb": 6436,
      "rie": 6437,
      "sache": 6438,
      "sklerose": 6439,
      "tast": 6440,
      "viz": 6441,
      "wein": 6442,
      "wund": 6443,
      "waden": 6444,
      "##heben": 6445,
      "##dessen": 6446,
      "##up": 6447,
      "##ox": 6448,
      "##fel": 6449,
      "##rel": 6450,
      "##kheim": 6451,
      "##bungs": 6452,
      "##zin": 6453,
      "##zel": 6454,
      "##wagen": 6455,
      "##widr": 6456,
      "##innung": 6457,
      "##stei": 6458,
      "##stunden": 6459,
      "##storung": 6460,
      "##anlage": 6461,
      "##onisten": 6462,
      "einrichtung": 6463,
      "##schung": 6464,
      "##elow": 6465,
      "unbr": 6466,
      "##atmen": 6467,
      "instru": 6468,
      "annet": 6469,
      "anlage": 6470,
      "##geg": 6471,
      "##gewe": 6472,
      "##geht": 6473,
      "getotet": 6474,
      "ereig": 6475,
      "eroffnet": 6476,
      "schar": 6477,
      "schle": 6478,
      "alb": 6479,
      "##ags": 6480,
      "ausbr": 6481,
      "stillen": 6482,
      "stiko": 6483,
      "##spekt": 6484,
      "##ehlung": 6485,
      "##omaten": 6486,
      "unterschei": 6487,
      "abstrich": 6488,
      "ubersetzung": 6489,
      "##pfef": 6490,
      "dafa": 6491,
      "##auso": 6492,
      "regen": 6493,
      "durften": 6494,
      "##assung": 6495,
      "##vertretung": 6496,
      "##uman": 6497,
      "blasenkrebs": 6498,
      "weissen": 6499,
      "##oglich": 6500,
      "##schlusse": 6501,
      "##schaffen": 6502,
      "gesucht": 6503,
      "gesamten": 6504,
      "bekannte": 6505,
      "##ops": 6506,
      "vieles": 6507,
      "coronamassnahmen": 6508,
      "gegenstande": 6509,
      "##twick": 6510,
      "##andert": 6511,
      "##fahrt": 6512,
      "genauso": 6513,
      "##flach": 6514,
      "ursprung": 6515,
      "halfte": 6516,
      "gera": 6517,
      "gerate": 6518,
      "##mack": 6519,
      "##uhlung": 6520,
      "##lok": 6521,
      "coronainfektion": 6522,
      "gefallen": 6523,
      "geschutzt": 6524,
      "klicken": 6525,
      "kolner": 6526,
      "##buro": 6527,
      "wirkstoffen": 6528,
      "verlassen": 6529,
      "##sterben": 6530,
      "notarzt": 6531,
      "nebenwohnsitz": 6532,
      "belange": 6533,
      "folgt": 6534,
      "famili": 6535,
      "##schwankungen": 6536,
      "versorgen": 6537,
      "entstanden": 6538,
      "##schutzgesetz": 6539,
      "oberhof": 6540,
      "magenschleim": 6541,
      "##ektor": 6542,
      "exp": 6543,
      "meinung": 6544,
      "regionen": 6545,
      "paras": 6546,
      "##lubs": 6547,
      "massnahme": 6548,
      "wechseln": 6549,
      "entscheidungen": 6550,
      "##phase": 6551,
      "einzelhandel": 6552,
      "burgerbeteiligung": 6553,
      "##spielen": 6554,
      "verkauf": 6555,
      "ministerprasidenten": 6556,
      "2007": 6557,
      "fruheren": 6558,
      "##bauch": 6559,
      "fotograf": 6560,
      "phasen": 6561,
      "tatigkeiten": 6562,
      "pflaster": 6563,
      "grune": 6564,
      "grossere": 6565,
      "gultigkeit": 6566,
      "geschwollen": 6567,
      "gastro": 6568,
      "coronapolitik": 6569,
      "##kopfen": 6570,
      "nachteile": 6571,
      "##ipps": 6572,
      "ferien": 6573,
      "falschen": 6574,
      "##betreu": 6575,
      "behindertenbeauftrag": 6576,
      "private": 6577,
      "##ronomie": 6578,
      "stimmungs": 6579,
      "linse": 6580,
      "analf": 6581,
      "##ylsaure": 6582,
      "winz": 6583,
      "##beugen": 6584,
      "beeinflusst": 6585,
      "abwehrsystem": 6586,
      "produzieren": 6587,
      "frankreich": 6588,
      "kunstlerinnen": 6589,
      "booster": 6590,
      "straftat": 6591,
      "rontgenbild": 6592,
      "bindehautentzundung": 6593,
      "ideen": 6594,
      "vitam": 6595,
      "verlangern": 6596,
      "kehlkopfen": 6597,
      "dokument": 6598,
      "landkreise": 6599,
      "##jekte": 6600,
      "gewerkschaft": 6601,
      "reaktionen": 6602,
      "##kontrolle": 6603,
      "acetyl": 6604,
      "feucht": 6605,
      "eignet": 6606,
      "hemmen": 6607,
      "kohl": 6608,
      "konzentration": 6609,
      "lokal": 6610,
      "vorubergehend": 6611,
      "verpflichtet": 6612,
      "65719": 6613,
      "aussage": 6614,
      "auszubildende": 6615,
      "amtsgericht": 6616,
      "ungeimpfte": 6617,
      "##hermometer": 6618,
      "toiletten": 6619,
      "ramelow": 6620,
      "zellteilung": 6621,
      "##imeter": 6622,
      "##bescheid": 6623,
      "##kontakt": 6624,
      "##wirtschaft": 6625,
      "##belastung": 6626,
      "##gesundheits": 6627,
      "radiusfraktur": 6628,
      "betonte": 6629,
      "wiederbelebung": 6630,
      "magnetresonanzt": 6631,
      "synagoge": 6632,
      "matthias": 6633,
      "##ennepfef": 6634,
      "zuverlass": 6635,
      "tradition": 6636,
      "sonnabend": 6637,
      "adipositas": 6638,
      "cayennepfef": 6639,
      "ganztags": 6640,
      "morbus": 6641,
      "unbrk": 6642,
      "cayennepfeffer": 6643,
      "53": 6644,
      "batter": 6645,
      "cap": 6646,
      "dach": 6647,
      "guten": 6648,
      "gyn": 6649,
      "greifen": 6650,
      "hitze": 6651,
      "john": 6652,
      "kul": 6653,
      "krimin": 6654,
      "kalender": 6655,
      "lost": 6656,
      "lause": 6657,
      "ludwig": 6658,
      "mor": 6659,
      "pfer": 6660,
      "piw": 6661,
      "rote": 6662,
      "serv": 6663,
      "tut": 6664,
      "uwe": 6665,
      "wol": 6666,
      "zimmer": 6667,
      "##ev": 6668,
      "##gut": 6669,
      "##nacht": 6670,
      "##60": 6671,
      "##oc": 6672,
      "##fb": 6673,
      "##rieren": 6674,
      "##bungen": 6675,
      "##zur": 6676,
      "##33": 6677,
      "##79": 6678,
      "##entrau": 6679,
      "##iete": 6680,
      "##iebe": 6681,
      "##anlagen": 6682,
      "eingefuhrt": 6683,
      "##schreiten": 6684,
      "##urten": 6685,
      "unregel": 6686,
      "##ora": 6687,
      "##asent": 6688,
      "dermat": 6689,
      "##atzt": 6690,
      "vertreten": 6691,
      "erreich": 6692,
      "schauen": 6693,
      "##bereiche": 6694,
      "ausmass": 6695,
      "ausdruck": 6696,
      "ausgleich": 6697,
      "ausstellungen": 6698,
      "##ierungen": 6699,
      "##spital": 6700,
      "##indung": 6701,
      "wirbelsaule": 6702,
      "vorne": 6703,
      "vorerkrankungen": 6704,
      "##weist": 6705,
      "##reibung": 6706,
      "nachteil": 6707,
      "nachsorge": 6708,
      "##bew": 6709,
      "unterschenkel": 6710,
      "spaz": 6711,
      "abschw": 6712,
      "abschle": 6713,
      "##leisten": 6714,
      "entf": 6715,
      "davor": 6716,
      "mehrmals": 6717,
      "##menge": 6718,
      "##ulste": 6719,
      "umtau": 6720,
      "##herr": 6721,
      "##abschnitt": 6722,
      "proteste": 6723,
      "progn": 6724,
      "behorden": 6725,
      "behorde": 6726,
      "gehor": 6727,
      "gelingt": 6728,
      "##nerv": 6729,
      "coronal": 6730,
      "##gebieten": 6731,
      "##weisung": 6732,
      "##fahrerinnen": 6733,
      "##blasen": 6734,
      "kinderwunsch": 6735,
      "behinderte": 6736,
      "begren": 6737,
      "##zeitige": 6738,
      "schwerpunkt": 6739,
      "##barung": 6740,
      "flachen": 6741,
      "14ber": 6742,
      "dringend": 6743,
      "platzen": 6744,
      "hautaus": 6745,
      "herzmuskel": 6746,
      "mail": 6747,
      "trag": 6748,
      "schnitt": 6749,
      "angewand": 6750,
      "benach": 6751,
      "besonderes": 6752,
      "antiv": 6753,
      "kriterien": 6754,
      "##gren": 6755,
      "##treffen": 6756,
      "fruhen": 6757,
      "kontinu": 6758,
      "telemedizin": 6759,
      "hohere": 6760,
      "freien": 6761,
      "##brief": 6762,
      "##akterien": 6763,
      "geimpften": 6764,
      "festgelegt": 6765,
      "kapaz": 6766,
      "kapitel": 6767,
      "gestiegen": 6768,
      "##losung": 6769,
      "kunstliche": 6770,
      "suche": 6771,
      "fachkrafte": 6772,
      "bakterielle": 6773,
      "testergebnis": 6774,
      "##ibil": 6775,
      "kontaktpersonen": 6776,
      "##kreislauf": 6777,
      "bronchial": 6778,
      "atmung": 6779,
      "heilbar": 6780,
      "geburtsurkunden": 6781,
      "apotheken": 6782,
      "verschreiben": 6783,
      "verschreibt": 6784,
      "116": 6785,
      "bett": 6786,
      "betau": 6787,
      "##ampfung": 6788,
      "entzundungshemmen": 6789,
      "studie": 6790,
      "beschaftigung": 6791,
      "fruhjahr": 6792,
      "flex": 6793,
      "erzgebir": 6794,
      "saale": 6795,
      "hauptuntersuchung": 6796,
      "##hemmer": 6797,
      "nachts": 6798,
      "##ietaug": 6799,
      "positiven": 6800,
      "siebentageinzidenz": 6801,
      "trainer": 6802,
      "training": 6803,
      "mechan": 6804,
      "musiker": 6805,
      "bewohnerinnen": 6806,
      "schwerbehinderung": 6807,
      "transport": 6808,
      "diskut": 6809,
      "vergrosserte": 6810,
      "vermieterin": 6811,
      "hash": 6812,
      "universitats": 6813,
      "verbessert": 6814,
      "regional": 6815,
      "fussballverein": 6816,
      "horsturz": 6817,
      "wunschkennzeichen": 6818,
      "verlangert": 6819,
      "alternative": 6820,
      "wechseljahre": 6821,
      "gelegentlich": 6822,
      "konservative": 6823,
      "freiwillig": 6824,
      "leitlinien": 6825,
      "substanz": 6826,
      "beobachtet": 6827,
      "ausfuhrlich": 6828,
      "vorzubeugen": 6829,
      "befrist": 6830,
      "wunschen": 6831,
      "##mitglied": 6832,
      "divertikul": 6833,
      "anbieten": 6834,
      "cremes": 6835,
      "makulade": 6836,
      "anforderungen": 6837,
      "sorgfalt": 6838,
      "cholesterin": 6839,
      "##schnelltest": 6840,
      "biometrietaug": 6841,
      "kabinett": 6842,
      "kraftfahrzeugsteuer": 6843,
      "kelkheim": 6844,
      "genetische": 6845,
      "kurzzeitkennzeichen": 6846,
      "typischerweise": 6847,
      "silvester": 6848,
      "trommelfell": 6849,
      "https": 6850,
      "sozialgesetzbuch": 6851,
      "bgg": 6852,
      "ubrigen": 6853,
      "industr": 6854,
      "weitsichtigkeit": 6855,
      "coronakrise": 6856,
      "bussgeld": 6857,
      "annette": 6858,
      "kehlkopfentzundung": 6859,
      "piwarz": 6860,
      "01": 6861,
      "38": 6862,
      "48": 6863,
      "400": 6864,
      "75": 6865,
      "ba": 6866,
      "echt": 6867,
      "fisch": 6868,
      "franz": 6869,
      "glu": 6870,
      "handen": 6871,
      "isch": 6872,
      "kuhl": 6873,
      "kurs": 6874,
      "lah": 6875,
      "leuten": 6876,
      "long": 6877,
      "pap": 6878,
      "padagog": 6879,
      "roh": 6880,
      "riss": 6881,
      "sl": 6882,
      "stet": 6883,
      "setz": 6884,
      "sitte": 6885,
      "stend": 6886,
      "sign": 6887,
      "ta": 6888,
      "wetter": 6889,
      "zit": 6890,
      "zent": 6891,
      "##han": 6892,
      "##av": 6893,
      "##lesen": 6894,
      "##bran": 6895,
      "##bogen": 6896,
      "##zehn": 6897,
      "##wd": 6898,
      "##warm": 6899,
      "##wald": 6900,
      "##yc": 6901,
      "##stern": 6902,
      "eingangs": 6903,
      "##schau": 6904,
      "##elte": 6905,
      "uni": 6906,
      "##atisch": 6907,
      "##team": 6908,
      "anon": 6909,
      "anschlag": 6910,
      "##get": 6911,
      "##olstadt": 6912,
      "geplan": 6913,
      "gezahlt": 6914,
      "vert": 6915,
      "versehen": 6916,
      "vergessen": 6917,
      "##leun": 6918,
      "erschein": 6919,
      "ergeben": 6920,
      "ersatz": 6921,
      "erinner": 6922,
      "scha": 6923,
      "##deh": 6924,
      "##einigt": 6925,
      "auskunft": 6926,
      "ausgesetzt": 6927,
      "konig": 6928,
      "stu": 6929,
      "##speicher": 6930,
      "##ehemmer": 6931,
      "vorges": 6932,
      "##eumon": 6933,
      "##rang": 6934,
      "##omen": 6935,
      "##bean": 6936,
      "sperr": 6937,
      "uberblick": 6938,
      "##pfel": 6939,
      "##mentzundung": 6940,
      "amer": 6941,
      "umgang": 6942,
      "berecht": 6943,
      "beruhren": 6944,
      "bereitet": 6945,
      "betrei": 6946,
      "betreute": 6947,
      "##iva": 6948,
      "##abgeord": 6949,
      "probe": 6950,
      "projekt": 6951,
      "##merkt": 6952,
      "##istr": 6953,
      "infizierten": 6954,
      "kranke": 6955,
      "##arthr": 6956,
      "lebensst": 6957,
      "##fallt": 6958,
      "##tweit": 6959,
      "neuinfektionen": 6960,
      "gebiet": 6961,
      "geburten": 6962,
      "##stecken": 6963,
      "gender": 6964,
      "wurm": 6965,
      "selb": 6966,
      "wiederholt": 6967,
      "hinten": 6968,
      "hingegen": 6969,
      "erfasst": 6970,
      "gerissen": 6971,
      "##line": 6972,
      "dampf": 6973,
      "regelung": 6974,
      "##ids": 6975,
      "reiben": 6976,
      "gewissen": 6977,
      "gewichts": 6978,
      "##efax": 6979,
      "##platte": 6980,
      "##heimen": 6981,
      "verbreitet": 6982,
      "geschmack": 6983,
      "pla": 6984,
      "welchen": 6985,
      "starkes": 6986,
      "##suber": 6987,
      "angezeigt": 6988,
      "benutzt": 6989,
      "verlieren": 6990,
      "verliert": 6991,
      "##icylsaure": 6992,
      "notigen": 6993,
      "##urkundung": 6994,
      "chat": 6995,
      "belar": 6996,
      "belasten": 6997,
      "2012": 6998,
      "##recher": 6999,
      "telefax": 7000,
      "hohem": 7001,
      "thuringens": 7002,
      "##zep": 7003,
      "##fuhrende": 7004,
      "formul": 7005,
      "arbeitszeit": 7006,
      "##bildungen": 7007,
      "##versagen": 7008,
      "buro": 7009,
      "barentrau": 7010,
      "kurze": 7011,
      "raumen": 7012,
      "gestort": 7013,
      "gestohlen": 7014,
      "eingehalten": 7015,
      "##ungsstellen": 7016,
      "##konsum": 7017,
      "karten": 7018,
      "##imot": 7019,
      "ernahren": 7020,
      "bessere": 7021,
      "alkoholkonsum": 7022,
      "familienbuch": 7023,
      "##azin": 7024,
      "##sform": 7025,
      "##phie": 7026,
      "vene": 7027,
      "adressen": 7028,
      "betreuen": 7029,
      "2001": 7030,
      "kalzi": 7031,
      "tatigkeit": 7032,
      "unternehmens": 7033,
      "betrieben": 7034,
      "leichtes": 7035,
      "grosseren": 7036,
      "notwendigen": 7037,
      "gemeinsame": 7038,
      "naturliche": 7039,
      "chefarzt": 7040,
      "ausreichende": 7041,
      "individuelle": 7042,
      "geeignete": 7043,
      "ungunst": 7044,
      "##freien": 7045,
      "drohen": 7046,
      "autoimmun": 7047,
      "international": 7048,
      "reiner": 7049,
      "erfolgreich": 7050,
      "krampfader": 7051,
      "hervorrufen": 7052,
      "vaterschaft": 7053,
      "gebarmutterschleimhaut": 7054,
      "ordnung": 7055,
      "passende": 7056,
      "intensivstation": 7057,
      "##leitungen": 7058,
      "uberlastung": 7059,
      "sauber": 7060,
      "temperaturen": 7061,
      "zeugen": 7062,
      "##wurf": 7063,
      "politischen": 7064,
      "##verwaltungs": 7065,
      "diagnostik": 7066,
      "##verfassungs": 7067,
      "handwerks": 7068,
      "ubertragung": 7069,
      "osteop": 7070,
      "erfrierung": 7071,
      "nasennebenhohlenentzundung": 7072,
      "draussen": 7073,
      "isol": 7074,
      "entzundete": 7075,
      "oberschenkelhals": 7076,
      "stoppen": 7077,
      "andreas": 7078,
      "##mbh": 7079,
      "bedurf": 7080,
      "##pilz": 7081,
      "bewohnerparkausweis": 7082,
      "insekten": 7083,
      "herzrhythmus": 7084,
      "##fortsatz": 7085,
      "##kapsel": 7086,
      "josef": 7087,
      "beschwerde": 7088,
      "modern": 7089,
      "pylor": 7090,
      "schwarzen": 7091,
      "##betreuung": 7092,
      "gynak": 7093,
      "begrenzt": 7094,
      "kontinuier": 7095,
      "hashimot": 7096,
      "makuladegeneration": 7097,
      "stendal": 7098,
      "03": 7099,
      "59": 7100,
      "aden": 7101,
      "bad": 7102,
      "bod": 7103,
      "cir": 7104,
      "fit": 7105,
      "gunst": 7106,
      "gmbh": 7107,
      "kummer": 7108,
      "lohn": 7109,
      "misst": 7110,
      "pack": 7111,
      "rass": 7112,
      "ring": 7113,
      "rent": 7114,
      "richter": 7115,
      "samt": 7116,
      "sorge": 7117,
      "tiefe": 7118,
      "vo": 7119,
      "wom": 7120,
      "##swert": 7121,
      "##dt": 7122,
      "##digen": 7123,
      "##guss": 7124,
      "##ue": 7125,
      "##ule": 7126,
      "##uckt": 7127,
      "##netz": 7128,
      "##flex": 7129,
      "##firma": 7130,
      "##kraf": 7131,
      "##kanal": 7132,
      "##bett": 7133,
      "##zern": 7134,
      "##14": 7135,
      "##22": 7136,
      "##enner": 7137,
      "##station": 7138,
      "##unfall": 7139,
      "eingeb": 7140,
      "einheit": 7141,
      "eintritt": 7142,
      "##schut": 7143,
      "unangen": 7144,
      "unkompl": 7145,
      "##ativer": 7146,
      "##itische": 7147,
      "##technik": 7148,
      "befur": 7149,
      "bewalt": 7150,
      "##igar": 7151,
      "##ologen": 7152,
      "geschaft": 7153,
      "gewe": 7154,
      "geschadigt": 7155,
      "verteilen": 7156,
      "##leb": 7157,
      "eroff": 7158,
      "erscheinen": 7159,
      "##deten": 7160,
      "##ire": 7161,
      "ausgenommen": 7162,
      "ausschuss": 7163,
      "kond": 7164,
      "##rom": 7165,
      "armen": 7166,
      "vorge": 7167,
      "##serlaubnis": 7168,
      "dessen": 7169,
      "menstru": 7170,
      "##euern": 7171,
      "nachzu": 7172,
      "nachrichten": 7173,
      "##bef": 7174,
      "unterwegs": 7175,
      "abell": 7176,
      "ablauf": 7177,
      "uberlegen": 7178,
      "ubersicht": 7179,
      "ubersetzungen": 7180,
      "##otherap": 7181,
      "entsch": 7182,
      "##ausbildung": 7183,
      "mehrfach": 7184,
      "##ulle": 7185,
      "rep": 7186,
      "umgesetzt": 7187,
      "umgebung": 7188,
      "##osa": 7189,
      "durchbl": 7190,
      "durchfuhren": 7191,
      "gesichts": 7192,
      "gesprochen": 7193,
      "##raume": 7194,
      "##merzt": 7195,
      "vielzahl": 7196,
      "gegenstand": 7197,
      "##mitarbeiter": 7198,
      "genutzt": 7199,
      "##zid": 7200,
      "##ppt": 7201,
      "##haltige": 7202,
      "##blatter": 7203,
      "##orenen": 7204,
      "wiederkehr": 7205,
      "##izien": 7206,
      "##ammlungen": 7207,
      "##stellungsgesetz": 7208,
      "grosste": 7209,
      "##haushalt": 7210,
      "meiden": 7211,
      "##selben": 7212,
      "##illt": 7213,
      "##stren": 7214,
      "##strahlen": 7215,
      "##eff": 7216,
      "##amtes": 7217,
      "enge": 7218,
      "flie": 7219,
      "gefangen": 7220,
      "gutartige": 7221,
      "geschlechter": 7222,
      "weltweit": 7223,
      "kolleg": 7224,
      "minip": 7225,
      "herzkreislauf": 7226,
      "##scheibe": 7227,
      "schuljahr": 7228,
      "risikog": 7229,
      "wohnheim": 7230,
      "wohnberecht": 7231,
      "##projekt": 7232,
      "hohes": 7233,
      "magensaft": 7234,
      "mitteln": 7235,
      "##uberfunktion": 7236,
      "lungenfunktion": 7237,
      "prasident": 7238,
      "extra": 7239,
      "langzeit": 7240,
      "2023": 7241,
      "kurzfristig": 7242,
      "raume": 7243,
      "eingestellt": 7244,
      "##ungsstorung": 7245,
      "chronischer": 7246,
      "##iehung": 7247,
      "bakterium": 7248,
      "harten": 7249,
      "schleimhau": 7250,
      "erneute": 7251,
      "regierungs": 7252,
      "kontaktformular": 7253,
      "kontaktbeschrankungen": 7254,
      "beantworten": 7255,
      "##sack": 7256,
      "##gehende": 7257,
      "verfug": 7258,
      "##issur": 7259,
      "##otheken": 7260,
      "##gemeinschaft": 7261,
      "verschle": 7262,
      "verkaufen": 7263,
      "erkund": 7264,
      "belastet": 7265,
      "pflanz": 7266,
      "betriebe": 7267,
      "##blutungen": 7268,
      "kontrast": 7269,
      "trautermin": 7270,
      "unterschriften": 7271,
      "##behinderten": 7272,
      "interessen": 7273,
      "schilddrusenuberfunktion": 7274,
      "##prufung": 7275,
      "kompeten": 7276,
      "gaststatten": 7277,
      "nasenspra": 7278,
      "ulc": 7279,
      "naturlichen": 7280,
      "chefs": 7281,
      "beglaubigt": 7282,
      "bestehenden": 7283,
      "trappen": 7284,
      "zentrale": 7285,
      "##sozial": 7286,
      "##egenheiten": 7287,
      "woller": 7288,
      "behindertengleich": 7289,
      "meter": 7290,
      "##planung": 7291,
      "ermitteln": 7292,
      "##iversitat": 7293,
      "arbeitgeberinnen": 7294,
      "fingern": 7295,
      "gesundheitlichen": 7296,
      "diskrimin": 7297,
      "vergrosserung": 7298,
      "hygiene": 7299,
      "##igungsschein": 7300,
      "relev": 7301,
      "allergische": 7302,
      "zustandige": 7303,
      "motto": 7304,
      "noroviren": 7305,
      "dosierung": 7306,
      "rollstuhlfahrerinnen": 7307,
      "entspricht": 7308,
      "hotels": 7309,
      "dopamin": 7310,
      "streng": 7311,
      "sehnenscheiden": 7312,
      "trockene": 7313,
      "reduziert": 7314,
      "saugl": 7315,
      "fraktion": 7316,
      "taub": 7317,
      "anerkannten": 7318,
      "rechnung": 7319,
      "##produkte": 7320,
      "bewusstsein": 7321,
      "beobachten": 7322,
      "##heilung": 7323,
      "vorbereitet": 7324,
      "umgekehrt": 7325,
      "nationalpass": 7326,
      "##strafe": 7327,
      "praktisch": 7328,
      "zerstort": 7329,
      "omikronvariante": 7330,
      "ballast": 7331,
      "wunsche": 7332,
      "##salicylsaure": 7333,
      "##hardt": 7334,
      "##opadie": 7335,
      "gdl": 7336,
      "wohnungsgeber": 7337,
      "speichern": 7338,
      "abgeordnete": 7339,
      "tourismus": 7340,
      "instabil": 7341,
      "atherische": 7342,
      "grosst": 7343,
      "kritisiert": 7344,
      "inhaltsst": 7345,
      "abmelden": 7346,
      "##symptome": 7347,
      "himmels": 7348,
      "tochtergeschw": 7349,
      "uberprufen": 7350,
      "pfeiffer": 7351,
      "geheimnummer": 7352,
      "physiotherapie": 7353,
      "handtucher": 7354,
      "gefluch": 7355,
      "solches": 7356,
      "irgendwann": 7357,
      "verbrennungen": 7358,
      "verbraucher": 7359,
      "ratsam": 7360,
      "magenschleimhautentzundung": 7361,
      "parasiten": 7362,
      "stimmungsschwankungen": 7363,
      "prognose": 7364,
      "divertikulitis": 7365,
      "httpsww": 7366,
      "vorgesehen": 7367,
      "pylori": 7368,
      "circa": 7369,
      "womoglich": 7370,
      "wohnberechtigungsschein": 7371,
      "behindertengleichstellungsgesetz": 7372,
      "44": 7373,
      "aids": 7374,
      "bon": 7375,
      "breitet": 7376,
      "com": 7377,
      "do": 7378,
      "dpa": 7379,
      "esch": 7380,
      "eut": 7381,
      "fah": 7382,
      "fok": 7383,
      "it": 7384,
      "kh": 7385,
      "kalt": 7386,
      "ly": 7387,
      "modell": 7388,
      "nr": 7389,
      "oster": 7390,
      "sus": 7391,
      "samen": 7392,
      "tuch": 7393,
      "tsh": 7394,
      "tipps": 7395,
      "usa": 7396,
      "wett": 7397,
      "##sis": 7398,
      "##sbruch": 7399,
      "##iak": 7400,
      "##greifen": 7401,
      "##massen": 7402,
      "##fun": 7403,
      "##fieber": 7404,
      "##kung": 7405,
      "##kord": 7406,
      "##bten": 7407,
      "##bom": 7408,
      "##vier": 7409,
      "##zo": 7410,
      "##zum": 7411,
      "##wachsen": 7412,
      "##wesen": 7413,
      "##40": 7414,
      "##erung": 7415,
      "##iebel": 7416,
      "##stiz": 7417,
      "##steigen": 7418,
      "##unkten": 7419,
      "##ons": 7420,
      "##onie": 7421,
      "einsetzen": 7422,
      "einiges": 7423,
      "einschliesslich": 7424,
      "einglieder": 7425,
      "##schauen": 7426,
      "##orar": 7427,
      "##itus": 7428,
      "##itisch": 7429,
      "##alien": 7430,
      "##arter": 7431,
      "bemerken": 7432,
      "##igter": 7433,
      "##achung": 7434,
      "antwort": 7435,
      "ansehen": 7436,
      "antworten": 7437,
      "gegr": 7438,
      "verschlossen": 7439,
      "verhaltnis": 7440,
      "##legung": 7441,
      "beispiele": 7442,
      "denkt": 7443,
      "aufgef": 7444,
      "aufeinander": 7445,
      "konzept": 7446,
      "konsul": 7447,
      "stufen": 7448,
      "##spann": 7449,
      "##ahrt": 7450,
      "##ahme": 7451,
      "werner": 7452,
      "vorfall": 7453,
      "vorgenommen": 7454,
      "vorerst": 7455,
      "haar": 7456,
      "desinf": 7457,
      "museum": 7458,
      "##rupt": 7459,
      "##halter": 7460,
      "spenden": 7461,
      "absatz": 7462,
      "ubernimmt": 7463,
      "##leiten": 7464,
      "##leiche": 7465,
      "entnommen": 7466,
      "##ausfall": 7467,
      "durchschnitt": 7468,
      "proben": 7469,
      "gehap": 7470,
      "gelb": 7471,
      "jahrlich": 7472,
      "warmen": 7473,
      "vieler": 7474,
      "besitz": 7475,
      "besitzen": 7476,
      "coronan": 7477,
      "weitergeben": 7478,
      "##gebau": 7479,
      "genannte": 7480,
      "unsicher": 7481,
      "##schieben": 7482,
      "polen": 7483,
      "heim": 7484,
      "##meer": 7485,
      "grenz": 7486,
      "halbe": 7487,
      "beschleun": 7488,
      "geraten": 7489,
      "weber": 7490,
      "schlauch": 7491,
      "grossten": 7492,
      "##tagonisten": 7493,
      "##mpfe": 7494,
      "wichtiges": 7495,
      "wichtigste": 7496,
      "stadtischen": 7497,
      "gefr": 7498,
      "selbststandig": 7499,
      "geschickt": 7500,
      "erstes": 7501,
      "##wirbelsaule": 7502,
      "herzerkrankung": 7503,
      "angekl": 7504,
      "##stermin": 7505,
      "vollig": 7506,
      "zusammenge": 7507,
      "grundsicherung": 7508,
      "teurer": 7509,
      "##satze": 7510,
      "dienste": 7511,
      "pfle": 7512,
      "pflegen": 7513,
      "pfleger": 7514,
      "justiz": 7515,
      "hilse": 7516,
      "magenschleimhaut": 7517,
      "##stattet": 7518,
      "ausgewogen": 7519,
      "solle": 7520,
      "passiv": 7521,
      "rechtliche": 7522,
      "pressen": 7523,
      "befallen": 7524,
      "langfristig": 7525,
      "##region": 7526,
      "##hygiene": 7527,
      "treff": 7528,
      "veranst": 7529,
      "veranstaltung": 7530,
      "karsten": 7531,
      "super": 7532,
      "zahlungs": 7533,
      "quellen": 7534,
      "qualitat": 7535,
      "verwaltung": 7536,
      "erwarten": 7537,
      "bessern": 7538,
      "meinem": 7539,
      "verfol": 7540,
      "##luft": 7541,
      "kleines": 7542,
      "##holung": 7543,
      "inneren": 7544,
      "##schuhe": 7545,
      "##sfeld": 7546,
      "maler": 7547,
      "zulassig": 7548,
      "vereinigung": 7549,
      "problemen": 7550,
      "wahlgang": 7551,
      "organismus": 7552,
      "##iode": 7553,
      "##osition": 7554,
      "erkaltungs": 7555,
      "dienstagabend": 7556,
      "europawahl": 7557,
      "verletzten": 7558,
      "fortschreiten": 7559,
      "antibiotik": 7560,
      "intensivbetten": 7561,
      "2212": 7562,
      "umwel": 7563,
      "##nachweis": 7564,
      "covid19patienten": 7565,
      "##bilder": 7566,
      "##skraft": 7567,
      "geeigneten": 7568,
      "dunkel": 7569,
      "nagelbetten": 7570,
      "staatlichen": 7571,
      "##betriebe": 7572,
      "auszuschliessen": 7573,
      "marsch": 7574,
      "beweglichkeit": 7575,
      "partnerin": 7576,
      "strassenbahn": 7577,
      "weitgehend": 7578,
      "schadigen": 7579,
      "kniegelenk": 7580,
      "gedanken": 7581,
      "halsschmerzen": 7582,
      "gewalttat": 7583,
      "motor": 7584,
      "profession": 7585,
      "wohngeldstelle": 7586,
      "fehlt": 7587,
      "individueller": 7588,
      "##spezial": 7589,
      "doppelt": 7590,
      "grenzen": 7591,
      "##ungshemmer": 7592,
      "kindertageseinrichtungen": 7593,
      "versicherungs": 7594,
      "holz": 7595,
      "windpo": 7596,
      "wirksamkeit": 7597,
      "passfoto": 7598,
      "volk": 7599,
      "volks": 7600,
      "angesichts": 7601,
      "nutzer": 7602,
      "rudolstadt": 7603,
      "lagern": 7604,
      "distanz": 7605,
      "##olek": 7606,
      "kohle": 7607,
      "herzens": 7608,
      "fahrzeuge": 7609,
      "mieter": 7610,
      "##politiker": 7611,
      "abgesagt": 7612,
      "ambulant": 7613,
      "maschinen": 7614,
      "blinddar": 7615,
      "nahrungsmittel": 7616,
      "opio": 7617,
      "einburgerung": 7618,
      "anzeigen": 7619,
      "drusenfieber": 7620,
      "potenziel": 7621,
      "rechtsextreme": 7622,
      "archivauskunft": 7623,
      "domin": 7624,
      "schweiz": 7625,
      "##sfraktur": 7626,
      "vorsorgevollmacht": 7627,
      "##gymnastik": 7628,
      "unmittelbar": 7629,
      "fruherkennung": 7630,
      "##ozyten": 7631,
      "##othyreoiditis": 7632,
      "hauptsachlich": 7633,
      "computertomografie": 7634,
      "##stranten": 7635,
      "acetylsalicylsaure": 7636,
      "magnetresonanztomografie": 7637,
      "##grenze": 7638,
      "industrie": 7639,
      "wurmfortsatz": 7640,
      "plaqu": 7641,
      "belarus": 7642,
      "hashimotothyreoiditis": 7643,
      "abellio": 7644,
      "tochtergeschwulste": 7645,
      "khk": 7646,
      "windpocken": 7647,
      "33": 7648,
      "42": 7649,
      "69": 7650,
      "800": 7651,
      "bit": 7652,
      "brei": 7653,
      "dis": 7654,
      "fen": 7655,
      "farbe": 7656,
      "graf": 7657,
      "gymn": 7658,
      "heben": 7659,
      "hocke": 7660,
      "ker": 7661,
      "kos": 7662,
      "kern": 7663,
      "krise": 7664,
      "liter": 7665,
      "mul": 7666,
      "miet": 7667,
      "messer": 7668,
      "machte": 7669,
      "missbrauch": 7670,
      "naz": 7671,
      "ogt": 7672,
      "por": 7673,
      "pat": 7674,
      "pinn": 7675,
      "passt": 7676,
      "pause": 7677,
      "tor": 7678,
      "tru": 7679,
      "turk": 7680,
      "zehen": 7681,
      "zoster": 7682,
      "zigar": 7683,
      "##sbe": 7684,
      "##sachsen": 7685,
      "##svor": 7686,
      "##sheim": 7687,
      "##die": 7688,
      "##damm": 7689,
      "##nie": 7690,
      "##oser": 7691,
      "##mut": 7692,
      "##mehr": 7693,
      "##mund": 7694,
      "##phys": 7695,
      "##venz": 7696,
      "##ws": 7697,
      "##39": 7698,
      "##ju": 7699,
      "##80": 7700,
      "##ins": 7701,
      "##stud": 7702,
      "##una": 7703,
      "##unnen": 7704,
      "##universitat": 7705,
      "##ura": 7706,
      "##urr": 7707,
      "unbehinderten": 7708,
      "##atitis": 7709,
      "##ite": 7710,
      "##ity": 7711,
      "##arr": 7712,
      "##arden": 7713,
      "##arbt": 7714,
      "beamte": 7715,
      "anson": 7716,
      "get": 7717,
      "verschluss": 7718,
      "erl": 7719,
      "schut": 7720,
      "schmerzt": 7721,
      "##berger": 7722,
      "mitunter": 7723,
      "##eitungen": 7724,
      "ausweisen": 7725,
      "##isierte": 7726,
      "standen": 7727,
      "starten": 7728,
      "##spart": 7729,
      "##ckungs": 7730,
      "werkt": 7731,
      "vorn": 7732,
      "vorteil": 7733,
      "##ikan": 7734,
      "##ikoster": 7735,
      "hav": 7736,
      "habil": 7737,
      "##ruhe": 7738,
      "nachfol": 7739,
      "##halber": 7740,
      "##bek": 7741,
      "unterhalb": 7742,
      "spur": 7743,
      "able": 7744,
      "ablicht": 7745,
      "uberwiegend": 7746,
      "##gelder": 7747,
      "entle": 7748,
      "entnehmen": 7749,
      "entlast": 7750,
      "##ellitus": 7751,
      "##gerau": 7752,
      "##werken": 7753,
      "weich": 7754,
      "arztlichen": 7755,
      "decken": 7756,
      "##agentur": 7757,
      "jahrzehn": 7758,
      "info": 7759,
      "warzen": 7760,
      "##nev": 7761,
      "blutfluss": 7762,
      "besitzt": 7763,
      "gegensatz": 7764,
      "##anderung": 7765,
      "##zia": 7766,
      "bundesrat": 7767,
      "bundeswehr": 7768,
      "bundesministerium": 7769,
      "bundesverfassungs": 7770,
      "erfullt": 7771,
      "gerei": 7772,
      "##stellten": 7773,
      "schwachen": 7774,
      "schwitzen": 7775,
      "gemessen": 7776,
      "zwingend": 7777,
      "zwiebel": 7778,
      "regelmass": 7779,
      "wobei": 7780,
      "wodurch": 7781,
      "meissen": 7782,
      "gewunsch": 7783,
      "zeigte": 7784,
      "##scheinungen": 7785,
      "objekt": 7786,
      "##strager": 7787,
      "zeitungen": 7788,
      "impfteam": 7789,
      "stadtverwaltung": 7790,
      "verbinden": 7791,
      "plant": 7792,
      "##zeuge": 7793,
      "knot": 7794,
      "##urteilen": 7795,
      "baum": 7796,
      "angabe": 7797,
      "angegeben": 7798,
      "liefern": 7799,
      "grundschule": 7800,
      "personalaus": 7801,
      "darmausgang": 7802,
      "##wirksam": 7803,
      "##meldung": 7804,
      "erhohter": 7805,
      "oberarm": 7806,
      "offenbar": 7807,
      "barrieren": 7808,
      "verstopfen": 7809,
      "befrei": 7810,
      "pruf": 7811,
      "gemeinsamen": 7812,
      "empfehlung": 7813,
      "##saur": 7814,
      "pflegekrafte": 7815,
      "gefahrlichen": 7816,
      "beratungsstelle": 7817,
      "familienstamm": 7818,
      "lust": 7819,
      "menschlichen": 7820,
      "geburtsregister": 7821,
      "letzter": 7822,
      "2gplus": 7823,
      "sehbehinder": 7824,
      "verschoben": 7825,
      "tumors": 7826,
      "stattdessen": 7827,
      "kalk": 7828,
      "verletzte": 7829,
      "brustk": 7830,
      "daraufhin": 7831,
      "pflanze": 7832,
      "beschaftigt": 7833,
      "##schrankung": 7834,
      "metall": 7835,
      "bahnhof": 7836,
      "niedrigen": 7837,
      "##bilaum": 7838,
      "korrig": 7839,
      "anwender": 7840,
      "##rosserung": 7841,
      "sepa": 7842,
      "sepsis": 7843,
      "umfeld": 7844,
      "magdeburger": 7845,
      "##mittlung": 7846,
      "olymp": 7847,
      "##anzeigen": 7848,
      "koronaren": 7849,
      "##bruche": 7850,
      "inhalte": 7851,
      "eva": 7852,
      "andauern": 7853,
      "technischen": 7854,
      "erschopf": 7855,
      "##vergrosserung": 7856,
      "losungen": 7857,
      "negativen": 7858,
      "bindehaut": 7859,
      "##spezif": 7860,
      "jungeren": 7861,
      "##kliniken": 7862,
      "betriebsrat": 7863,
      "verringert": 7864,
      "werkstatt": 7865,
      "beauftragten": 7866,
      "rechnen": 7867,
      "niedrigem": 7868,
      "##book": 7869,
      "##dokumente": 7870,
      "##ublik": 7871,
      "digitalen": 7872,
      "brocken": 7873,
      "feier": 7874,
      "pfefferminze": 7875,
      "miete": 7876,
      "##probleme": 7877,
      "kilometer": 7878,
      "bmi": 7879,
      "gdb": 7880,
      "anmeldeformular": 7881,
      "identif": 7882,
      "insolvenz": 7883,
      "kammer": 7884,
      "kita": 7885,
      "erwerbs": 7886,
      "herzkranzgefasse": 7887,
      "korpereigene": 7888,
      "sammelt": 7889,
      "geregelt": 7890,
      "berech": 7891,
      "schilddrusenhormon": 7892,
      "ffp2": 7893,
      "grimma": 7894,
      "zeugnis": 7895,
      "verurteilt": 7896,
      "auffrischungs": 7897,
      "gold": 7898,
      "lockerungen": 7899,
      "##grosse": 7900,
      "abstandsregeln": 7901,
      "pneumokokken": 7902,
      "berucksichtigt": 7903,
      "autofahr": 7904,
      "##enthrombose": 7905,
      "instrumen": 7906,
      "unterscheidet": 7907,
      "nachteilsaus": 7908,
      "hautausschlag": 7909,
      "sorgfaltig": 7910,
      "lebensstil": 7911,
      "osteopor": 7912,
      "ogts": 7913,
      "pinnummer": 7914,
      "unbehindertenrechtskonvention": 7915,
      "ansonsten": 7916,
      "habilit": 7917,
      "bundesverfassungsgericht": 7918,
      "familienstammbuch": 7919,
      "52": 7920,
      "ach": 7921,
      "bzw": 7922,
      "cels": 7923,
      "clubs": 7924,
      "del": 7925,
      "gern": 7926,
      "guter": 7927,
      "hoff": 7928,
      "hbf": 7929,
      "kru": 7930,
      "kriminal": 7931,
      "leu": 7932,
      "ms": 7933,
      "mauer": 7934,
      "molkerei": 7935,
      "mellitus": 7936,
      "py": 7937,
      "ped": 7938,
      "putzen": 7939,
      "rol": 7940,
      "raz": 7941,
      "rocker": 7942,
      "sor": 7943,
      "sven": 7944,
      "titel": 7945,
      "tiefen": 7946,
      "zb": 7947,
      "##sachen": 7948,
      "##sicher": 7949,
      "##sburg": 7950,
      "##gas": 7951,
      "##grad": 7952,
      "##ugt": 7953,
      "##tinnen": 7954,
      "##lern": 7955,
      "##mungen": 7956,
      "##mpel": 7957,
      "##material": 7958,
      "##rin": 7959,
      "##rasse": 7960,
      "##bi": 7961,
      "##bas": 7962,
      "##beil": 7963,
      "##bing": 7964,
      "##born": 7965,
      "##bald": 7966,
      "##bakterien": 7967,
      "##phy": 7968,
      "##vorm": 7969,
      "##zell": 7970,
      "##zym": 7971,
      "##38": 7972,
      "##76": 7973,
      "##45": 7974,
      "##ergie": 7975,
      "##eien": 7976,
      "##eiter": 7977,
      "##start": 7978,
      "einreise": 7979,
      "##schm": 7980,
      "##scherin": 7981,
      "##atik": 7982,
      "initiative": 7983,
      "##itischen": 7984,
      "##igem": 7985,
      "austausch": 7986,
      "anh": 7987,
      "anhalt": 7988,
      "anlass": 7989,
      "anstren": 7990,
      "zugemacht": 7991,
      "erleben": 7992,
      "##bericht": 7993,
      "##berater": 7994,
      "##dete": 7995,
      "##deuten": 7996,
      "ausweise": 7997,
      "auswirkungen": 7998,
      "ausgabe": 7999,
      "aufklarung": 8000,
      "aufsicht": 8001,
      "aufwand": 8002,
      "##ikal": 8003,
      "muskulatur": 8004,
      "sobald": 8005,
      "##eutr": 8006,
      "##ommun": 8007,
      "unterfunktion": 8008,
      "unterdrucken": 8009,
      "menschenrechte": 8010,
      "span": 8011,
      "spass": 8012,
      "spirale": 8013,
      "abnehmen": 8014,
      "red": 8015,
      "repar": 8016,
      "recher": 8017,
      "##werten": 8018,
      "umzug": 8019,
      "##verhand": 8020,
      "##umin": 8021,
      "durchsucht": 8022,
      "bluten": 8023,
      "betru": 8024,
      "gesichert": 8025,
      "##ablo": 8026,
      "##adem": 8027,
      "gehol": 8028,
      "##aufnahmen": 8029,
      "bestr": 8030,
      "##fallig": 8031,
      "##heater": 8032,
      "##gebracht": 8033,
      "neugeb": 8034,
      "steine": 8035,
      "##stechnik": 8036,
      "genital": 8037,
      "bundnis": 8038,
      "heiss": 8039,
      "##gesell": 8040,
      "##ester": 8041,
      "##roskop": 8042,
      "##flora": 8043,
      "gerau": 8044,
      "gerufen": 8045,
      "stadion": 8046,
      "##ammern": 8047,
      "##ammlung": 8048,
      "##masch": 8049,
      "behindert": 8050,
      "thorar": 8051,
      "schwache": 8052,
      "sprachen": 8053,
      "regelt": 8054,
      "monitoring": 8055,
      "lebensqualitat": 8056,
      "deutschlands": 8057,
      "engen": 8058,
      "flyer": 8059,
      "##heime": 8060,
      "verbreiten": 8061,
      "platt": 8062,
      "##eichert": 8063,
      "angriff": 8064,
      "schneiden": 8065,
      "tagsuber": 8066,
      "##arbeitern": 8067,
      "nebenwirkung": 8068,
      "anti": 8069,
      "schulungen": 8070,
      "schulze": 8071,
      "##grunde": 8072,
      "beleg": 8073,
      "ohneh": 8074,
      "##obil": 8075,
      "sozialversicher": 8076,
      "aktive": 8077,
      "eigener": 8078,
      "eigenes": 8079,
      "##liegen": 8080,
      "##haften": 8081,
      "tropfen": 8082,
      "auton": 8083,
      "erhohung": 8084,
      "obere": 8085,
      "uhrzeit": 8086,
      "standige": 8087,
      "arbeitslosigkeit": 8088,
      "herausgefunden": 8089,
      "akzept": 8090,
      "verstark": 8091,
      "hochsten": 8092,
      "testpflicht": 8093,
      "quer": 8094,
      "verwies": 8095,
      "abgegeben": 8096,
      "meiner": 8097,
      "veranderung": 8098,
      "##elsorge": 8099,
      "kleinere": 8100,
      "##wertung": 8101,
      "##sfrei": 8102,
      "auslandischen": 8103,
      "praparat": 8104,
      "kopfschmerz": 8105,
      "##unfte": 8106,
      "betont": 8107,
      "betablo": 8108,
      "demonstranten": 8109,
      "##ace": 8110,
      "##sichtigen": 8111,
      "tatverdacht": 8112,
      "flecken": 8113,
      "unterschrieben": 8114,
      "stellte": 8115,
      "stellver": 8116,
      "interv": 8117,
      "spateren": 8118,
      "250": 8119,
      "schutzmaske": 8120,
      "schutzmasken": 8121,
      "hexen": 8122,
      "saison": 8123,
      "krebszellen": 8124,
      "vergangenheit": 8125,
      "##ichtete": 8126,
      "urkundenservice": 8127,
      "positive": 8128,
      "##verkehrs": 8129,
      "mobbing": 8130,
      "##thur": 8131,
      "behindertenrechtskonvention": 8132,
      "stimme": 8133,
      "blutgerinnung": 8134,
      "lehrkrafte": 8135,
      "strassenbahnen": 8136,
      "verzo": 8137,
      "kurse": 8138,
      "kurbis": 8139,
      "##korperchen": 8140,
      "widersprechen": 8141,
      "##2021": 8142,
      "frieden": 8143,
      "prostatavergrosserung": 8144,
      "##marke": 8145,
      "zahnen": 8146,
      "versammlungs": 8147,
      "begleiter": 8148,
      "##errung": 8149,
      "kalteschaden": 8150,
      "##zyklus": 8151,
      "emot": 8152,
      "##gerechnet": 8153,
      "ideal": 8154,
      "co2": 8155,
      "netzwerk": 8156,
      "ermittlungs": 8157,
      "schwieriger": 8158,
      "lebenspartnerschaftsregister": 8159,
      "angels": 8160,
      "protestiert": 8161,
      "kreuzband": 8162,
      "holen": 8163,
      "therapeut": 8164,
      "keim": 8165,
      "gespeichert": 8166,
      "streik": 8167,
      "bestellung": 8168,
      "erlebt": 8169,
      "##heilkunde": 8170,
      "auslanderinnen": 8171,
      "eignen": 8172,
      "nationalsozial": 8173,
      "fahrzeuges": 8174,
      "chance": 8175,
      "auszubildenden": 8176,
      "boller": 8177,
      "bollmann": 8178,
      "divertikel": 8179,
      "hospital": 8180,
      "##ographie": 8181,
      "kleinkindern": 8182,
      "botenstoffe": 8183,
      "##onds": 8184,
      "tabak": 8185,
      "veroffentlich": 8186,
      "denkmal": 8187,
      "##elec": 8188,
      "uberschritten": 8189,
      "bruchenden": 8190,
      "frankfurt": 8191,
      "hells": 8192,
      "##husten": 8193,
      "fabrik": 8194,
      "seroton": 8195,
      "letztlich": 8196,
      "kultusminister": 8197,
      "alltagssprache": 8198,
      "verwandte": 8199,
      "aufenthaltsgenehmigung": 8200,
      "bundestagswahl": 8201,
      "unterkuhlung": 8202,
      "##sfahigkeit": 8203,
      "##starke": 8204,
      "scheint": 8205,
      "abbiegen": 8206,
      "albrecht": 8207,
      "ausbreitung": 8208,
      "##opsie": 8209,
      "analfissur": 8210,
      "vitamind": 8211,
      "zuverlassig": 8212,
      "batterie": 8213,
      "entfalten": 8214,
      "flachendecken": 8215,
      "angewandt": 8216,
      "stets": 8217,
      "kummert": 8218,
      "rentner": 8219,
      "kontrastmittel": 8220,
      "nrw": 8221,
      "blinddarmentzundung": 8222,
      "kosmet": 8223,
      "brustkorb": 8224,
      "habilitierte": 8225,
      "celsius": 8226,
      "thorarolle": 8227,
      "ohnehin": 8228,
      "hexenschuss": 8229,
      "015": 8230,
      "78": 8231,
      "86": 8232,
      "aschen": 8233,
      "achsel": 8234,
      "bun": 8235,
      "bir": 8236,
      "bth": 8237,
      "eiz": 8238,
      "fans": 8239,
      "hort": 8240,
      "home": 8241,
      "huf": 8242,
      "hopfen": 8243,
      "ku": 8244,
      "mom": 8245,
      "murr": 8246,
      "nat": 8247,
      "niere": 8248,
      "osten": 8249,
      "pers": 8250,
      "pollen": 8251,
      "rut": 8252,
      "ruf": 8253,
      "renn": 8254,
      "reinigung": 8255,
      "suhl": 8256,
      "sim": 8257,
      "tal": 8258,
      "tieren": 8259,
      "ziv": 8260,
      "##een": 8261,
      "##ean": 8262,
      "##eck": 8263,
      "##sr": 8264,
      "##hg": 8265,
      "##haben": 8266,
      "##abt": 8267,
      "##dorf": 8268,
      "##iol": 8269,
      "##gten": 8270,
      "##ulen": 8271,
      "##oden": 8272,
      "##mah": 8273,
      "##mess": 8274,
      "##modell": 8275,
      "##fter": 8276,
      "##fil": 8277,
      "##kurs": 8278,
      "##kampf": 8279,
      "##bnummer": 8280,
      "##padagog": 8281,
      "##vis": 8282,
      "##zir": 8283,
      "##wol": 8284,
      "##wall": 8285,
      "##wuchs": 8286,
      "##jen": 8287,
      "##inenz": 8288,
      "##invas": 8289,
      "einger": 8290,
      "##elbe": 8291,
      "##elberg": 8292,
      "##urc": 8293,
      "unw": 8294,
      "ungew": 8295,
      "##ortet": 8296,
      "##atoren": 8297,
      "beweis": 8298,
      "bedro": 8299,
      "bedenken": 8300,
      "beeidigt": 8301,
      "bemerkt": 8302,
      "beurkundung": 8303,
      "anger": 8304,
      "anwend": 8305,
      "anna": 8306,
      "anleitung": 8307,
      "anpassen": 8308,
      "zutritt": 8309,
      "##genlandkreis": 8310,
      "geschaften": 8311,
      "geandert": 8312,
      "vermeer": 8313,
      "##annter": 8314,
      "##senker": 8315,
      "schrei": 8316,
      "schot": 8317,
      "schne": 8318,
      "##bereichen": 8319,
      "##treff": 8320,
      "mitbe": 8321,
      "mitgemacht": 8322,
      "mitarbeitern": 8323,
      "##utto": 8324,
      "ausstellen": 8325,
      "aufzug": 8326,
      "aufhoren": 8327,
      "aufgeschrieben": 8328,
      "konkre": 8329,
      "start": 8330,
      "##ehrt": 8331,
      "werke": 8332,
      "##rep": 8333,
      "##halfte": 8334,
      "##bestand": 8335,
      "##begriff": 8336,
      "abwei": 8337,
      "abbau": 8338,
      "ubermassig": 8339,
      "ubersetzt": 8340,
      "##leib": 8341,
      "##leiben": 8342,
      "##leiss": 8343,
      "ents": 8344,
      "##gerung": 8345,
      "##uld": 8346,
      "##allert": 8347,
      "##aphy": 8348,
      "umgehen": 8349,
      "umso": 8350,
      "umgehend": 8351,
      "##umpf": 8352,
      "bluter": 8353,
      "weist": 8354,
      "weiten": 8355,
      "weisen": 8356,
      "betragen": 8357,
      "betrachtet": 8358,
      "##zuge": 8359,
      "##rauen": 8360,
      "prot": 8361,
      "gehe": 8362,
      "##istik": 8363,
      "##isters": 8364,
      "hersteller": 8365,
      "##chef": 8366,
      "infol": 8367,
      "##opt": 8368,
      "allmah": 8369,
      "blutkorperchen": 8370,
      "##twortet": 8371,
      "##gebaut": 8372,
      "gebrauch": 8373,
      "stempel": 8374,
      "##klappen": 8375,
      "wurzel": 8376,
      "polypen": 8377,
      "heike": 8378,
      "heisse": 8379,
      "##male": 8380,
      "selben": 8381,
      "##sstru": 8382,
      "brk": 8383,
      "beschein": 8384,
      "##presse": 8385,
      "wohnt": 8386,
      "thy": 8387,
      "schwellen": 8388,
      "schwillt": 8389,
      "spren": 8390,
      "##lauft": 8391,
      "fahrrad": 8392,
      "reihe": 8393,
      "reize": 8394,
      "##illa": 8395,
      "schwerwie": 8396,
      "enzym": 8397,
      "bestimmung": 8398,
      "##plane": 8399,
      "verschiedener": 8400,
      "selbstverstand": 8401,
      "gutes": 8402,
      "handlungs": 8403,
      "klappt": 8404,
      "sekunden": 8405,
      "main": 8406,
      "wirkungen": 8407,
      "##ffizien": 8408,
      "aussern": 8409,
      "ausseren": 8410,
      "##hohe": 8411,
      "haushalte": 8412,
      "vermuten": 8413,
      "kleben": 8414,
      "##okon": 8415,
      "##grenzen": 8416,
      "##probe": 8417,
      "verhuten": 8418,
      "operativ": 8419,
      "##schwell": 8420,
      "wochentlich": 8421,
      "##fuhrerschein": 8422,
      "##stoffwechsel": 8423,
      "autoh": 8424,
      "jubilaum": 8425,
      "arbeitsver": 8426,
      "burgenlandkreis": 8427,
      "##behorden": 8428,
      "prasent": 8429,
      "verstossen": 8430,
      "verstopft": 8431,
      "befruch": 8432,
      "raucher": 8433,
      "gestalten": 8434,
      "eingeat": 8435,
      "gesetzlich": 8436,
      "karnev": 8437,
      "neo": 8438,
      "nebra": 8439,
      "gleichgewicht": 8440,
      "fachleute": 8441,
      "qualif": 8442,
      "##muskulatur": 8443,
      "##zuglich": 8444,
      "##rieb": 8445,
      "medizinischer": 8446,
      "sportverein": 8447,
      "reisedurch": 8448,
      "face": 8449,
      "gefahrdet": 8450,
      "dank": 8451,
      "zuruckge": 8452,
      "##holz": 8453,
      "atemwegs": 8454,
      "familienplanung": 8455,
      "auslandische": 8456,
      "vereins": 8457,
      "sehtest": 8458,
      "asthmat": 8459,
      "erfordert": 8460,
      "2002": 8461,
      "##oberflache": 8462,
      "##paraten": 8463,
      "ausweisdokument": 8464,
      "harnbl": 8465,
      "harnleiter": 8466,
      "5067": 8467,
      "studium": 8468,
      "belastungs": 8469,
      "##rierungen": 8470,
      "intensivpflege": 8471,
      "hepar": 8472,
      "saal": 8473,
      "umwand": 8474,
      "arthritis": 8475,
      "psychischen": 8476,
      "##ynam": 8477,
      "position": 8478,
      "ferse": 8479,
      "mobile": 8480,
      "##platze": 8481,
      "gluck": 8482,
      "ungleich": 8483,
      "metern": 8484,
      "##shar": 8485,
      "aufgehoben": 8486,
      "feste": 8487,
      "##struktur": 8488,
      "##ungspro": 8489,
      "bevorzu": 8490,
      "behandelnden": 8491,
      "aktivitat": 8492,
      "geschlossene": 8493,
      "berliner": 8494,
      "plotzliche": 8495,
      "sterbeurkunden": 8496,
      "infektionszahlen": 8497,
      "infektionsschutzgesetz": 8498,
      "hygien": 8499,
      "widerstand": 8500,
      "gespritzt": 8501,
      "beteiligen": 8502,
      "hamburg": 8503,
      "maske": 8504,
      "schriftliche": 8505,
      "kombiniert": 8506,
      "market": 8507,
      "fluchtl": 8508,
      "doppel": 8509,
      "schlafstorungen": 8510,
      "fehlende": 8511,
      "schwierigkeiten": 8512,
      "kommunikation": 8513,
      "##geschwur": 8514,
      "bildungsministerium": 8515,
      "vorbeugung": 8516,
      "silber": 8517,
      "heilpflanze": 8518,
      "gewerkschaften": 8519,
      "erleb": 8520,
      "mundnasenbe": 8521,
      "ausfuhrliche": 8522,
      "vorzulegen": 8523,
      "tagespflegeperson": 8524,
      "kundigte": 8525,
      "dolmetscherin": 8526,
      "ergibt": 8527,
      "feuchte": 8528,
      "helferinnen": 8529,
      "erhielt": 8530,
      "gewahrleisten": 8531,
      "##strom": 8532,
      "carshar": 8533,
      "wolfgang": 8534,
      "##verfugung": 8535,
      "pausch": 8536,
      "verstandnis": 8537,
      "multi": 8538,
      "##ziele": 8539,
      "##informationen": 8540,
      "scheidenpilz": 8541,
      "##lagerung": 8542,
      "##kurse": 8543,
      "entspannung": 8544,
      "bucherei": 8545,
      "##bewerber": 8546,
      "bekampfen": 8547,
      "bedingte": 8548,
      "veroffent": 8549,
      "parlamentar": 8550,
      "weihnachtsferien": 8551,
      "laser": 8552,
      "florsheim": 8553,
      "ausgepragt": 8554,
      "ebik": 8555,
      "nachfrage": 8556,
      "handelsregister": 8557,
      "kamera": 8558,
      "mahlzeiten": 8559,
      "einkaufen": 8560,
      "eindringen": 8561,
      "ausgesprochen": 8562,
      "terror": 8563,
      "51105": 8564,
      "##sekretar": 8565,
      "englisch": 8566,
      "stabile": 8567,
      "gemeinschaftsschule": 8568,
      "hornhaut": 8569,
      "ischias": 8570,
      "zittern": 8571,
      "zentimeter": 8572,
      "##eumonie": 8573,
      "kontinuierlich": 8574,
      "unangenehm": 8575,
      "durchblutet": 8576,
      "minipille": 8577,
      "risikogruppe": 8578,
      "sehnenscheidenentzundung": 8579,
      "grossteil": 8580,
      "inhaltsstoffe": 8581,
      "verbraucherschutz": 8582,
      "eschborn": 8583,
      "gegrundet": 8584,
      "konsulat": 8585,
      "treffpunkt": 8586,
      "veranstalter": 8587,
      "nagelbettentzundung": 8588,
      "fenster": 8589,
      "ablichtung": 8590,
      "impfteams": 8591,
      "osteoporose": 8592,
      "razzia": 8593,
      "betablocker": 8594,
      "serotonin": 8595,
      "0157": 8596,
      "bthg": 8597,
      "moment": 8598,
      "zivil": 8599,
      "allmahlich": 8600,
      "selbstverstandlich": 8601,
      "reisedurchfall": 8602,
      "64": 8603,
      "agen": 8604,
      "azu": 8605,
      "bahnen": 8606,
      "euf": 8607,
      "fri": 8608,
      "frise": 8609,
      "film": 8610,
      "gru": 8611,
      "gramm": 8612,
      "gallert": 8613,
      "hass": 8614,
      "kot": 8615,
      "lit": 8616,
      "lid": 8617,
      "lenden": 8618,
      "mm": 8619,
      "mache": 8620,
      "mast": 8621,
      "mahn": 8622,
      "nacken": 8623,
      "rom": 8624,
      "senden": 8625,
      "sorgt": 8626,
      "t4": 8627,
      "tsche": 8628,
[...]
