[PAD]
[UNK]
[CLS]
[SEP]
[MASK]
0
1
2
3
4
5
6
7
8
9
a
b
c
d
e
f
g
h
i
j
k
l
m
n
o
p
q
r
s
t
u
v
w
x
y
z
##e
##s
##c
##h
##a
##d
##i
##g
##u
##n
##t
##l
##6
##9
##o
##m
##f
##r
##k
##b
##p
##v
##z
##w
##3
##0
##y
##5
##j
##7
##1
##q
##2
##x
##4
##8
##en
##er
##ch
##ie
##in
##ei
##st
##un
##an
##on
die
ein
##ich
##ung
##sch
##el
##ur
un
##or
##as
##us
der
##es
##hr
##at
##der
in
##it
##al
##ar
##te
be
sie
und
##ten
##ig
##em
##den
##ach
##ter
au
an
zu
##gen
das
##au
##ge
##ol
ge
ver
##ann
##le
##ben
##sen
##icht
er
bei
sch
##ber
##nen
##tr
##de
##mm
##lich
mit
##ir
##eit
##ut
ist
##se
den
eine
##and
##ein
al
##ag
aus
##len
##il
##is
##ier
im
auf
kon
oder
fur
##schen
##am
von
##ion
st
##sp
##ungen
nicht
##et
##kt
sich
##iel
##ro
##ahr
##fen
##ah
##ind
##ft
es
##ehr
auch
##ck
##chen
ar
##und
wir
wer
##eh
konnen
ihr
##re
vor
##ik
ha
##zt
##ser
zum
dann
des
dem
mus
so
##wei
sind
men
##nt
##ru
##eu
##zen
##rei
##omm
werden
##ien
##ran
nach
##ers
##om
##hal
##be
##och
kann
unter
menschen
##cht
wie
wen
sp
ab
uber
##oh
##ungs
##pf
##lei
##ra
##ot
##sten
##gel
##oll
haben
einer
ent
##ation
da
hat
##rank
##aus
mehr
##ell
##of
##ger
##spiel
##men
##ul
##ommen
beispiel
##erson
wenn
##fe
am
##ort
re
##inder
dur
##eil
##orm
##ass
person
##igen
als
##wer
einen
##isch
##all
##ap
um
##bt
##ver
##ed
##os
##um
ander
durch
bl
ber
##per
##eben
wei
man
mussen
wird
##og
betr
##zu
##schl
##scha
##her
ges
##zei
##iv
##rau
arzt
##bei
##ang
de
##ab
dass
##agen
##ad
##acht
pro
sein
beh
geh
einem
##ige
aber
##mer
bis
gi
##ist
soll
##achen
##uhr
##tet
diese
##ken
gibt
##tz
her
##imm
##ern
##auf
gel
jahr
##tel
zur
##che
##gt
##ischen
##eits
##liche
inf
bek
lei
##aut
##op
##schaft
all
war
##atz
noch
dar
##assen
##ner
best
##ktion
deut
kein
viel
nur
##ache
##achsen
##oron
##we
##amen
vie
##00
##dr
##ellen
krank
##ne
blut
##uch
##lichen
bes
##art
##cken
leben
coron
weiter
med
##fall
##ationen
##he
gegen
##unde
ihre
##tw
##geb
##ark
##offen
##tern
##unden
##ast
##ieren
neu
geb
ste
##weis
##ahl
##iert
##mit
##ander
##halb
viele
ih
##ollen
##ste
##uss
##hen
##fahr
##ri
gen
##kl
##zi
uns
##pp
##halt
##ehmen
sachsen
##ische
##krank
##trag
wur
##schie
##mmer
muss
pol
##weise
##keit
##aten
bund
hei
##orper
##mal
20
fin
##ichtig
##age
##etz
##bl
alle
##oren
sel
inform
str
betroffen
##ges
##sst
wieder
##min
##ild
kinder
##pt
##ing
##innen
##atien
mog
hier
bekommen
##est
##onder
##heit
##ros
hin
##fl
bundes
br
ur
##me
erf
gr
arb
##elt
##iger
sehr
hal
ihnen
besch
zus
ger
##utz
##ahlen
vom
##iz
##ikamen
##dem
dies
##agt
##pr
##ingen
land
ko
stad
we
schl
##amm
##ma
medikamen
##stand
##stell
was
deshalb
##elle
woh
##uh
##bst
behinder
##igung
kommen
##lin
th
##etzt
korper
##nah
informationen
##nis
##det
keine
ich
beg
##undung
patien
##zeit
##ak
##ffen
##alt
##ister
##ose
##ies
or
schw
gem
beim
##end
dam
eur
sei
zw
spr
##ehen
regel
behand
mon
##lau
machen
##allen
wo
##rechen
##herap
fahr
##mittel
fuhr
gros
bez
lebens
moglich
##haus
##id
mei
dieser
##schieden
zwei
##schland
##tag
##order
##sel
##off
etw
rei
gew
zei
dort
teil
##fer
##schein
immer
##ym
##halten
##merzen
##bs
##land
##itz
ob
poli
##ill
damit
##lo
##str
##fur
finden
andere
##ilfe
je
##gan
personen
##lung
##ef
zeit
##mpf
frau
dazu
schwer
impf
##teil
##bar
##ick
wichtig
##amt
##leicht
deutschland
##uck
en
fl
##ent
##akt
bestimm
corona
##pl
##herapie
verschieden
ihren
##hei
oft
##wie
##anz
##ahn
vielleicht
stadt
##ommt
anderen
unser
14
verb
hel
##nung
##enk
dr
##stag
##ess
##igt
gef
selbst
gut
hand
##ht
##werden
heisst
gesch
##anger
##ruck
pl
polizei
##zeu
##zeichen
##igkeit
wel
##eln
kn
stark
entz
dabei
##asse
##utzen
##irus
##su
sollten
kl
erst
haut
##gef
##urt
ins
##ragen
##esen
##isik
kol
##du
##fach
##ate
min
el
hauf
dafur
schon
##wir
herz
se
##leich
##sy
wurde
euro
##eich
bau
kind
ma
##bur
ang
##ater
arbeit
##let
##zial
tr
schn
ihrem
patienten
wollen
ange
wirk
##ff
ausser
##arm
jetzt
tag
beschwerden
##arbei
##aben
##itte
ben
##hoh
##ink
##fektion
##schei
verl
haus
##tzundung
##ic
##geben
verm
betroffene
thur
##mass
aller
##vor
seit
##ster
gehen
lassen
##ammen
lie
##ult
##uhl
##ats
besonder
not
##nehmen
geld
##gung
##urz
ihrer
brau
##ord
kle
medikamente
neben
##such
erkrank
##ov
##urk
ant
schul
##ierung
##ome
kranken
ch
##inn
##tem
jahren
einfach
##ok
##richt
##jahr
bede
manch
voll
risik
eines
jed
##ud
##asen
helfen
kr
##auer
##gr
##gang
##ange
##att
##zeug
##gend
##tre
##unter
##test
fru
manchmal
##itis
##rupp
bel
zusammen
##utet
neue
oh
##tragen
kommt
##unst
kont
grund
##ant
##ausweis
201
koln
mann
te
##satz
##yp
##icher
fol
gil
etwa
le
##anhalt
##itt
sachsenanhalt
wohn
fall
wurden
##pro
arbei
fr
weil
verh
##reis
antrag
##fahren
sowie
##heits
##ob
##amil
##rech
tel
##uf
##drus
bezahlen
nehmen
sollen
##ler
##ine
##ale
##rebs
ohne
bitte
hoh
gesund
sprache
sozial
akt
drei
##leim
##are
weitere
##virus
urs
frauen
##net
##lege
##ympt
eigen
##hilfe
##arzt
##klar
gilt
##sche
personal
oper
thuringen
frei
##druck
##od
sollte
##ze
bereits
famil
##ium
##lie
##issen
##schw
darm
##nahme
wochen
##ere
##ase
bedeutet
##wirk
kom
vers
verschiedene
dien
##unktion
behinderung
##fuhr
schmerzen
##ha
##stens
##izin
##zentr
entst
haufig
##ke
##woh
##zent
allem
pf
intern
schu
##schutz
tro
##stoff
durfen
wahr
##sam
aut
acht
##mel
zusatz
##orden
##ruch
welche
##ativ
eltern
##hn
erhoh
alter
zwischen
##chsel
coronavirus
di
##apier
jahre
##alen
ober
##raf
krankenhaus
ju
##artner
manche
uhr
prozent
stand
##falls
##entzundung
##minister
##arkt
also
hil
chr
diesem
nie
offen
##br
geburt
diesen
##eht
gehoren
##oten
##genann
##akter
gei
magen
##atur
##eute
##pfl
##kel
mittel
form
##ding
##stat
bewe
geben
arbeits
amt
heraus
##uber
##bild
##vers
ausge
blei
sol
sogenann
##efon
schnell
bur
fest
pass
##uell
recht
sympt
therapie
##ekt
meist
##itat
##ett
##beh
ak
hatte
zeigen
bar
bil
##ormon
behandlung
##anden
##offe
##kommen
konn
steht
##pz
denn
lungen
pr
##bel
##ossen
krankheit
##reiben
##alle
verst
stellen
##spr
son
##geld
leipz
##ogen
stehen
ex
link
papier
sprechen
##gem
##lass
##wend
bef
fragen
lang
infektion
verd
##euer
erfol
##treten
##angen
##arbeiter
arbeiten
neuen
brauchen
telefon
##esse
202
art
##reg
##burg
kurz
einige
norm
##hy
einz
eben
rau
kosten
kap
##agte
arz
habe
gest
##eiten
##nahmen
achtung
einge
schild
##setz
##geln
fahrzeug
pru
##af
##ost
##kehr
landes
##wirkungen
19
gesetz
##iess
##dung
##ungsst
risiko
ter
##kon
##enden
##los
nam
ru
tre
veran
##annt
chron
kar
##stellt
personalausweis
ne
bauch
gleich
hoch
##uten
##licher
sta
bestimmte
schilddrus
##laub
kunst
##ock
su
##ieh
##stem
anzeichen
##schafts
gemein
fach
##asst
gemacht
##ert
##stellung
##dur
##ute
##itik
betroffenen
##urkunde
bakter
bundesland
##iessen
sagt
test
##enz
empf
##inden
waren
##suchung
##urs
ausserdem
zahl
##heiten
har
qu
sof
##ischer
##merz
fuhrt
sagte
verw
erw
15
##haut
schleim
lesen
##ochen
##schmerzen
##mus
##zug
fallen
sonder
##ib
abge
wegen
jugend
mel
##letz
jedoch
##im
leich
##blem
urk
12
##rie
##achst
anmel
##olle
medizin
leipzig
wissen
##darm
ern
weniger
ehe
ganz
zun
unterst
besser
besonders
kop
mein
##kte
reg
kontakt
forder
will
##inger
sport
gesagt
##gebot
##stellen
lange
##ckt
termin
##ker
##schied
ort
folgen
##pass
##ember
verander
par
##ss
bru
##koh
hatten
##sucht
mund
moch
##essen
bean
##sa
##achten
geht
wasser
##aden
##kreis
internet
##gehen
gelenk
selten
##icherung
unterschied
laut
erhalten
##reichen
##gesetz
reise
pflege
daten
##ziel
##ande
fa
hau
##els
gefahr
verf
dan
##iss
hormon
##othe
##werk
patient
##kohol
##lu
etwas
zusatzlich
mass
##ssen
##sweise
wechsel
##if
##iden
##macht
##set
entw
##massig
wicht
##ote
sicher
##rift
imm
##dien
##lauf
alkohol
zuruck
##000
##ruppe
gesundheits
mitarbeiter
typ
##keiten
##vent
##unft
anf
##irn
schwanger
##system
klein
operation
dir
tum
##sprechen
spe
##wert
##schlossen
regeln
normal
worden
##iren
dres
erkrankung
verhut
namlich
##erin
schmerz
##dings
##ften
##stoffe
berat
montag
fuhren
rund
##hol
##ummer
##erkrank
##igte
##genommen
##ierte
##ionen
bron
knochen
allerdings
gallen
zahn
inner
##ika
atem
mehrere
genau
familien
dah
zahlen
##schu
##legen
darf
##gangen
##az
##ug
##arz
entschei
sofort
##bes
##rad
##ular
bronch
app
hilfe
##zentrum
symptome
hu
##abe
##ian
##hrom
##arten
##raft
anderem
wahrend
##durch
entwick
immun
##sf
##rat
##ph
ausland
##verb
##iehen
beruf
##immt
behinderungen
lu
##pfen
##erv
##aufen
lebenshilfe
##gemein
bakterien
langer
nah
##unkt
##klarung
ap
mal
##echt
zulass
verein
problem
halten
at
##ief
auftreten
##regel
mensch
##app
bild
dauer
heil
pra
ven
verg
geburts
einzel
adr
##von
##itten
produ
entzundung
##grund
ebenfalls
letz
wahl
##olog
kopf
benot
##funktion
##orungen
##asiden
##arf
##ehn
liegt
ursache
burger
sondern
on
##ade
innen
##oche
keinen
##pflicht
mochten
##hromb
ast
fir
tun
##hang
##ack
##met
##pft
##orgen
organ
unserem
2g
macht
##gesch
beispielsweise
##ont
##orn
##tens
ersten
apothe
10
##ennen
##chten
##unf
verurs
##utter
weihn
##eg
##lage
##voll
##ichten
europ
seh
##icken
##eiden
##tra
##ille
##webe
coronare
sach
##iot
##uter
##inken
versch
don
ema
fuss
##ingt
##anzen
##gew
##weisen
betreu
##ahlt
##prache
medikament
onlin
11
##glie
##wehr
bet
##spie
demon
##ucher
##losen
asth
##ho
##erk
coronaregeln
##erschein
##ald
anste
zudem
##utzt
deutschen
tumor
18
for
mdr
sit
angeb
besteht
##iehungs
sachen
##enn
##leist
behandelt
chem
trotz
bleiben
daher
nun
##inf
##schn
essen
einfacher
##richtungen
woche
##ank
end
14r
entstehen
##dienst
##eren
##rage
##indern
deutsche
email
tage
##krebs
##uren
erforder
seien
##io
##unge
seine
vielen
zunachst
##aschen
##tlich
##qu
verk
##agn
##standig
gross
##versicherung
##19
##angebot
##dern
augen
##trau
allen
##ziden
unsere
minister
##ruppen
papiere
200
heute
vier
##hin
##ide
##inge
##geber
##ampf
##ablet
infos
dieses
##ac
##ober
##par
##chs
##stalt
stunden
##osit
verschiedenen
##sicht
##ure
##lecht
erk
ausweis
##omp
ursachen
dienstag
##nungs
##esprache
##ehl
##reger
minde
angaben
fre
per
##emen
##einigung
hinter
entzund
##bildung
konnten
harn
tagen
##isten
##neh
statt
##beschein
entfer
##ull
##ive
allgemein
grosse
fruher
dresden
adresse
demonstr
50
kunden
##ow
davon
##zeitig
nebenwirkungen
europa
eher
gab
klin
##dro
stud
##recht
blutdruck
arzte
nutzen
zehn
##fung
hilft
weihnacht
kult
ren
thromb
##hor
##gie
##erweise
schreiben
##einander
politik
kleine
##bau
##ende
##chn
##isk
vorher
##impf
##lander
##eile
##eilen
ind
beein
einfachesprache
online
##bescheinigung
einfachespracheangebot
kal
##eig
hinweis
monate
##zidenz
30
doch
fot
funf
ph
##infektion
verletz
antib
belast
sogenannte
brust
##asident
tat
intens
gegeben
##gelenk
##schliessen
##angt
16
##opf
unternehmen
wenig
darauf
pfl
##egt
erken
regelmassig
lebensmittel
##ovid
richt
##lagen
##kunft
beschaft
##bereich
##uhren
##gebnis
##fluss
ende
##ministerium
fort
lander
mich
off
##ieber
##stelle
betrie
bisher
kopie
direkt
du
tragen
##unsch
##arb
##andem
muskel
##blut
erhoht
##sm
##walt
denen
kontr
personlich
beraten
grun
husten
ster
##ip
##cher
##int
halle
##sych
staats
reisepass
nov
pe
##ust
##mpft
##rier
##chte
##ieten
einsatz
##berg
nachweis
untersuchung
##schluss
##nerstag
##klus
tages
fruh
donnerstag
fle
sagen
sehen
##stad
erz
untersucht
##ordnung
asthma
covid
lasst
trau
##ucht
##deut
untersch
gelten
weg
jeder
##suchen
##behinder
antibiot
funktion
welt
##lungen
##ussen
##ard
bein
##terin
ansp
##trage
stell
stuhl
leicht
deutlich
danach
venen
##scher
beziehungs
##letzt
schuler
vollmacht
schule
druck
sen
##ohr
##fr
##kr
##erst
##org
inter
##eitung
spater
##ellschaft
weiteren
grosser
sogenannten
beziehungsweise
60
viren
##pol
beachten
gewebe
prostat
fuhrerschein
anmelden
beantragen
25
namen
##oder
##bung
##stein
##schrank
##ital
schutz
##riff
fahren
impfung
##burger
notwend
diagn
intensiv
november
22
comp
part
richtig
sal
##hand
##fol
##ierten
##uhrt
bekommt
##sprache
klinik
he
##mog
##buch
##spartner
voraus
##serv
leist
##gesetzt
geimpft
konnte
gemeinsam
##rieben
speziel
gult
mag
sa
alt
umw
schwere
geschw
starke
tex
##wohner
##regierung
schilddrusen
innerhalb
bin
tablet
wann
##osen
##form
##ka
##punkt
##igten
##reich
haupt
letzten
nerv
virus
einmal
##esamt
besten
meisten
erwachsen
dinge
##hau
##lassen
##leben
##schlag
##zeiten
bestat
##heim
met
##pru
##eigen
daruber
wohnen
komp
krebs
mig
##umen
##stit
##lichkeit
##ehlen
lebenspartner
wirkung
schulen
melde
urkunde
beratung
mindestens
13
fieber
gast
wort
##aktion
##nach
##ane
##asser
bed
##gegen
##ahrung
bereich
##zeich
platz
liegen
arthr
schilddruse
massnahmen
##andemie
psych
##ator
spiel
seiner
leber
aktu
band
che
##sitz
##gabe
##falle
entsprechen
gehirn
medikamenten
freit
##ative
anstecken
kultur
cdu
nasen
##hem
##mat
##bruch
##bed
##weg
kindern
bescheinigung
schlag
bestimmten
standesamt
solche
##setzen
##aun
##fte
##ren
##erne
##rafte
bahn
ul
##bahn
##wahl
##ennt
##stet
##eld
erlau
schicken
aufgrund
sprech
##pflege
##ograf
##twort
##atienten
familie
verdacht
migran
event
##yn
coronap
##twoch
erfurt
vermeiden
treten
freitag
##mann
einnahme
mittwoch
##ramm
##peratur
##press
angst
trinken
niedr
natur
##mt
##person
##ichtet
##orge
derzeit
spd
##haft
bleibt
##laubnis
leichter
100
mill
##kop
nacht
##utzung
jugendliche
##stadt
computer
02
##pel
vergangen
arm
formular
luft
covid19
21
il
##ipp
##ffe
##wasser
##ichte
##agel
##schliess
##klart
mogliche
##itze
##teilung
fluss
sechs
benutzen
urkunden
##gewicht
chef
dig
ruck
##iet
##schuss
##iges
ausreichen
##rucken
##ohn
##ivid
gebuhren
steu
firma
individ
sinn
ziel
##annten
stelle
##reise
aktuell
situ
##staltungen
posit
##ift
##gar
##zw
##sta
##aren
dadurch
wohnung
##wohl
bilder
nahe
##bein
##entr
##ullen
##verkehr
beglaub
##aktoren
barrier
fer
feuer
tier
##bil
##wand
einigen
##schleim
sieben
##gestellt
mitglie
##ager
##ondere
insbes
besondere
##setzung
chronische
wichtige
anfang
bronchitis
##spiegel
##nehmer
insbesondere
jem
lau
##sk
##usse
verfahren
ergebnis
##irur
bestehen
kostet
grossen
##aunus
rat
rad
tra
zentr
##so
##ima
##ufen
##nummer
##lungs
##kten
##ball
##itzen
##arte
##ismus
##cker
gehort
meistens
folge
hoher
erfolgt
trotzdem
jan
komm
##oster
##arken
geeig
##gericht
##schad
gerade
##baren
prufung
rufen
barrieref
24
park
ub
beiden
wert
prof
genesen
jeden
##eichel
akute
entscheiden
probleme
erforderlich
mob
nieren
##kn
deren
erste
ihn
brief
handelt
renten
##stitut
af
dun
kenn
##ial
##th
##eid
##stimm
zug
##abil
seinen
krankheiten
##prasident
##platz
##untersuchung
##zept
neur
partei
eventuell
fast
gl
nagel
##anfall
##schrift
bew
nichts
##ktur
enthalten
##krankheit
##uhlen
##teilt
##abend
##schnitt
arthrose
migrane
ahn
fal
kor
##egen
##nei
anw
verkehr
alten
aussen
betre
alles
symptom
exper
immunsystem
erkennen
kam
leute
mand
post
##zahl
##ikum
##undet
stra
##rosser
bringen
seite
monat
geschlecht
##okumen
karte
staat
schwangerschaft
gruppe
woll
##ugung
##nitz
##last
##mei
##standen
ung
##esser
##ema
##olf
sogar
##weil
##betr
reag
behinderten
notig
eigenen
priv
##wendung
rauchen
treffen
wichtigen
##intaunus
gar
me
pille
##fallen
##forder
##gefahr
auszu
##isches
##verein
erkrankungen
2013
entsteht
grad
mar
##sh
##umm
##nnen
##mon
##pack
##ven
##ys
einkommen
##igkeiten
getr
##illen
aufge
##gelegt
gesellschaft
leiden
##rimin
findet
spricht
##plan
klima
##gefuhrt
sep
##ice
hohe
geist
bewegung
kapnnen
##erkrankungen
61
bunde
kre
kraft
merk
##son
##sichtig
##to
##lang
##ron
##ahmen
musik
##edizin
bekannt
moglichst
##wiesen
gefunden
beweg
bi
fe
glei
mun
partner
##licht
##for
##fah
##keits
##krafte
##stru
##ungsp
##atzen
bevor
ermittel
werde
##otz
##ations
##ivers
dez
behandeln
herzinf
aktiv
2020
geburtsurkunde
##ologie
umwelt
gerne
##gruppen
##frei
##ition
stimm
##ause
##wechsel
blutger
genug
arbeitgeber
manner
dienst
weihnachtsm
dro
nimmt
rahmen
##ider
##endet
##onnen
##annte
erb
##raum
##auftrag
##blatt
schweren
14ssen
maintaunus
vermehr
falls
##setzungen
##schule
35
achten
bank
kreis
lehr
mil
to
##orgung
##itter
geschlossen
berlin
alltag
schlimm
auto
gefahrlich
sachs
chemnitz
notwendig
lin
sicht
##asten
##gien
##finden
##orung
ihres
##reicht
untersuch
strassen
plotz
haufiger
offent
arznei
prufen
wechselwirkungen
verursacht
##own
dezember
40
bald
lunge
mutter
nase
rett
##gaben
##bol
unfall
##usst
siehe
beide
##liches
##rankt
##ohlen
umf
##verfahren
finger
strom
strasse
##strasse
verlauf
krampf
##erkrankung
benotigen
herzinfarkt
17
fett
vide
weit
##mas
##pra
##partner
##zogen
bewohner
anschliessen
##aum
zeigt
schwerbehinder
199
##ungsstelle
unterstutzen
##verband
##schrankungen
##ografie
eu
##hof
##des
##iver
##uar
##ufe
##therapie
##zellen
##ernen
##under
##alter
anal
erklar
##tritt
##spl
##etten
##etzen
##reiten
##verordnung
##abet
jeweil
eng
##ministerin
schneller
erfolgen
entfernt
magde
januar
zellen
##21
##iesst
##scht
verz
verletzt
erfahren
schad
##oss
blutgef
##ripp
bundeslander
tritt
internation
bilden
wissenschaft
verhutungs
sinnvoll
rettungs
bruch
hangt
tran
##affen
##gruppe
##rt
##bin
##yl
einnehmen
##berecht
##amin
##wege
##nete
##mitt
##klin
landtag
##innsel
gesundheit
##schwache
benotigt
diagnose
kennzeichen
ei
ele
##storungen
##isierung
manchen
##schaften
##merk
monaten
##loser
##ometr
sonst
rucken
verantwort
unterschiedlich
verursachen
politiker
vergangenen
##meister
dick
glau
gute
ost
rolle
win
##man
##pen
##vol
##indet
##orben
##alten
erreger
schei
##trem
blasen
##halts
##plant
sex
thuringer
jedem
2019
bewegen
2gregel
apotheker
thrombose
grunen
text
nerven
bedarf
##iftung
bundestag
hande
of
##ia
##imal
##ko
##ktr
##beu
##iter
##ters
vorlauf
mussten
##rufen
unterlagen
##gelassen
##verletz
durchfall
##iste
besucher
welch
knie
legen
normalerweise
berufs
studien
sterbe
disk
kur
lernen
##samen
##hoch
##gb
##oge
##fan
einrichtungen
sieht
##achlich
schutzen
##sport
wirkt
wirken
andern
zwar
plan
trink
sonnt
infektions
##register
leichte
vergrosser
beeinfl
schlaganfall
##mung
##korper
##ziehen
##weit
##chter
##arant
##bers
wirt
##iven
weiterhin
zweiten
starker
kindes
erhohen
unterschiedliche
angebote
kontroll
##folge
ausreichend
hy
lage
ol
rein
wider
zy
##fern
##one
##igungs
ged
impfen
##etsch
gespr
gelangen
stefan
hinweise
landkreis
schliess
##arbeiten
2021
##bedingt
##schleimhaut
effe
rel
##keln
##igkeits
##auern
##etin
vorlie
abs
##schaden
hals
reiz
allerg
kretsch
erfolg
gleichzeitig
quarant
schleimhaut
verfugung
zulassungs
tabletten
cop
##ael
##20
##eite
##hren
##ichts
abwehr
##krankheiten
bundesregierung
thema
hormone
##holen
##drom
leistungen
anschliessend
elektr
gripp
rot
the
##ieb
##innt
##anzei
##schul
##eldet
##sein
vorsprache
##ikation
##reiche
nachsten
##tzund
##nisse
beginn
moglichkeit
vermie
vollstandig
frie
kleinen
kundenzentrum
##blutung
prostata
millionen
steuer
copd
bab
jen
oben
sgb
##sd
##not
##markt
##fra
##inzidenz
##stuhl
##orten
inzidenz
beteil
anwendung
zuge
ausstellung
auslosen
stei
spie
leisten
coronat
gewalt
max
konto
verandert
situation
kretschmer
3g
95
atel
ham
pc
rh
ziehen
##uz
##ffer
##zet
##ww
##orde
zustand
sod
menge
##beut
abgeben
##mals
stress
halt
wirkstoff
##hohlen
jedes
folgende
##setzt
produz
apotheke
michael
##ummern
krampfa
sonntag
atelier
bieten
falle
koron
mot
roll
tem
ubel
wunde
##uchen
##mar
##schall
ausbildung
##iker
##reifen
arztin
bremen
##altung
##mitteln
##mpfte
verbind
angehor
##zentren
wahrschein
bildet
chronischen
##saure
##lustr
##traschall
##frist
komplet
ultraschall
illustr
##spiegelung
quarantane
has
klei
##bru
##pes
##30
inhal
ausf
##reitet
##omat
##fekt
betreuer
geworden
kompl
krankenhauser
unterstutzung
##schulen
kopfschmerzen
##egister
betreuung
ministerprasident
##nungszeiten
landern
stellt
##kret
spezielle
barrierefrei
coronatest
bus
lindern
nor
okt
zie
##anc
univers
##als
##igungen
verlau
stoff
mehreren
bislang
hervor
##atze
krankheits
##aster
##linien
verbesser
eigene
##wohn
krankenhausern
rechts
belastung
sprecher
jemand
profess
geistiger
ermittelt
blutgerinnsel
oktober
bander
ev
eis
mas
nation
ra
##ay
##mark
##racht
##park
##zus
##war
##will
##xis
##eitet
##stau
##alitat
and
ermog
schrift
##mmel
albers
##ison
##besch
##iziert
verloren
braucht
##jahrige
##tests
techn
wohngeld
diabet
akuten
suchen
firmen
entzundungen
entfernen
fleetin
antibiotika
fersen
magdeburg
##zettel
illustrator
fleetinsel
80
frank
ss
zah
auge
verschw
ersch
##sehen
ausloser
##veran
krankenk
##astik
genu
gener
##zisten
##heimer
antik
versamm
##habe
nieder
kunstler
region
dauert
##zwischen
##hochdruck
65
buch
dos
vater
##hil
##drucken
##feld
##ritten
##kraft
aug
erlaubnis
erklart
##tracht
##sex
##reie
abstand
beglei
polizisten
gefass
hause
fussball
erwachsene
rentenversicherung
verkehrs
bo
sin
##seite
##gramm
##kund
##err
erwei
##verg
anders
##abhang
##opfen
daran
gebarm
moglichen
hinaus
##load
##syn
notfall
ernahrung
##gehend
demonstration
kalte
ansprech
##pruft
gebarmutter
fehl
ib
los
pandemie
##sorge
##machen
##ki
##patienten
##zy
##jekt
bezeich
zuvor
zufolge
##agung
##serreger
weiss
##rauch
gehei
##wegen
schluss
begunst
ord
##teilte
grundsatz
frem
kombin
passiert
kostenlos
##ocker
verwenden
##vention
gallenstein
##hode
foto
flussigkeit
digital
plotzlich
trinkwasser
##beutel
rollstuhl
ubelkeit
em
fert
kaufen
liste
mark
morgen
ront
sam
taus
teilen
##dip
##zess
##erinnen
inklus
schaden
##rochen
##ikel
##serklarung
wenige
entsp
##zeigt
##abor
darin
##gesamt
zeichen
teilweise
klar
insgesamt
##scheiden
##urkunden
##jahrigen
##ativen
##bringen
##hys
raum
neg
##ratet
verletzungen
##service
straft
##tzundungen
rontgen
hor
jod
res
##zheimer
##iegen
##eiche
##artet
zugelassen
##auft
beipack
alzheimer
##ikationen
##gere
redu
##verstand
##oskop
flucht
##arbeitet
verlust
##gangs
##behand
krankheitserreger
anmeldung
##arbeit
binde
individuell
##ownload
grippe
beipackzettel
download
hot
ide
nahr
passen
vit
wunsch
##hmt
##griff
##no
##utt
##isiert
##amten
##spe
##indert
herunter
warme
bluthochdruck
##mittag
finanz
jede
##gefuhl
##isiko
minuten
verlanger
##richtung
wohnsitz
2022
ebenso
veranstaltungen
verandern
eheregister
offnungszeiten
unterschreiben
intensivst
aktuellen
bandschei
##ippen
anwenden
offentlichen
dop
messen
pa
##lt
##kde
eingesetzt
unbedingt
##orgt
bewer
##tert
##leg
arten
##eum
##euten
ubertragen
enthalt
##kenn
geboren
ihm
schlaf
schwell
moglicherweise
impfstoff
hilf
bauchsp
beeintracht
##ohre
##irurgie
##stimmung
video
glauben
##hmtkde
co
fehlen
netz
nennt
tats
tod
##ct
##iose
##leit
##medizin
##institut
##steuer
##orl
##orf
inzwischen
zukunft
##lex
##lechter
ermitt
beitrag
aufent
starken
##ehm
##reibt
##ienen
##ranz
uberlast
anderes
blase
##neten
beginnt
schwier
bezahlt
##temperatur
##druse
verdau
atemwege
##leistungen
richtige
gultig
lebenspartnerschafts
geeignet
munchen
antikorper
bauchspeichel
faktoren
jung
junge
kaum
laufen
##fot
##falt
##fels
##ina
##eichen
##anwalt
##ese
geschafts
verr
erklarung
alte
altern
##reisen
##beding
##vertrag
##rise
stren
urin
gren
##tages
brauche
lungenentzundung
wechseljahr
entwicklung
sehnen
##impfung
lebenspartnerschaft
experten
##klinik
##syndrom
bran
gruppen
rober
##enfalls
##ieg
##anken
erne
denken
##ungshem
##assungs
kindertages
gericht
wohl
lebensjahr
##ymph
wirkstoffe
verhindern
trocken
##affe
fordert
gesundheitsamt
apps
entwickelt
betriebs
voraussetzungen
kommun
rettungsdienst
##anzeige
reduz
robert
erneut
fund
hiess
sauer
##sau
##ius
##upro
##tau
##pa
##vest
##wunsch
##ietet
##atter
angel
angebot
erreichen
personliche
gesicht
protest
schwimm
sprung
zeitpunkt
bestimmt
##ickt
versicher
##fuhrung
elterngeld
##statten
bargeld
infektionen
empfehlen
zunehmen
demonstrationen
gegebenenfalls
anspruch
bestatigung
mobil
afd
kreuz
##bolie
beeinflussen
zulassungsbescheinigung
pcr
diabetes
ibupro
ibuprofen
bas
eck
hol
ja
jungen
sau
setzt
therap
##ile
##iner
##unkte
zugang
##geschw
erhalt
ausnahme
##schenkel
vorh
##ohann
##otherapie
##fest
##weder
neues
##steckt
informieren
##akte
seiten
##fuhren
zusatzliche
befindet
##traum
coronapandemie
##staat
gleichen
verringer
hunde
pil
wind
##daten
##kul
##10
##iefer
##itaten
anrufen
zuerst
##auen
mitt
##ckung
abk
entweder
rechte
durchgefuhrt
gelegen
stadten
moglichkeiten
wirksam
risikof
arbeitet
hohen
##fuhrer
name
zahlreiche
medizinischen
erlaubt
merkzeichen
zyklus
maximal
temperatur
ansprechpartner
samstag
28
fra
johann
lymph
setzen
wes
wachst
zeu
##co
##gri
##gleich
##nasen
##nimmt
##raten
##ring
##kopf
##band
##pe
##inal
##stoffen
##itats
##tete
geplant
vertre
verpflicht
##ierungs
muskeln
ubergewicht
entde
dagegen
##uma
##schlagen
depress
seinem
##mitis
korperliche
gewesen
mai
elternbei
passfot
sonnen
##gemacht
langsam
gesetze
schleimbeutel
vergleich
##odermitis
neurodermitis
ausfullen
ag
fern
gorl
kei
kort
kehl
mut
mik
wahlen
##riss
##ittel
##aler
##arian
konserv
##ions
werk
##ient
##pfer
warten
##stellungen
begr
teilhabe
wirklich
##iclo
##massnahmen
##uhlt
freiwill
telefonnummer
veranderungen
bildungs
##parate
symptomen
##volker
krampfadern
august
gorlitz
bietet
dokumen
dauern
frage
hirn
kunft
opt
tau
##ucken
##tage
##thy
##ans
unten
indem
beauftrag
##achtet
##termin
vertrau
##leber
##bend
mitteilte
##einrichtungen
##amte
##ielle
##cke
vorbeu
abhang
##abchen
gift
bekomm
sachsens
zwick
##bare
elter
arbeitspl
verstopf
chronisch
##licherweise
kopp
##vollmacht
europaischen
##rechts
##deutschland
erwachsenen
##hauten
sterbeurkunde
jena
komplett
grundsatzlich
bandscheiben
baut
ganzen
leit
mir
pul
sil
teile
zo
##da
##na
##leitung
##mart
##kom
##wur
##erken
##inde
##anzt
##angeb
einzu
schlecht
aufgaben
##sporn
##rohr
##ahnen
demnach
##leisch
##werte
##verd
gesp
##riften
##blase
strei
landk
##linge
unserer
##urzung
##angehor
##zeugnis
versorgung
##brennen
subst
formen
aktuelle
feuerwehr
mitglied
wollte
##forderung
masken
##beschwerden
begunstigen
tausend
elternt
ass
labor
markt
syn
##sum
##ias
##uellen
##ichter
##eloff
##tend
anerk
##olmet
erfahr
##reiz
nachge
rech
bestell
polit
beginnen
##offnet
selbsthilfe
tee
##produ
autos
lungenem
eheurkunde
folgenden
typische
atemnot
bildung
heilpfl
organis
bewusst
eisen
welches
fersensporn
##anwaltschaft
kopping
abend
jur
lippen
vol
##je
##12
einf
beob
anges
gebe
gescha
gewerk
verab
##leger
erle
ergan
stoffe
musse
spei
reaktion
betragt
warum
blutungen
##krankungen
haltest
teilnehmer
bestimmen
geschrieben
entzundet
##prochen
soziale
hilfen
geimpfte
magendarm
solchen
##kontr
veranl
##iehlt
empfiehlt
unterstutzt
mundnasen
seltenen
verhutungsp
##verbot
prostatak
niedrig
weihnachtsmark
untersuchungen
bundeslandern
scheide
sodbrennen
produziert
professor
sauerstoff
verpflichtung
ac
cr
licht
nutz
rki
sorgen
smart
tri
##heil
##teile
##bo
##enken
##inson
eindeut
einschrankungen
uner
##itzt
anzu
gekommen
erreicht
ausfuhr
vorzu
sowohl
##ochinstitut
##raut
gegenuber
allein
alleine
hierzu
##altungs
orig
reicht
obwohl
schwerer
unseren
angem
##aterial
taglich
##massige
haufigsten
befinden
landesregierung
karies
haup
schmerzmittel
bronchien
##apps
endometr
##ullt
tagespflege
erbrechen
jeweils
vorlaufigen
theater
sprunggelenk
abkurzung
endometriose
kund
rud
##acken
##oper
##mand
##komm
##zer
##xin
##ied
##urm
unbe
##ath
##atte
##alition
##arben
##dent
zuletzt
gek
stabil
##ette
vorber
nachdem
gebaut
genauer
##kler
##zif
grunden
stadium
##scheinen
impfungen
##wirken
##tember
fallt
freizeit
darmspiegelung
links
tests
eheschliess
meine
fordern
##arzte
entwickeln
freu
pflicht
petra
##moglich
entsprechende
##schliesslich
##bilden
ublicherweise
reagiert
september
schwerbehinderten
gesprach
schliesslich
inzidenzwert
kleidung
##veranstaltungen
##kennzeichen
tatsachlich
haltestelle
08
45
dolmet
waschen
##di
##dner
##uelle
##upfen
##laden
##iefe
##stande
unge
union
##orb
##use
##usion
##empf
verhalten
erg
schaffen
##sprech
##kturen
nachweisen
##omie
##becken
unterricht
##pflich
##auskunft
umge
##verwalt
blick
infrage
stecken
##ahlung
genannt
heissen
kinderreise
themen
teilte
verbr
plastik
angesteckt
ausserhalb
erkranken
altere
offentlich
dennoch
gestorben
facharzt
melden
gelenke
dauerhaft
##geschritten
beschaftigten
fortgeschritten
mitglieder
##schadigt
parkinson
betreut
betreffen
reagieren
verantwortlich
##mangel
haseloff
erweiter
bekomme
##hautentzundung
verpflichtungserklarung
1000
feu
lag
nahrung
pfe
phys
sy
teu
wander
##dokumen
##ios
##gl
##ubl
##oid
##mik
##korn
##bul
##po
##entzundungen
eingenommen
eingriff
##orte
zustandig
gestellt
vertrag
erleich
schm
schock
auslander
stat
##rogen
##rose
##roxin
arch
vorlegen
sommer
nachricht
personlichen
jahres
##ierenden
heiraten
brennen
gemeldet
zwolf
##fert
entzunden
hausarzt
frauenarzt
diver
christ
##ormone
leipziger
pruft
##losigkeit
sofern
dresdner
zulassungsstelle
sitzen
betrieb
antibiotikum
0221
digit
positiv
geschlechts
privat
hamor
komplikationen
zwickau
bro
dist
eig
fuhlen
hem
luf
rb
tot
##ce
##oe
##zahlen
##inen
ing
anhalten
##ole
##truf
ausdrucken
arn
##omografie
wenden
##verander
##adag
warm
genannten
##zip
monats
##strich
##gange
helfer
handgelenk
arbeitslosen
befr
kaputt
gestagen
gesetzliche
praxis
allgemeinen
ahnlich
##riminal
sichtbar
dickdarm
wirtschaft
national
zahne
##vergiftung
fremd
gallensteine
vorhanden
##angebote
elternteil
veranlagung
eheschliessung
pfeffer
teufels
500
gur
jul
koh
kleist
nsu
nord
nummer
tater
ummel
##ub
##tt
##ks
##kw
##ps
##wart
##xen
##iti
bevolker
gezeigt
verord
erh
##iere
konne
konzentr
stamm
somit
abzu
herzen
##gebiet
##fahrzeug
informiert
##flache
grunde
##izierten
fahrzeu
gewahr
verband
drittel
knor
risiken
##unterfunktion
eigentlich
automat
mittels
mittelohr
ausgestellt
verstehen
eingesch
verwendet
typischen
##holt
entscheidung
allgemeine
schilddrusenunterfunktion
##wegs
mandel
sachsischen
blutgefasse
##verletzungen
reizdarm
spielen
##fristig
kombination
##griffen
##tageinzidenz
nachgewiesen
26
90
ener
fei
hof
hunder
kurk
kuhlen
kummern
lok
pin
##sitzen
##ax
##izei
##les
##risiko
##zahlt
##wort
##enrei
##stro
##stra
##organ
##ign
gepruft
veren
##utung
musste
##beg
speichel
ubernehmen
##merken
##immer
besenrei
##tworten
gebau
hierbei
zeitraum
##ymn
wichtiger
##aktiv
geforder
chanc
##drusen
##wirkung
burno
##belsau
jugendlichen
parac
prakt
stattfinden
##infektionen
tatig
richtung
staatsangehor
schulerinnen
diagnost
##knoten
##formen
verhutungsring
rasch
##sextrem
##dipin
##behandlung
intensivstationen
kunftig
kinderreisepass
pfeffermin
kurkuma
23
diclo
ec
ir
mie
omik
zerst
##ba
##bark
##betten
##inom
##asenk
infekt
##itel
##teste
##achte
##olff
versp
mitmachen
steigen
##iell
##fenac
werte
voruber
##eller
amlo
umstanden
herpes
##weiss
##fahrer
selber
hinzu
koalition
orten
reisen
gefuhl
knapp
##problem
##haber
alteren
offenen
festgestellt
##behorde
##spritze
ruhe
regierung
##ingerdarm
einzelnen
produktion
##spiele
forsch
staatsanwaltschaft
##politik
##polizei
leistungs
tablette
erlauben
niedriger
beglaubigte
genesene
risikofaktoren
hamorri
gurtel
knorpel
burnout
diclofenac
omikron
##olffingerdarm
amlodipin
27
bal
ball
car
ep
kil
lthy
no
opfer
pn
##dungen
##garten
##lose
##lhmtkde
##fin
##chnet
##anal
unabhang
##atung
##itu
verpflich
##ehung
abges
##gelost
ambul
weise
##angnis
deutsch
stre
halterin
##ingend
schliessen
korpertemperatur
klass
besonderen
##ometer
##okrat
##yphil
##odont
forderung
parodont
##ifft
mitarbeiterinnen
schwangere
kleiner
burgerinnen
betreuungs
##droh
##iskraut
beschaftigte
funktioniert
spielt
radio
nierenbecken
kreislauf
milch
winter
elektron
steigt
3gregel
angehorigen
stoffwechsel
657
fertig
eckarte
mittler
kortison
vertrauen
verstopfung
bandscheibenvor
original
ingwer
kleisthaus
lthyroxin
ad
obst
ruh
wun
wolf
##seit
##uche
##mil
##fp
##varian
##50
##enzen
##antrag
einzug
##urer
unklar
##tein
##ement
versucht
##tran
##tret
ausb
##amol
##spfl
##ehrung
arter
##regeln
##omas
untersuchen
abholen
##gerufen
##eiligung
##verf
weib
##west
##uchs
gebil
##ppen
straf
brand
gerat
gerinn
##izieren
schla
kommenden
thomas
gefasse
masch
2018
eigent
haufigste
oberburger
extrem
medizinische
mochte
##ission
spezial
forscher
angeboten
naturlich
##personen
parteien
klimaschutz
sachsische
fettleber
ostrogen
baby
verbindung
ermoglichen
bezeichnet
lymphknoten
entdeckt
mikro
verhutungspfl
smartph
besenreiser
hamorriden
##yphilis
mer
ohr
sitz
##sal
##hein
##hard
##asche
##ts
##teilen
##ln
##oben
##fz
##bet
##statt
ungefahr
##usen
##arab
##arif
##denk
##gewebe
geziel
auss
##isse
##spruch
##etamol
##iellen
##ehler
##reaktion
uberall
ubersetz
entfern
bereit
##zucker
gebracht
##mitglie
##blick
halter
zwolffingerdarm
verbunden
handwerk
arbeitnehmer
##suchungen
zusammenhang
freistaat
##bildungs
##bele
gesetzlichen
##ungsstabchen
ganze
beantrag
##issb
verhutungsstabchen
##appen
produkte
letzte
ministerium
##staltung
##chnik
verletzung
brustkrebs
trauben
stuhlgang
##formular
falsch
auszubilden
weihnachtsmarkt
verzichten
##kosten
effekt
effekte
vorliegen
vorliegt
verlaufen
eispr
schlussel
ordnungs
johanniskraut
zoo
juli
##belsaule
paracetamol
oberburgermeister
92
bra
boll
dein
fischer
fuhlt
ii
kfz
linken
pau
syphilis
var
##ugen
##namen
##pers
##viren
##zul
##chirurgie
##schmerz
##altet
anst
verstand
##trakt
##sequ
konsequ
vorder
spann
spate
##leiden
##verlu
blind
berg
##opad
ware
##astasen
heimat
##gesellschaft
schwarz
zeiten
verboten
herzk
benacht
##unterricht
kontakte
sozialen
wochenende
entstehung
autob
alters
mitteldeutschland
amts
198
bauchschmerzen
fax
fotos
pflanzen
interess
speziellen
##kammer
meldebescheinigung
##irurg
rathaus
ungei
verbessern
verschwinden
krankenkassen
vitamin
herunterladen
##ehmigung
branden
reduzieren
lungenembolie
weihnachtsmarkte
divert
teufelskr
bm
ehren
gd
hyp
kir
kaffe
lka
mult
punkt
reh
taz
vis
##eut
##ca
##ilet
##neben
##frie
##passen
##prechen
##zie
##15
##sto
##unehmen
unfalle
institut
##ars
anb
verhei
schr
ausgeb
##ilm
auffall
aufgabe
stunde
##ielt
vorbei
vorgelegt
##beauftrag
abschnitt
ubertrag
##ungsgesetz
entgegen
##gert
betrifft
##herm
leider
gewoh
floh
##anze
wohnungs
kompress
offene
kapln
##konvention
empfohlen
##muskel
leichten
wasserlassen
internetseite
zulassung
organe
##inform
erkaltung
kundenzentren
seni
##orgungs
##haupt
methode
zentrum
glas
lehrer
toilet
##giene
##maske
rheu
barrierefreiheit
verlustanzeige
paar
##ungshemmen
passfotos
prostatakrebs
##klerose
eisprung
asy
hund
hist
hart
jo
lock
mu
oste
ram
rachen
tief
ve
weits
west
##del
##ieben
##ining
##ante
##anom
unver
##oris
##itor
beamten
verschl
beitrage
scheiden
aufgenommen
vorsprechen
##betrag
wenigen
speich
uberleben
beruck
gelangt
##oph
##artige
strahlen
erfr
gering
wearab
thym
##akul
##hausen
##ferenz
klasse
mannern
dreimon
##odell
abgeord
anmelde
mediziner
ernst
meinen
sachbe
betten
##hoden
##leistung
augenarzt
phob
phase
sterben
kliniken
laufe
tour
wahrscheinlich
buchst
sinne
fluchtlinge
nahrungs
arbeitsplatz
##rohre
heilpflanzen
speiser
crem
fremdkorper
bevolkerung
eingeschrankt
gurtelrose
parodontitis
schlusselbein
spatestens
flohsamen
dreimonats
aktion
bay
eg
et
ho
ident
kat
kennen
losen
moder
wal
wald
zell
##horen
##ime
##gn
##tes
##ram
##kal
##bach
##papier
##erei
##erklarung
##chan
##inzip
einfluss
##urn
inst
anteil
##gende
versuchen
erhe
schutzt
##andt
aufzu
##amp
storungen
##spra
##ruf
##beschei
unterhalts
abteilung
uberw
##gerecht
rechten
deutscher
##drich
##drian
blutung
weiteres
heilen
gersten
damals
zweit
behandlungs
zweite
insol
herzkrankheit
##untersuchungen
grundlich
verstarken
telefonisch
##kont
empfind
unterschiedlichen
gallenblase
atmen
ather
##ologische
##asidenten
chemotherapie
harnrohre
geschwur
nasenneben
tiere
dunn
korpers
vermehren
##masken
erklarte
ofter
##verletzung
kontrollieren
##verstandnis
##ranzgef
wechseljahren
verringern
##rechtskonvention
##adagog
bandscheibenvorfall
##spflicht
verhutungspflaster
brandenburg
teufelskralle
ehrenamt
asyl
dreimonatsspritze
nasennebenhohlen
apr
dra
go
gas
gro
is
ka
kit
kennt
lem
laden
lkw
op
richtet
wachsen
www
##sil
##dauer
##lager
##falen
##rich
##richten
##kur
##bund
##stehen
##angel
einher
einburger
##orfen
becken
bezug
bevollmacht
##tent
##genden
gegangen
erwer
##beratung
miteinander
##irma
##irale
aloe
##ahren
##ruckt
##pfchen
blaschen
##ogra
arztinnen
##istische
bestand
##drhein
##gebung
poliz
bringt
regelungen
##ymp
fliesst
entzunde
klaren
##gefangen
sekret
angina
tragt
schnupfen
kleink
##okken
2017
team
sozialversicherung
oberschenkel
##versorgung
passieren
akut
lungenkrebs
sucht
zahlt
150
verfassungs
einzelne
einzelfall
##hoben
erkannt
mindest
freund
sens
senken
texte
ansteckend
##bedarf
febru
arzneimittel
jeweiligen
hyper
##fraktion
nordrhein
genugt
entspann
negativ
aufenthalt
verdauung
lebenspartnerschaftsurkunde
##bedingungen
elternbeitrag
eisenach
erganzen
mundnasenschutz
ummelden
##barkeit
baldrian
##westfalen
gebildet
herzkranzgef
thymian
gerstenkorn
februar
nordrheinwestfalen
300
boten
bucher
ehem
grei
mr
minder
wbs
waffen
##gult
##67
##ond
##schr
##schle
##schicht
##schreiben
##orter
beat
beine
anzei
zulassen
##genehmigung
##ologe
gefahren
geklart
vertragen
verordnung
ersetzt
scharf
aufnahme
aufsuchen
stop
##ropf
vorsicht
deswegen
nachweise
##ochter
spuren
##oton
reden
bern
beruh
##zustand
gesunde
gesunden
##raumen
##istischen
warn
besuch
genommen
##izierte
korpereigen
gewahlt
gewonnen
drusen
kritis
kratze
testen
operationen
versorgungs
oberen
##ungsstorungen
termine
##saft
sicherheit
sicherheits
heilt
##geschrieben
ansteckung
erkrankt
erkennt
erziehungs
unterschrift
platze
##betrieb
gleiche
untersuchungs
erklaren
universitat
andre
schwellung
bauchspeicheldruse
erfahrungen
hauptw
##moglichkeiten
notruf
##ituation
##tretung
smartphone
##beteiligung
autobahn
histor
april
lemke
polizist
39
55
70
88
drucken
fd
hiv
jun
jud
job
makul
poten
samm
tarif
##sse
##tur
##tar
##mb
##fre
##fell
##kre
##zol
##wig
##yer
##chtet
##inhaber
##anke
einwohner
inhalt
##arbe
bedur
anzahl
auseinander
##ikul
demokrat
##bewer
abgeb
abmel
##leiter
##ment
##inderung
prozess
bekam
daraus
##gebir
neuer
gebrau
##haltung
hinweisen
gere
stadte
##stands
##uhle
sprach
teilnehmen
##mpften
handeln
welcher
kollegen
##wirt
chirurg
frucht
2015
##ypen
antragstellung
sozialministerium
versorgt
##belast
mundschutz
gesundheitsministerin
anforder
heilung
erforderlichen
rente
##bauen
##impfstoff
offnen
fruhzeitig
##handel
entsprechenden
sprecherin
armut
situationen
falsche
kreb
internationalen
blasenentzundung
vermieter
schriftlich
geheiratet
grenze
verabreicht
eindeutig
##veranderungen
automatisch
mandelentzundung
arbeitnehmerinnen
speiserohre
29
bos
cl
eier
ging
mess
sorg
tu
til
tab
volle
##sympt
##dar
##gte
##nommen
##oide
##fa
##rate
##bro
##pil
##ja
##sturz
##unken
##anten
##elde
beding
##denken
antrage
zusch
##aug
##auch
veroffen
ersetzen
schlechter
mitte
denk
sturm
##indel
##ehnt
vorkommen
vorsichtig
##weite
##hals
##bestat
##beschrankungen
unterscheiden
spat
blah
bere
weimar
mangel
##schlage
gesehen
darum
blutvergiftung
##artig
##ierende
stein
##krankung
##orene
##flu
geringer
##prach
##prasidenten
kopfl
schloss
##standige
##nissen
regelmassige
##idin
wichtigsten
flug
coronaschutz
geschichte
hautkrebs
allergie
antigen
chol
wohnort
tele
standort
##versicher
rechtsextrem
linke
verdienen
normale
landesk
gemeinde
##enza
orth
seltener
##sfusion
##geschichte
##schnell
endoskop
##impfungen
pect
weltk
klinikum
##bahnlinien
##personal
100000
ergebnisse
after
##abilit
##venen
getroffen
bewegungen
biometr
bewohnerpark
welchem
relativ
absol
koronar
##warzen
krankenkasse
hilfreich
schwimmen
##kulatur
schwerbehindertenausweis
arnika
arbeitslosengeld
irgend
##asenkrebs
nierenbeckenentzundung
benachteil
verheiratet
erziehungsberecht
fdp
tilidin
31
himm
kab
kassen
led
mart
marz
mull
nutzung
tochter
wehr
##cov
##azi
##df
##lamen
##med
##rik
##bahnen
##wogen
##untern
einverstandnis
##ele
inte
invest
beschlossen
versuch
mitge
mitbringen
ausschliesslich
##ierter
sturz
nachmittag
abw
ubersch
##gern
##assnahmen
##werke
block
##herpes
##angaben
desto
##immun
leiten
bestellen
vielfalt
gebrochen
heiat
##gessen
##gesund
##flachen
bundesweit
bescheid
korperlichen
orient
schwindel
fahrer
gewicht
impfpflicht
##wiegend
selbstbe
angegriffen
erkrankten
schulter
wohnungen
dient
festgenommen
verstarkt
##sprung
artikel
bauchraum
fachwort
erwartet
kopien
bruchen
zahnf
genaue
langere
vereinbaren
##parat
erzie
beinen
saure
schilddrusenh
metastasen
##staur
barrierefreie
entscheidend
geschlechtsh
kraftfahrzeug
frankfur
versammlungen
inklusion
straftaten
downloads
zunehmend
pcrtest
depressionen
keime
abhangig
bautzen
substanzen
maskenpflicht
bestellt
angemeldet
##operation
system
archiv
luftr
ruhig
##variante
##verlust
senioren
blahungen
pectoris
integr
51
97
ct
dom
ek
fun
fleisch
ffp
hell
mrt
ro
sars
tw
zer
##hu
##hel
##ibt
##tat
##rig
##port
##yse
##ender
##steil
##schef
##eson
int
angefangen
##gener
gehalten
getest
gearbeitet
beiblatt
schau
schwei
##berker
##deck
##andid
##agement
auftritt
stau
##etter
vorab
zuminde
##erseits
uberpru
##leichen
rest
##verm
anderer
anderung
berichtet
##perrt
programm
herr
herbst
gelenken
influ
##artigen
##blaschen
hierfur
grimm
stadien
schlucken
begonnen
begleit
zweimal
##ucke
bestimmter
verbren
erstmals
angew
angekund
##vorschuss
##asenz
erhohte
arbeitsmarkt
rechtzeitig
prasenz
kurzsichtig
verwaltungs
abgeschlossen
parag
parlamen
internets
anfrage
verhutung
zahnarzt
innere
##arzinom
apple
##sfra
praparate
112
endgult
verkle
##abletten
##sichtlich
entzundungs
##istenz
weihnachts
belastungen
##flussigkeit
bisherige
kontrolle
salben
zentral
##eidigt
##fahigkeit
landtags
wirtschafts
kontrolliert
##fraktur
zustandigen
motiv
wahrscheinlichkeit
morgens
ermittlungen
zeug
mutmass
puls
##kompl
lippenherpes
magendarmtrakt
unerwunsch
freuen
erweiterte
digitale
##riminalamt
##sitzende
gebaude
staatsangehorigkeit
traubensil
sachbearbeiter
unterhaltsvorschuss
landeskriminalamt
einverstandniserklarung
getestet
##berkerze
zumindest
verbrennung
traubensilberkerze
36
32
fein
fab
fusse
horen
ix
kel
kamen
las
mad
pen
sk
ser
sud
tanz
toten
vir
wand
witten
##gast
##lasten
##freie
##karte
##bis
##bra
##part
##welt
##11
##stre
##schriften
##urter
##atum
##arim
undoder
anfall
anerken
zucker
getragen
geoffnet
auffr
vorlage
##iko
unterb
unteren
sper
entschieden
dav
mehrheit
restaur
##umpen
##ogle
darunter
besprechen
genet
##haltnis
erfurter
gerecht
reich
reichen
##aktor
gefuhrt
knoten
klassen
seel
char
bedeutung
##udigkeit
kritik
belehrung
verhindert
pfei
##alender
feststellen
kurzzeit
##hyth
landesamt
##konferenz
##enzellen
quelle
patientinnen
alkoholsucht
typischer
##besuch
medikaments
##chnungen
erzahlt
voraussetzung
psychische
coronapatienten
illeg
steuern
individuellen
radius
parkausweis
strafe
privaten
umfang
planen
friedrich
beteiligt
rhein
banderriss
geheim
hotel
bauchspeicheldrusen
alternativ
robertk
ansprechpartnerin
wesent
##verdacht
einfache
geschafte
dolmetscher
physiot
erleichtern
hofheim
unabhangig
schlafen
merkel
##issbrauch
rehabilit
gewohnt
buchstaben
egal
google
greift
krebser
ledig
##cov2
geschlechtshormone
sarscov2
twitter
influenza
ddr
fehler
juck
kohlen
lo
letzt
mudigkeit
nennen
opel
punkte
san
vollen
wolle
##ii
##iat
##ilen
##lig
##rats
##kern
##kunde
##iefen
##stieg
##elten
inse
##alif
ans
anhand
##geord
verur
##treson
auszug
##isieren
storung
##spro
vorsorge
haft
##halte
unterhalt
abschrift
##gerat
berichten
betracht
##zustellen
gesamt
arztpra
##istisch
herum
bekannten
leiterin
##netreson
bluttran
blutzucker
##sstorungen
erfullen
gero
kochen
begriff
##laufen
##ferien
impfzentrum
flor
##plus
helic
gefangnis
handt
klim
erster
herzr
baume
haushalt
geldscheinen
2016
##proben
verhand
##obac
soziales
##hafte
standig
magensaure
##statte
bewegt
herausfinden
ausgepr
presse
##sprasident
rauch
fahrzeugschein
##ungsstufe
patientin
tumoren
spezif
beton
hintergrund
kultus
thrombosen
trauung
interesse
lauft
##totet
alltags
wissenschaftler
babys
leistenbruch
angehorige
verlauft
genugend
dosis
boden
digitalisierung
reserv
kehlkopf
silvest
selbsthilfegruppen
##empfind
##sprecher
##verwaltung
geschlechtsverkehr
monatsblutung
energie
##beginn
gefordert
chancen
gezielt
##frieden
bayern
##unternehmen
luftrohre
auffrisch
david
juckreiz
helicobac
helicobacter
bitter
con
cital
eb
kropf
material
publ
wunden
##saus
##aer
##dlich
##down
##gymn
##nungen
##fas
##fort
##kap
##pelt
##zunehmen
##enter
##ergebnis
##inner
##stamm
##stherapie
##stimmt
##anfalle
##schalen
unmittel
##emmer
##acher
##olitik
##olker
gefl
vern
mithilfe
##seh
##einrichtung
ausgelost
##ilder
##isem
station
still
##spru
vorgehen
demenz
nachf
##ochel
uberschrift
##gelt
##ausgang
##ausschuss
rezept
durchblut
##immern
leiter
##opram
keiner
beseit
gebuhr
wiederbele
kindergarten
fahrt
impfzentren
handels
haufige
herzschwache
verlang
lieber
##oviren
antisem
##okokken
##lerin
##arztin
trommel
erhohten
solch
normalen
kapsel
gemeinschaft
verwand
melanom
dire
huft
##geschehen
##ankungen
verkauft
grosses
bisherigen
salz
salbe
magnetreson
nervenzellen
beglaubigen
anfangs
ubungen
zugleich
experte
kamer
wollten
einkommens
bewegungs
##fahigkeits
dienstleistungen
drogen
internationale
ofarim
vergrossert
inhalieren
##wohnsitz
losung
##oskopie
schwellungen
beeintrachtigt
aufenthalts
uberlastungsstufe
geschaftsfuhrer
kindertagespflege
zuganglich
landkreisen
synag
fortgeschrittenen
##dokument
##oiditis
hundert
entfernung
schritt
kompression
juni
##bestatigung
coronaschutzverordnung
irgendw
martin
internetseiten
##hythmus
citalopram
66
eiter
fas
gol
gang
gabe
htt
jose
krafte
lern
locker
mahl
mord
matt
po
richten
weh
wild
##hias
##idr
##gros
##fle
##fft
##kanz
##bad
##vas
##zung
##wein
##inu
##inter
##inett
##ong
eink
eindr
##atten
##teten
##aumen
##legt
beitragen
mittag
##utlich
ausges
ausnahmen
auswahl
aufmerk
konsum
##ame
##amter
stuck
##sph
##etit
vordruck
soweit
##weile
##zene
##halle
##bedroh
kannst
abschluss
uberhaupt
durchaus
bereichen
##ogramm
leidet
##opie
weiterer
medien
information
streit
wiederum
urteil
##steller
##stellte
lebensbedroh
##idar
14ro
dritten
##gefunden
elf
hausmittel
vermutlich
##ordin
sachsenanhalts
fragt
##rechte
sozialgesetz
darmkrebs
tropfchen
standard
niesen
solidar
sonne
terr
hochzeit
hochstens
zahlreichen
##rieg
ehefahigkeits
sportarten
daneben
##systems
schmerzhaft
montagabend
gallengang
entscheidet
appetit
atmet
produkt
##ologischen
innenminister
innenstadt
weihnachten
##qualitat
fruherken
europaische
lebensmitteln
offiz
direktor
erhohtes
namens
heft
gultigen
bestatigen
bestatigt
##zeichnet
komme
mandeln
getranke
merkblatt
bundestags
widerspruch
gedacht
##sdorf
betreuerin
ziele
zieht
##stausch
ermoglicht
technik
abstands
begleiten
todes
fundba
wachstum
beauftragte
##kommission
unbek
verbrenn
##itiative
verordnet
mittelohrentzundung
##organis
forschungs
pneum
mittlerweile
beantragt
braun
berucksichtig
strahlentherapie
wearables
phobie
flohsamenschalen
##urnal
erheb
ehemal
mrna
kopflause
5110
wittenberg
robertkochinstitut
rehabilitation
bluttransfusion
aufmerksam
ehefahigkeitszeugnis
2000
bg
brech
dus
fand
got
kiefer
kochinstitut
les
log
langen
my
pri
sc
tur
ubr
wor
zwe
##sul
##sicherung
##iw
##ix
##ikt
##uster
##la
##ozy
##morgen
##kunden
##passt
##wunden
##witz
##enne
##stich
##stuck
##stufe
##onen
eingel
einiger
einstellen
indu
##iten
beschadigt
zuver
zuhaus
##gegeben
gewer
gezogen
schreibt
##bert
##sekret
##einkommen
##agd
ausbildungs
aufnehmen
stich
##reoiditis
vormerken
mengen
##bedur
unterk
abgel
uberpruft
##othy
entlasten
##fekte
rede
andert
blau
bereiche
gesamte
arztliche
##abwehr
##abschluss
##aufnahme
##opft
besuchen
stru
##esterin
halb
beschwer
weder
schluck
##linie
gemuse
spritze
lebensgefahr
##landkreis
##strahlung
zeitung
flache
fliessen
verbrau
##zeugen
##eicher
bauen
trager
erkrankte
antazi
##udwig
##gram
##gress
belegt
2014
leg
legt
##programm
operiert
dienen
schuhe
autof
jucken
niemand
arzten
eingetragen
##ertif
medizinisch
gefahrliche
typisch
beratungs
##sfah
burgermeister
##methode
betreuten
##glieder
##quote
freie
freunde
richtigen
haupts
methoden
gaste
entsprechend
computert
flussigkeits
hoheres
munzen
stimmen
linie
engl
blutgefass
##klinikum
verantwortung
sodass
koronare
ultraschalluntersuchung
coronatests
downloadservice
schwierig
vertreter
eigentum
kaffee
visum
journal
weitsichtig
##itoring
dunndarm
hauptwohn
demokratie
tuv
fahrerlaubnis
angekundigt
kurzsichtigkeit
madchen
restaurant
charakter
##olkerei
antazida
00
37
43
7tageinzidenz
as
bom
bot
brechen
fullen
gra
glie
galle
garten
hangen
kauf
kri
last
mo
ole
ohren
port
preis
pyl
rats
such
trad
wa
##eten
##situation
##dos
##nummern
##bf
##punkte
##eist
##stran
##stark
einsch
einseit
##arft
##testen
bemerk
##emedizin
anziehen
##olz
gedenk
verteilt
##leute
schein
##trei
##decken
ausgef
##isst
auftrag
##amassnahmen
stab
##etyl
arme
##iene
abb
##pfleger
##ausen
##ulation
##appt
umsetzung
anderungen
durchblutung
bericht
gesperrt
defin
infiziert
leiste
##atzung
coronak
##gesprach
##ings
bundespolizei
briefe
schliesst
korpergewicht
##nahm
schwar
behandlungen
##hauser
teils
##strel
##icket
##enthromb
stadtteil
stadtbahnlinien
dritte
gefal
plak
##hohle
hauser
##icin
allergen
nebenhohlen
kratz
fruhe
grundlage
##ichert
hoheren
operative
versicherung
formblatt
ausgeschlossen
solange
prinzip
sonn
kurzer
einzige
##kehrt
neun
##ocke
sub
gemeinschafts
harz
unterstutz
bildgeben
innenministerium
organen
doner
##ositas
##arbeitung
meldeauskunft
bedingt
feuerwerk
jemanden
korre
mandat
##fahig
vermehrt
offentliche
umfassen
##praparate
verhutungsmittel
##iterien
allergisch
general
generell
sinkt
rollstuhlfahrer
hilfs
strengere
therapien
pilz
pilze
schleimbeutelentzundung
freiwillige
dokumente
vorbeugen
anerkannt
jurgen
christian
dickdarmkrebs
reizdarmsyndrom
pfefferminzol
##milben
ausbreiten
weiblichen
ubersetzer
fischerei
rheumat
lockdown
bevollmachtigte
gebraucht
telegram
weltkrieg
zahnfleisch
erzieher
##generation
##vermogen
angewendet
paragraf
unerwunschte
bauchspeicheldrusenentzundung
lediglich
gerotet
dusel
zuhause
##bedurft
hauptwohnsitz
bemerkbar
34
96
adip
buss
binnen
col
cay
eil
fil
ganzt
hen
harm
horn
koch
kra
lar
morb
rie
sache
sklerose
tast
viz
wein
wund
waden
##heben
##dessen
##up
##ox
##fel
##rel
##kheim
##bungs
##zin
##zel
##wagen
##widr
##innung
##stei
##stunden
##storung
##anlage
##onisten
einrichtung
##schung
##elow
unbr
##atmen
instru
annet
anlage
##geg
##gewe
##geht
getotet
ereig
eroffnet
schar
schle
alb
##ags
ausbr
stillen
stiko
##spekt
##ehlung
##omaten
unterschei
abstrich
ubersetzung
##pfef
dafa
##auso
regen
durften
##assung
##vertretung
##uman
blasenkrebs
weissen
##oglich
##schlusse
##schaffen
gesucht
gesamten
bekannte
##ops
vieles
coronamassnahmen
gegenstande
##twick
##andert
##fahrt
genauso
##flach
ursprung
halfte
gera
gerate
##mack
##uhlung
##lok
coronainfektion
gefallen
geschutzt
klicken
kolner
##buro
wirkstoffen
verlassen
##sterben
notarzt
nebenwohnsitz
belange
folgt
famili
##schwankungen
versorgen
entstanden
##schutzgesetz
oberhof
magenschleim
##ektor
exp
meinung
regionen
paras
##lubs
massnahme
wechseln
entscheidungen
##phase
einzelhandel
burgerbeteiligung
##spielen
verkauf
ministerprasidenten
2007
fruheren
##bauch
fotograf
phasen
tatigkeiten
pflaster
grune
grossere
gultigkeit
geschwollen
gastro
coronapolitik
##kopfen
nachteile
##ipps
ferien
falschen
##betreu
behindertenbeauftrag
private
##ronomie
stimmungs
linse
analf
##ylsaure
winz
##beugen
beeinflusst
abwehrsystem
produzieren
frankreich
kunstlerinnen
booster
straftat
rontgenbild
bindehautentzundung
ideen
vitam
verlangern
kehlkopfen
dokument
landkreise
##jekte
gewerkschaft
reaktionen
##kontrolle
acetyl
feucht
eignet
hemmen
kohl
konzentration
lokal
vorubergehend
verpflichtet
65719
aussage
auszubildende
amtsgericht
ungeimpfte
##hermometer
toiletten
ramelow
zellteilung
##imeter
##bescheid
##kontakt
##wirtschaft
##belastung
##gesundheits
radiusfraktur
betonte
wiederbelebung
magnetresonanzt
synagoge
matthias
##ennepfef
zuverlass
tradition
sonnabend
adipositas
cayennepfef
ganztags
morbus
unbrk
cayennepfeffer
53
batter
cap
dach
guten
gyn
greifen
hitze
john
kul
krimin
kalender
lost
lause
ludwig
mor
pfer
piw
rote
serv
tut
uwe
wol
zimmer
##ev
##gut
##nacht
##60
##oc
##fb
##rieren
##bungen
##zur
##33
##79
##entrau
##iete
##iebe
##anlagen
eingefuhrt
##schreiten
##urten
unregel
##ora
##asent
dermat
##atzt
vertreten
erreich
schauen
##bereiche
ausmass
ausdruck
ausgleich
ausstellungen
##ierungen
##spital
##indung
wirbelsaule
vorne
vorerkrankungen
##weist
##reibung
nachteil
nachsorge
##bew
unterschenkel
spaz
abschw
abschle
##leisten
entf
davor
mehrmals
##menge
##ulste
umtau
##herr
##abschnitt
proteste
progn
behorden
behorde
gehor
gelingt
##nerv
coronal
##gebieten
##weisung
##fahrerinnen
##blasen
kinderwunsch
behinderte
begren
##zeitige
schwerpunkt
##barung
flachen
14ber
dringend
platzen
hautaus
herzmuskel
mail
trag
schnitt
angewand
benach
besonderes
antiv
kriterien
##gren
##treffen
fruhen
kontinu
telemedizin
hohere
freien
##brief
##akterien
geimpften
festgelegt
kapaz
kapitel
gestiegen
##losung
kunstliche
suche
fachkrafte
bakterielle
testergebnis
##ibil
kontaktpersonen
##kreislauf
bronchial
atmung
heilbar
geburtsurkunden
apotheken
verschreiben
verschreibt
116
bett
betau
##ampfung
entzundungshemmen
studie
beschaftigung
fruhjahr
flex
erzgebir
saale
hauptuntersuchung
##hemmer
nachts
##ietaug
positiven
siebentageinzidenz
trainer
training
mechan
musiker
bewohnerinnen
schwerbehinderung
transport
diskut
vergrosserte
vermieterin
hash
universitats
verbessert
regional
fussballverein
horsturz
wunschkennzeichen
verlangert
alternative
wechseljahre
gelegentlich
konservative
freiwillig
leitlinien
substanz
beobachtet
ausfuhrlich
vorzubeugen
befrist
wunschen
##mitglied
divertikul
anbieten
cremes
makulade
anforderungen
sorgfalt
cholesterin
##schnelltest
biometrietaug
kabinett
kraftfahrzeugsteuer
kelkheim
genetische
kurzzeitkennzeichen
typischerweise
silvester
trommelfell
https
sozialgesetzbuch
bgg
ubrigen
industr
weitsichtigkeit
coronakrise
bussgeld
annette
kehlkopfentzundung
piwarz
01
38
48
400
75
ba
echt
fisch
franz
glu
handen
isch
kuhl
kurs
lah
leuten
long
pap
padagog
roh
riss
sl
stet
setz
sitte
stend
sign
ta
wetter
zit
zent
##han
##av
##lesen
##bran
##bogen
##zehn
##wd
##warm
##wald
##yc
##stern
eingangs
##schau
##elte
uni
##atisch
##team
anon
anschlag
##get
##olstadt
geplan
gezahlt
vert
versehen
vergessen
##leun
erschein
ergeben
ersatz
erinner
scha
##deh
##einigt
auskunft
ausgesetzt
konig
stu
##speicher
##ehemmer
vorges
##eumon
##rang
##omen
##bean
sperr
uberblick
##pfel
##mentzundung
amer
umgang
berecht
beruhren
bereitet
betrei
betreute
##iva
##abgeord
probe
projekt
##merkt
##istr
infizierten
kranke
##arthr
lebensst
##fallt
##tweit
neuinfektionen
gebiet
geburten
##stecken
gender
wurm
selb
wiederholt
hinten
hingegen
erfasst
gerissen
##line
dampf
regelung
##ids
reiben
gewissen
gewichts
##efax
##platte
##heimen
verbreitet
geschmack
pla
welchen
starkes
##suber
angezeigt
benutzt
verlieren
verliert
##icylsaure
notigen
##urkundung
chat
belar
belasten
2012
##recher
telefax
hohem
thuringens
##zep
##fuhrende
formul
arbeitszeit
##bildungen
##versagen
buro
barentrau
kurze
raumen
gestort
gestohlen
eingehalten
##ungsstellen
##konsum
karten
##imot
ernahren
bessere
alkoholkonsum
familienbuch
##azin
##sform
##phie
vene
adressen
betreuen
2001
kalzi
tatigkeit
unternehmens
betrieben
leichtes
grosseren
notwendigen
gemeinsame
naturliche
chefarzt
ausreichende
individuelle
geeignete
ungunst
##freien
drohen
autoimmun
international
reiner
erfolgreich
krampfader
hervorrufen
vaterschaft
gebarmutterschleimhaut
ordnung
passende
intensivstation
##leitungen
uberlastung
sauber
temperaturen
zeugen
##wurf
politischen
##verwaltungs
diagnostik
##verfassungs
handwerks
ubertragung
osteop
erfrierung
nasennebenhohlenentzundung
draussen
isol
entzundete
oberschenkelhals
stoppen
andreas
##mbh
bedurf
##pilz
bewohnerparkausweis
insekten
herzrhythmus
##fortsatz
##kapsel
josef
beschwerde
modern
pylor
schwarzen
##betreuung
gynak
begrenzt
kontinuier
hashimot
makuladegeneration
stendal
03
59
aden
bad
bod
cir
fit
gunst
gmbh
kummer
lohn
misst
pack
rass
ring
rent
richter
samt
sorge
tiefe
vo
wom
##swert
##dt
##digen
##guss
##ue
##ule
##uckt
##netz
##flex
##firma
##kraf
##kanal
##bett
##zern
##14
##22
##enner
##station
##unfall
eingeb
einheit
eintritt
##schut
unangen
unkompl
##ativer
##itische
##technik
befur
bewalt
##igar
##ologen
geschaft
gewe
geschadigt
verteilen
##leb
eroff
erscheinen
##deten
##ire
ausgenommen
ausschuss
kond
##rom
armen
vorge
##serlaubnis
dessen
menstru
##euern
nachzu
nachrichten
##bef
unterwegs
abell
ablauf
uberlegen
ubersicht
ubersetzungen
##otherap
entsch
##ausbildung
mehrfach
##ulle
rep
umgesetzt
umgebung
##osa
durchbl
durchfuhren
gesichts
gesprochen
##raume
##merzt
vielzahl
gegenstand
##mitarbeiter
genutzt
##zid
##ppt
##haltige
##blatter
##orenen
wiederkehr
##izien
##ammlungen
##stellungsgesetz
grosste
##haushalt
meiden
##selben
##illt
##stren
##strahlen
##eff
##amtes
enge
flie
gefangen
gutartige
geschlechter
weltweit
kolleg
minip
herzkreislauf
##scheibe
schuljahr
risikog
wohnheim
wohnberecht
##projekt
hohes
magensaft
mitteln
##uberfunktion
lungenfunktion
prasident
extra
langzeit
2023
kurzfristig
raume
eingestellt
##ungsstorung
chronischer
##iehung
bakterium
harten
schleimhau
erneute
regierungs
kontaktformular
kontaktbeschrankungen
beantworten
##sack
##gehende
verfug
##issur
##otheken
##gemeinschaft
verschle
verkaufen
erkund
belastet
pflanz
betriebe
##blutungen
kontrast
trautermin
unterschriften
##behinderten
interessen
schilddrusenuberfunktion
##prufung
kompeten
gaststatten
nasenspra
ulc
naturlichen
chefs
beglaubigt
bestehenden
trappen
zentrale
##sozial
##egenheiten
woller
behindertengleich
meter
##planung
ermitteln
##iversitat
arbeitgeberinnen
fingern
gesundheitlichen
diskrimin
vergrosserung
hygiene
##igungsschein
relev
allergische
zustandige
motto
noroviren
dosierung
rollstuhlfahrerinnen
entspricht
hotels
dopamin
streng
sehnenscheiden
trockene
reduziert
saugl
fraktion
taub
anerkannten
rechnung
##produkte
bewusstsein
beobachten
##heilung
vorbereitet
umgekehrt
nationalpass
##strafe
praktisch
zerstort
omikronvariante
ballast
wunsche
##salicylsaure
##hardt
##opadie
gdl
wohnungsgeber
speichern
abgeordnete
tourismus
instabil
atherische
grosst
kritisiert
inhaltsst
abmelden
##symptome
himmels
tochtergeschw
uberprufen
pfeiffer
geheimnummer
physiotherapie
handtucher
gefluch
solches
irgendwann
verbrennungen
verbraucher
ratsam
magenschleimhautentzundung
parasiten
stimmungsschwankungen
prognose
divertikulitis
httpsww
vorgesehen
pylori
circa
womoglich
wohnberechtigungsschein
behindertengleichstellungsgesetz
44
aids
bon
breitet
com
do
dpa
esch
eut
fah
fok
it
kh
kalt
ly
modell
nr
oster
sus
samen
tuch
tsh
tipps
usa
wett
##sis
##sbruch
##iak
##greifen
##massen
##fun
##fieber
##kung
##kord
##bten
##bom
##vier
##zo
##zum
##wachsen
##wesen
##40
##erung
##iebel
##stiz
##steigen
##unkten
##ons
##onie
einsetzen
einiges
einschliesslich
einglieder
##schauen
##orar
##itus
##itisch
##alien
##arter
bemerken
##igter
##achung
antwort
ansehen
antworten
gegr
verschlossen
verhaltnis
##legung
beispiele
denkt
aufgef
aufeinander
konzept
konsul
stufen
##spann
##ahrt
##ahme
werner
vorfall
vorgenommen
vorerst
haar
desinf
museum
##rupt
##halter
spenden
absatz
ubernimmt
##leiten
##leiche
entnommen
##ausfall
durchschnitt
proben
gehap
gelb
jahrlich
warmen
vieler
besitz
besitzen
coronan
weitergeben
##gebau
genannte
unsicher
##schieben
polen
heim
##meer
grenz
halbe
beschleun
geraten
weber
schlauch
grossten
##tagonisten
##mpfe
wichtiges
wichtigste
stadtischen
gefr
selbststandig
geschickt
erstes
##wirbelsaule
herzerkrankung
angekl
##stermin
vollig
zusammenge
grundsicherung
teurer
##satze
dienste
pfle
pflegen
pfleger
justiz
hilse
magenschleimhaut
##stattet
ausgewogen
solle
passiv
rechtliche
pressen
befallen
langfristig
##region
##hygiene
treff
veranst
veranstaltung
karsten
super
zahlungs
quellen
qualitat
verwaltung
erwarten
bessern
meinem
verfol
##luft
kleines
##holung
inneren
##schuhe
##sfeld
maler
zulassig
vereinigung
problemen
wahlgang
organismus
##iode
##osition
erkaltungs
dienstagabend
europawahl
verletzten
fortschreiten
antibiotik
intensivbetten
2212
umwel
##nachweis
covid19patienten
##bilder
##skraft
geeigneten
dunkel
nagelbetten
staatlichen
##betriebe
auszuschliessen
marsch
beweglichkeit
partnerin
strassenbahn
weitgehend
schadigen
kniegelenk
gedanken
halsschmerzen
gewalttat
motor
profession
wohngeldstelle
fehlt
individueller
##spezial
doppelt
grenzen
##ungshemmer
kindertageseinrichtungen
versicherungs
holz
windpo
wirksamkeit
passfoto
volk
volks
angesichts
nutzer
rudolstadt
lagern
distanz
##olek
kohle
herzens
fahrzeuge
mieter
##politiker
abgesagt
ambulant
maschinen
blinddar
nahrungsmittel
opio
einburgerung
anzeigen
drusenfieber
potenziel
rechtsextreme
archivauskunft
domin
schweiz
##sfraktur
vorsorgevollmacht
##gymnastik
unmittelbar
fruherkennung
##ozyten
##othyreoiditis
hauptsachlich
computertomografie
##stranten
acetylsalicylsaure
magnetresonanztomografie
##grenze
industrie
wurmfortsatz
plaqu
belarus
hashimotothyreoiditis
abellio
tochtergeschwulste
khk
windpocken
33
42
69
800
bit
brei
dis
fen
farbe
graf
gymn
heben
hocke
ker
kos
kern
krise
liter
mul
miet
messer
machte
missbrauch
naz
ogt
por
pat
pinn
passt
pause
tor
tru
turk
zehen
zoster
zigar
##sbe
##sachsen
##svor
##sheim
##die
##damm
##nie
##oser
##mut
##mehr
##mund
##phys
##venz
##ws
##39
##ju
##80
##ins
##stud
##una
##unnen
##universitat
##ura
##urr
unbehinderten
##atitis
##ite
##ity
##arr
##arden
##arbt
beamte
anson
get
verschluss
erl
schut
schmerzt
##berger
mitunter
##eitungen
ausweisen
##isierte
standen
starten
##spart
##ckungs
werkt
vorn
vorteil
##ikan
##ikoster
hav
habil
##ruhe
nachfol
##halber
##bek
unterhalb
spur
able
ablicht
uberwiegend
##gelder
entle
entnehmen
entlast
##ellitus
##gerau
##werken
weich
arztlichen
decken
##agentur
jahrzehn
info
warzen
##nev
blutfluss
besitzt
gegensatz
##anderung
##zia
bundesrat
bundeswehr
bundesministerium
bundesverfassungs
erfullt
gerei
##stellten
schwachen
schwitzen
gemessen
zwingend
zwiebel
regelmass
wobei
wodurch
meissen
gewunsch
zeigte
##scheinungen
objekt
##strager
zeitungen
impfteam
stadtverwaltung
verbinden
plant
##zeuge
knot
##urteilen
baum
angabe
angegeben
liefern
grundschule
personalaus
darmausgang
##wirksam
##meldung
erhohter
oberarm
offenbar
barrieren
verstopfen
befrei
pruf
gemeinsamen
empfehlung
##saur
pflegekrafte
gefahrlichen
beratungsstelle
familienstamm
lust
menschlichen
geburtsregister
letzter
2gplus
sehbehinder
verschoben
tumors
stattdessen
kalk
verletzte
brustk
daraufhin
pflanze
beschaftigt
##schrankung
metall
bahnhof
niedrigen
##bilaum
korrig
anwender
##rosserung
sepa
sepsis
umfeld
magdeburger
##mittlung
olymp
##anzeigen
koronaren
##bruche
inhalte
eva
andauern
technischen
erschopf
##vergrosserung
losungen
negativen
bindehaut
##spezif
jungeren
##kliniken
betriebsrat
verringert
werkstatt
beauftragten
rechnen
niedrigem
##book
##dokumente
##ublik
digitalen
brocken
feier
pfefferminze
miete
##probleme
kilometer
bmi
gdb
anmeldeformular
identif
insolvenz
kammer
kita
erwerbs
herzkranzgefasse
korpereigene
sammelt
geregelt
berech
schilddrusenhormon
ffp2
grimma
zeugnis
verurteilt
auffrischungs
gold
lockerungen
##grosse
abstandsregeln
pneumokokken
berucksichtigt
autofahr
##enthrombose
instrumen
unterscheidet
nachteilsaus
hautausschlag
sorgfaltig
lebensstil
osteopor
ogts
pinnummer
unbehindertenrechtskonvention
ansonsten
habilit
bundesverfassungsgericht
familienstammbuch
52
ach
bzw
cels
clubs
del
gern
guter
hoff
hbf
kru
kriminal
leu
ms
mauer
molkerei
mellitus
py
ped
putzen
rol
raz
rocker
sor
sven
titel
tiefen
zb
##sachen
##sicher
##sburg
##gas
##grad
##ugt
##tinnen
##lern
##mungen
##mpel
##material
##rin
##rasse
##bi
##bas
##beil
##bing
##born
##bald
##bakterien
##phy
##vorm
##zell
##zym
##38
##76
##45
##ergie
##eien
##eiter
##start
einreise
##schm
##scherin
##atik
initiative
##itischen
##igem
austausch
anh
anhalt
anlass
anstren
zugemacht
erleben
##bericht
##berater
##dete
##deuten
ausweise
auswirkungen
ausgabe
aufklarung
aufsicht
aufwand
##ikal
muskulatur
sobald
##eutr
##ommun
unterfunktion
unterdrucken
menschenrechte
span
spass
spirale
abnehmen
red
repar
recher
##werten
umzug
##verhand
##umin
durchsucht
bluten
betru
gesichert
##ablo
##adem
gehol
##aufnahmen
bestr
##fallig
##heater
##gebracht
neugeb
steine
##stechnik
genital
bundnis
heiss
##gesell
##ester
##roskop
##flora
gerau
gerufen
stadion
##ammern
##ammlung
##masch
behindert
thorar
schwache
sprachen
regelt
monitoring
lebensqualitat
deutschlands
engen
flyer
##heime
verbreiten
platt
##eichert
angriff
schneiden
tagsuber
##arbeitern
nebenwirkung
anti
schulungen
schulze
##grunde
beleg
ohneh
##obil
sozialversicher
aktive
eigener
eigenes
##liegen
##haften
tropfen
auton
erhohung
obere
uhrzeit
standige
arbeitslosigkeit
herausgefunden
akzept
verstark
hochsten
testpflicht
quer
verwies
abgegeben
meiner
veranderung
##elsorge
kleinere
##wertung
##sfrei
auslandischen
praparat
kopfschmerz
##unfte
betont
betablo
demonstranten
##ace
##sichtigen
tatverdacht
flecken
unterschrieben
stellte
stellver
interv
spateren
250
schutzmaske
schutzmasken
hexen
saison
krebszellen
vergangenheit
##ichtete
urkundenservice
positive
##verkehrs
mobbing
##thur
behindertenrechtskonvention
stimme
blutgerinnung
lehrkrafte
strassenbahnen
verzo
kurse
kurbis
##korperchen
widersprechen
##2021
frieden
prostatavergrosserung
##marke
zahnen
versammlungs
begleiter
##errung
kalteschaden
##zyklus
emot
##gerechnet
ideal
co2
netzwerk
ermittlungs
schwieriger
lebenspartnerschaftsregister
angels
protestiert
kreuzband
holen
therapeut
keim
gespeichert
streik
bestellung
erlebt
##heilkunde
auslanderinnen
eignen
nationalsozial
fahrzeuges
chance
auszubildenden
boller
bollmann
divertikel
hospital
##ographie
kleinkindern
botenstoffe
##onds
tabak
veroffentlich
denkmal
##elec
uberschritten
bruchenden
frankfurt
hells
##husten
fabrik
seroton
letztlich
kultusminister
alltagssprache
verwandte
aufenthaltsgenehmigung
bundestagswahl
unterkuhlung
##sfahigkeit
##starke
scheint
abbiegen
albrecht
ausbreitung
##opsie
analfissur
vitamind
zuverlassig
batterie
entfalten
flachendecken
angewandt
stets
kummert
rentner
kontrastmittel
nrw
blinddarmentzundung
kosmet
brustkorb
habilitierte
celsius
thorarolle
ohnehin
hexenschuss
015
78
86
aschen
achsel
bun
bir
bth
eiz
fans
hort
home
huf
hopfen
ku
mom
murr
nat
niere
osten
pers
pollen
rut
ruf
renn
reinigung
suhl
sim
tal
tieren
ziv
##een
##ean
##eck
##sr
##hg
##haben
##abt
##dorf
##iol
##gten
##ulen
##oden
##mah
##mess
##modell
##fter
##fil
##kurs
##kampf
##bnummer
##padagog
##vis
##zir
##wol
##wall
##wuchs
##jen
##inenz
##invas
einger
##elbe
##elberg
##urc
unw
ungew
##ortet
##atoren
beweis
bedro
bedenken
beeidigt
bemerkt
beurkundung
anger
anwend
anna
anleitung
anpassen
zutritt
##genlandkreis
geschaften
geandert
vermeer
##annter
##senker
schrei
schot
schne
##bereichen
##treff
mitbe
mitgemacht
mitarbeitern
##utto
ausstellen
aufzug
aufhoren
aufgeschrieben
konkre
start
##ehrt
werke
##rep
##halfte
##bestand
##begriff
abwei
abbau
ubermassig
ubersetzt
##leib
##leiben
##leiss
ents
##gerung
##uld
##allert
##aphy
umgehen
umso
umgehend
##umpf
bluter
weist
weiten
weisen
betragen
betrachtet
##zuge
##rauen
prot
gehe
##istik
##isters
hersteller
##chef
infol
##opt
allmah
blutkorperchen
##twortet
##gebaut
gebrauch
stempel
##klappen
wurzel
polypen
heike
heisse
##male
selben
##sstru
brk
beschein
##presse
wohnt
thy
schwellen
schwillt
spren
##lauft
fahrrad
reihe
reize
##illa
schwerwie
enzym
bestimmung
##plane
verschiedener
selbstverstand
gutes
handlungs
klappt
sekunden
main
wirkungen
##ffizien
aussern
ausseren
##hohe
haushalte
vermuten
kleben
##okon
##grenzen
##probe
verhuten
operativ
##schwell
wochentlich
##fuhrerschein
##stoffwechsel
autoh
jubilaum
arbeitsver
burgenlandkreis
##behorden
prasent
verstossen
verstopft
befruch
raucher
gestalten
eingeat
gesetzlich
karnev
neo
nebra
gleichgewicht
fachleute
qualif
##muskulatur
##zuglich
##rieb
medizinischer
sportverein
reisedurch
face
gefahrdet
dank
zuruckge
##holz
atemwegs
familienplanung
auslandische
vereins
sehtest
asthmat
erfordert
2002
##oberflache
##paraten
ausweisdokument
harnbl
harnleiter
5067
studium
belastungs
##rierungen
intensivpflege
hepar
saal
umwand
arthritis
psychischen
##ynam
position
ferse
mobile
##platze
gluck
ungleich
metern
##shar
aufgehoben
feste
##struktur
##ungspro
bevorzu
behandelnden
aktivitat
geschlossene
berliner
plotzliche
sterbeurkunden
infektionszahlen
infektionsschutzgesetz
hygien
widerstand
gespritzt
beteiligen
hamburg
maske
schriftliche
kombiniert
market
fluchtl
doppel
schlafstorungen
fehlende
schwierigkeiten
kommunikation
##geschwur
bildungsministerium
vorbeugung
silber
heilpflanze
gewerkschaften
erleb
mundnasenbe
ausfuhrliche
vorzulegen
tagespflegeperson
kundigte
dolmetscherin
ergibt
feuchte
helferinnen
erhielt
gewahrleisten
##strom
carshar
wolfgang
##verfugung
pausch
verstandnis
multi
##ziele
##informationen
scheidenpilz
##lagerung
##kurse
entspannung
bucherei
##bewerber
bekampfen
bedingte
veroffent
parlamentar
weihnachtsferien
laser
florsheim
ausgepragt
ebik
nachfrage
handelsregister
kamera
mahlzeiten
einkaufen
eindringen
ausgesprochen
terror
51105
##sekretar
englisch
stabile
gemeinschaftsschule
hornhaut
ischias
zittern
zentimeter
##eumonie
kontinuierlich
unangenehm
durchblutet
minipille
risikogruppe
sehnenscheidenentzundung
grossteil
inhaltsstoffe
verbraucherschutz
eschborn
gegrundet
konsulat
treffpunkt
veranstalter
nagelbettentzundung
fenster
ablichtung
impfteams
osteoporose
razzia
betablocker
serotonin
0157
bthg
moment
zivil
allmahlich
selbstverstandlich
reisedurchfall
64
agen
azu
bahnen
euf
fri
frise
film
gru
gramm
gallert
hass
kot
lit
lid
lenden
mm
mache
mast
mahn
nacken
rom
senden
sorgt
t4
tsche
tonnen
tiefer
uv
uben
varian
wid
zdf
##ses
##hung
##ae
##ail
##ibr
##nern
##taf
##film
##rannt
##richtet
##kat
##kar
##kir
##katzen
##psych
##wurz
##woche
##yt
##jod
##junkt
##18
##erb
##ieter
##iebt
##still
eintragen
##schrau
##schmel
##elefon
##urzt
##orien
##asi
##asium
##asmus
##itur
##alte
##alog
##arma
beur
behalten
##achel
auaer
anam
ansatz
anschluss
zufrieden
##gewohn
gekl
verschliessen
erde
erziel
erhoben
schwe
aussch
aussuchen
ausgangs
auswart
implant
aufbew
konkret
furs
##amer
stufe
##spir
##etika
##ielten
##rot
##ehnen
vorst
vorfeld
vorteile
##ikot
##iklin
dessau
demo
museen
ment
nachbar
abfall
abfl
abgerufen
abholung
uberra
uberfunktion
##ohnung
##ausstellung
##orts
real
##ischt
##verfol
##edel
durchfuhrung
blieb
blatter
mangeln
gesprache
arztlicher
##abel
##adel
##uhrerschein
##opa
wart
warnt
##0000
##neter
weiterbildung
gegenstanden
##ussner
##klem
##kranken
finde
strate
##gesp
hinein
hindeuten
##mechan
erfrierungen
gerinnsel
##ikamente
webs
korperverletzung
begleitung
oral
fahrten
##mittelt
reizen
geworfen
teilzeit
teilnahme
##landes
##stritten
##ganger
endet
dram
handy
handball
geschehen
##zeugt
knoch
##suche
erstmal
##ateur
schonen
##wirkt
maier
schnelle
angewiesen
angepasst
taglichen
vermogen
notar
antide
krankenversicherung
chirurgie
kratzen
##attacken
##unterhalt
grundbuch
lebt
sozialministerin
##klaren
freiberg
##lieben
darmschleimhaut
versand
wahrnehmen
oberflache
geburtstag
arbeitslos
herausforder
rechtskraft
kurzem
##hydr
eingest
fahrzeugbrief
##konto
kunstwerk
erworben
jugendhilfe
eheurkunden
registr
kontaktlin
paris
bruche
##gesetzes
datenschutz
daniel
##dienste
gesundheitsministerium
schmerzmitteln
gallenblasen
atemwegen
att
attent
##appe
##funktionen
##egte
sehstorungen
sachschaden
verscharf
ansteckungs
sitzt
enddarm
##agnose
##ehlungen
##iveau
politikerin
muskelfas
grunder
tageszeit
jederzeit
stellten
salzw
gastronomie
##nachmittag
##zeichnung
spieler
gebuhrenfrei
train
##artete
##knochen
##knochel
##stimmen
kampfen
##vereinbarung
festen
feussner
1995
verzichtet
blutgefassen
trans
eiweiss
##merkung
ruckenmark
nervensystem
gedruckt
relig
rotung
##schulung
##seinrichtungen
beteiligung
spiegel
##ancen
##warn
versammlung
begleitet
begunstigt
embolie
inklusive
jodmangel
##gerechte
idee
finanzielle
verlangerung
bewerber
##bedingten
kindertageseinrichtung
##tauscht
versichert
ausnahmefallen
vertreterin
elternbeitrage
aggress
werkstatten
abhangigkeit
gespielt
marktplatz
politisch
politische
organisation
abends
##jekten
einfachen
geschaffen
teilnehmern
rudel
##mandat
wanderwitz
schmier
verengung
koalitions
elektronische
sitzung
hypoton
kirchen
##information
toilette
unverzuglich
creme
##papiere
asylbewerber
einburgerungs
entspannen
vorsichts
##inhaberin
teilnehmenden
vollegefuhl
selbstbestimmung
frankfurter
ekg
funke
kohlenhydr
arztpraxis
bitterfeld
durchblutungsstorungen
mittagessen
offiziell
ehemaligen
fandrich
lebensgefahrlich
glieder
kratzmilben
fruhestens
erzieherinnen
vize
##twicklung
gastroenter
ganztagsschulen
moritz
erreichbar
spazier
diskutiert
slack
eingangsbereich
anonym
##arthrose
barentraube
handwerkskammer
herzrhythmusstorungen
samtliche
kondom
gefangenen
schleimhaute
httpswww
##funk
eingliederungs
coronanot
grafik
nachteilsausg
roland
##thuringen
emotion
batteriespeicher
aschenbro
eizelle
##jenigen
facebook
carsharing
eufuhrerschein
tschech
antidepress
salzwedel
hypotonie
000
54
74
85
aspe
binden
buchen
cas
det
div
dynam
echte
fc
fix
gu
hinder
hetz
li
loch
lauf
masse
nannte
pausen
roten
ski
ton
vag
zin
zir
zil
zertif
##ea
##sz
##do
##dosen
##izi
##gm
##gibt
##uk
##ual
##uft
##ubt
##nese
##lag
##llen
##lid
##labor
##90
##ode
##far
##fett
##ky
##komp
##bast
##bucher
##batte
##patitis
##75
##ena
##ente
##erdruse
##inert
##intens
##eister
##eiert
##anfalls
##onstr
diejenigen
eindamm
##eltern
##elhmtkde
unges
##ore
##orscht
##arme
##tee
beate
beschluss
begeg
beherr
beurteilen
##emann
##achter
anruf
zustimmung
##geschaft
##gehalt
geschieden
geteste
verwendung
vermitteln
schien
schatz
##tremen
##tropfen
##dehn
##irm
##andelt
aussehen
aufgerufen
aufstehen
konfl
staut
stirn
staphy
sichere
##eherdruse
voran
vorwiegend
nachste
nachlassen
nachnamen
##befall
abfuhr
ubergang
ubernommen
##ott
##geleitet
entschad
##auszug
##gerbom
##uliert
reflu
##apn
umlie
umschreiben
##vereinigung
##verschluss
andererseits
berufen
weisse
##zuber
##herde
gesetzt
##abstand
##abgabe
proz
bisschen
herkunft
gele
gelegt
warte
deutz
keinem
##wegung
blutproben
weiterfuhrende
##stest
##haltigen
heiser
2050
informations
erfassen
halben
beschrieben
beschrankt
geringe
landgericht
schlagt
##bstahl
##akten
schwach
##endung
seife
fuhrungs
zweifel
##ordert
reissen
schweres
impfstoffe
impfkommission
impfquote
##ickeln
flu
14llen
hautveranderungen
##gefasse
angesch
##ffung
benutz
hausarzte
vermutet
vermindert
liefer
liefert
##ordnet
schuld
krankengeschichte
##jahres
##jahriger
##grun
##grenz
2010
hohl
gesundes
freiheits
freibetrag
##schwellen
kompresse
oberflach
ausgestattet
solcher
schnelltest
baris
gestartet
eingeschrank
fahrzeugpapiere
landesverband
##losungen
ruft
karl
gleichberecht
hochst
staaten
quasi
verwende
forderte
willi
pflegebedurft
gesundheitsamter
beratungen
zahnschmel
dahinter
appell
immunschwache
immunabwehr
auslands
##verbande
langeren
naher
pravention
european
asthm
ministerin
2008
##chselt
perspekt
entzundliche
thromboser
lebensmittelvergiftung
fortschr
##intig
druckerei
##steine
speziell
##aktionen
psychotherapie
ansteckende
kulturelle
bestehende
ratgeber
profit
rententrag
nagelplatte
nagelbett
##schriftmandat
ahnlichen
ahnliches
gesellschaftlichen
partnerschaft
aktivitaten
##wechseln
maintaunuskreis
schlimme
chemnitzer
linien
unfallchirurgie
stromausfall
analys
analyse
##osslau
glaube
bedarfs
berufsausbildung
diskuss
##ogestrel
planung
infektionskrankheiten
kindesm
allergischen
fried
spiele
haltung
ausfa
firmenfahrzeug
verkehrsdienst
straftater
beeintrachtigungen
netzhaut
verdauungs
versicherte
empfehlenswert
mobilitat
basis
hundesteuer
risikofaktor
weshalb
agg
kortikoster
mutation
begrenz
optimal
arbeitsplatze
leitungs
angesp
trifft
kundigung
gekauft
freude
455
offentlichkeit
distale
luften
warmes
feiern
feiert
klassischen
65779
arterien
gerinnungshemmen
maschine
mikrop
ubersetzerin
##mitglieder
ordnungswidr
konsequenzen
rheuma
abgeordneten
##bescheide
entzundeten
verfassungsschutz
minderjahrige
bernburg
zuschauer
kassenarzt
schilddrusenhormone
ekz
gerechtigkeit
seelische
krebserkrankungen
##liga
arztpraxen
kompressionsstru
unbekannte
abgelehnt
##dosis
gefalsch
unterstutzungs
harmlos
##gewebes
stillende
ursprunglich
boosterimpfung
zimmermann
coronalage
betaubung
verteid
erinnert
kalzium
bodo
fitn
##otherapeut
entscharft
fliegerbom
verfugbar
nasensprays
ballaststoffe
wohnungsgeberbescheinigung
fahigkeiten
##ruptur
nazis
zigaretten
##physem
pedelec
sorgerecht
hospitalis
persapn
schnee
intensivpflegekrafte
gallertkern
lendenwirbelsaule
##stillstand
vorsteherdruse
abfliessen
wartburg
koalitionsvertrag
##labortest
reflux
zahnschmelz
07
04
46
67
700
a4
apf
bill
baf
bitten
bull
breiten
candid
curc
dg
dich
eich
ehen
fanden
fussen
farben
gingen
glo
griff
hit
jorg
kampf
lib
lindert
moll
ov
pse
plau
psa
peg
raus
rhin
sanger
sinken
stent
szene
villa
zsch
##eur
##sg
##sleben
##hnen
##hunde
##hangen
##hunder
##digt
##dio
##idem
##iale
##gs
##glichen
##typ
##lohn
##mag
##fang
##rh
##richtig
##kei
##king
##kasse
##kleber
##bem
##bart
##bieren
##beln
##piel
##pre
##volle
##zimmer
##70
##engt
##ernt
##iegel
##inkt
##stationen
##stossen
##unsten
##anus
diebstahl
einver
einlegen
einnimmt
einerseits
##urf
unfallen
unruhe
uniklin
##usste
##itr
##ittag
##ales
beschaffen
auges
anschauen
zuck
zueinander
##geschafts
##getar
georg
verarbeiten
##anne
##lehr
##ichtige
erm
schre
schmal
schweiss
schilder
schrieb
##deckt
##deckung
##lichem
ausgang
ausfallen
auswurf
aufgel
aufpassen
##amim
stur
stoffen
stiftung
##spitze
##ftkreis
##ckel
##ehe
##ehme
##ehilfe
##reen
vors
vorweisen
vorsitzende
vormerkung
dessaur
##weiten
##nth
##ersatz
##omuster
##bezir
speiche
absprache
abstanden
abstimmung
abitur
uberweisen
uberlegt
entzug
##ausstieg
##ulin
##allel
umgeben
##verlauf
##osse
durchb
beruhr
bereiten
##zufuhren
gesunken
##rauchen
arztes
arztlich
arztbesuch
def
seines
gehauft
abersetz
herab
gelte
infizierte
##opath
nochmal
##ktionen
##uchtern
coronas
weitergabe
##gebuhren
##arkose
##ierend
steff
steckt
##andern
##riffe
genes
##blocker
##sstand
kindertreff
bundeskanz
brem
bricht
urlaub
halters
beschrank
beschreibt
geringen
kost
koordin
wege
schlange
##amme
##standigen
##stellungs
korperstellen
begangen
orte
schwacher
bezir
lebensunterhalt
meiss
##ymbol
##lost
personenstands
zeitnah
engel
flach
flut
flaschen
##plak
##platt
verbindet
knochel
klare
erstellen
minus
minimal
elast
haufigkeit
##burste
trenner
aussert
haushalts
verminder
liege
bedeuten
voller
vollzeit
zusammenarbeiten
wohnhaus
sozialhilfe
sozialwahl
##ymptome
operativen
freiheit
##eregeln
##melde
zusatzlichen
oberarzt
oberbauch
##pflichtig
mitteldeut
##statika
ausgehen
ausgehand
schnelltests
festgel
akten
akuter
lungenblaschen
##belag
versteht
linksextrem
langst
langes
telefonnummern
2025
kostenlose
gestaltung
1930
##konzept
kunsts
kunstwerke
bakteriellen
abgewogen
##imil
erneuer
ehepartner
regular
fordergelder
ortlichen
parallel
beanspru
##gesetzten
pflegeversicherung
pflegepersonal
pflegeheimen
hormonspiegel
sicheres
gesundheitszustand
##wertes
normalfall
schmerzl
montags
zahnburste
zahnbelag
immunitat
##verbind
vergiftung
fusses
medikamentose
onlines
110
betamim
##ucherungen
##losende
1800
angeborene
##ankre
##quenz
2009
viertel
##nehm
##ullte
allgemeinzustand
demonstriert
weihnachtsf
kalten
fotomuster
##gelenke
wenigstens
duschen
muskelschmerzen
peters
funktionen
##terinar
##ohren
##orglich
##polster
altmark
texten
liegenden
psychiat
verdachtigen
freitags
beglaubigung
##osteron
mobilen
dunnen
nagelhaut
bewahr
ahnliche
aussenband
ungult
marc
maria
##vene
musikfest
partnerschafts
##strukturen
umweltministerin
stimmung
dienstleistung
droht
milben
geschlossenen
arzneien
arzneistoff
1990
schadigt
besucherinnen
kurzen
infektionsgeschehen
schliessung
schliessmuskel
abwehrstoffe
vermieden
friedlich
##fristige
komplette
evbnummer
##zusetzen
##hilfen
##sextremen
fertigen
resp
nahrstoffe
passenden
wunschtermin
##notruf
beitrags
beitragsfrei
junger
kommunen
based
ausnahmegenehmigung
seitenlage
wirksame
vertreters
begrunde
begrundet
streifen
erfahrung
selbsthilfegruppe
##produkten
bewusstlos
erledigen
weihnachtsmarkten
##zerte
verhaltens
parkinsonkrankheit
betreffende
##iosklerose
##fertigt
distalen
anhaltenden
anhaltende
gestagene
verengt
##problemen
forschung
leistungsfahigkeit
klassische
betreuungsverfugung
obstru
arteriosklerose
effektiv
deine
kfzsteuer
vari
##zulass
auffallig
mude
muster
rampe
vegetar
veterinar
heilende
##lagerungen
mindestlohn
erganzende
beatmung
historischen
polizistin
judischen
judische
abgebaut
armuts
bosartig
erziehungsberechtigten
mitgeteilt
blockieren
vielfaltig
intim
staub
begleitperson
landtagswahl
anerkennen
anerkennung
wesentlich
pressekonferenz
materialien
##fasern
##sehbar
##sprufung
beseitigen
beseitigt
direkten
huftkopf
##ordinator
solidaritat
brechkraft
struktur
strukturen
journalisten
bombe
botschaft
krib
einseitige
nebenhohlenentzundung
prinzipiell
hilfsmittel
wadenbein
johnson
unregelmassig
umtauschen
benachbar
entzundungshemmende
erzgebirge
gluk
padagogische
geplante
amerikan
##abgeordnete
geburtenregister
##zepte
oberschenkelhalsbruch
insektenstich
vogel
wiederkehrenden
kolleginnen
pflanzliche
himmelsscheibe
eutb
gehapren
gefragt
gereizt
knotchen
erschopfung
autofahrer
##vormittag
betruger
bestrahlung
kosmetik
ungewoll
bedroht
annaberg
infolge
marketing
##tafel
anamnese
herausforderungen
kontaktlinsen
moritzburg
nachteilsausgleiche
caspar
schienbein
oberflachlichen
thromboserisiko
leitungswasser
bafog
hitler
pseud
dessaurosslau
steffi
meissner
ausgehandigt
fotomustertafel
09
4000
84
ader
amm
a14
bor
byp
bob
baden
bade
bussen
busse
dl
dor
deu
dingen
dorn
daumen
esport
fro
fud
fangt
hann
hir
heu
hef
hulle
iv
kz
la
lande
lese
luchs
mwd
nag
nationen
nic
neigen
nfp
ot
oran
pall
psy
pillen
pdf
stern
therm
val
well
zitt
zerk
zunge
##ete
##cl
##cr
##cp
##ham
##hungs
##hap
##druckt
##iografie
##gitis
##ghan
##nutz
##nov
##thin
##lon
##lax
##667
##ocken
##ooster
##oscht
##mod
##molek
##fro
##fehler
##rigkeit
##ritis
##resse
##risse
##kin
##kun
##ket
##kissen
##bit
##bruck
##ppf
##plex
##vo
##v1
##vir
##zit
##zundet
##zinom
##wm
##welle
##ware
##wissen
##ystem
##jagd
##16
##17
##49
##erkt
##erbt
##erosa
##chtern
##iew
##ielen
##iegt
##eider
##eitert
##stes
##streifen
eingang
eindruck
einfuhrung
##schwer
##schancen
unspezif
##ormen
##asma
##usburg
##atch
##atin
##ates
##atischen
infekte
##alz
##alin
##techn
bem
beenden
beweisen
ann
anre
zuges
##ged
geg
geschie
getreten
geschlagen
verpack
verpartner
vertretung
erd
erlassen
erarbeitet
beider
schme
schienen
schickt
schied
schleichen
mitnehmen
##irektor
##eitungs
alarm
ausgel
ausger
ausschliessen
ausschlag
ausmachen
ausatmen
ausstrahlen
##isl
##ismen
aufbau
auftrage
aufzus
aufgelost
aufruf
kontra
##amy
stutz
stossen
##spende
##ktomie
##indigkeit
##rezept
vorgeb
vorgang
vorschlag
vorwur
hagen
##weispflicht
##eug
##omsd
##beweg
##bestimm
##befinden
##bewegung
unterschieden
spin
spont
abgabe
absetzen
absterben
uberstanden
ubernacht
##ohl
##ungsbeil
##ollamt
entnimmt
##aussch
##mengen
##orth
rekord
##eilt
##ape
umziehen
##verhalten
##ume
blinde
berufe
weile
##ogrom
betrug
##zeigen
dasselbe
prostag
gehbehinder
##tzellen
##tzone
##tzollamt
herp
herstellung
hergestellt
gelande
geloscht
zurzeit
zurecht
infarkt
leitet
##opro
darstellung
darstellen
##nerven
deutliche
vielmehr
gegenseit
gegenanzeigen
##gebiete
##astrasse
neujahr
neumarkt
gebooster
##weisungen
##fahrten
genthin
##klass
##klasse
betroffener
##ssta
hingehen
##flaschen
brutto
gerichts
##izierung
##pres
schlos
schlagen
behindern
behinderter
##zeitiger
##iesse
beziehen
lebenslang
##idog
gewinnen
##iller
zeitgen
zeitweise
schwereg
impfschutz
gefullt
selbststandige
handel
gescheitert
polizeibe
klage
miner
elis
herzgut
sekund
seelsorge
schnellen
##scheidung
vermein
##ultur
schulung
krankengymnastik
zusammenarbeit
grundschulen
leer
levon
arbeiter
antrags
##rechung
##lernen
sozialstaat
dreimal
##schwollen
darmwand
darmflora
wocheninzidenz
##fuhrungen
##wohnung
internist
tropen
automaten
oberverwaltungs
##brand
##brandt
arbeitsbedingungen
ausgedehn
sogenanntes
##sprach
verdick
verdient
einzunehmen
gestern
192
gesetzes
##konzern
kardi
karzinom
gleichstellung
empfinden
empfangnis
zahlung
1500
schleimstoffe
abgeschlagen
melder
##implant
120
erneuten
meint
register
sportler
orts
ortliche
verfarbt
hormonelle
hormontherapie
hormoneller
alkoholabhang
mitarbeiterin
kleineren
rundfunk
beruflichen
praxen
wahlplak
innenraumen
sehschwache
tumore
angeboren
angebracht
##schnitte
##qualif
2005
##emens
hinteren
klingt
##rechtliche
##impfstoffe
kalter
##arbeits
kontrollen
peter
nachweislich
covidpatienten
funktionieren
beinvenen
stellung
##polypen
gewebeproben
notwendige
##buchholz
voraussichtlich
sauren
geschwister
geschwure
bestatigte
meldedaten
meldebehorde
psychos
kulturveranstaltungen
##rente
erlautert
##yndrom
##yngitis
million
armbru
chefin
ruckfall
aktuelles
##iftungen
##staaten
nahezu
lautet
ergebnissen
trab
folgeerkrankungen
wertmarke
afghan
##eidungs
##zahlungen
##vereine
grades
getrunken
aufgetreten
bundesteil
##forst
##strumpfe
vermehrte
bankkonto
schlimmer
##bolien
unfallversicherung
umfasst
170
##zogene
##verbandes
##desm
##splan
schadstoffe
wissenschaftlich
gesundheitliche
ruckenschmerzen
##management
##volut
blasenentzundungen
sexuell
sexual
##koordinator
vorlaufig
##sportler
kindesalter
reinigungs
theor
beteiligten
maxgl
3gregeln
pci
krankheitszeichen
##zusagen
schriftlichen
fersenbein
erschwert
erschienen
tausende
inklusions
finanzierung
bewerbung
beeintrachtigung
fehlenden
wohlbefinden
angela
##coin
##griffe
depressive
sonnenlicht
mikroskop
augustusburg
option
streiken
##kontrollen
hauptzollamt
stabilisiert
ungeklar
ungewohn
betreffenden
erleichtert
hemmt
kaputtgemacht
##warts
stammt
herpesviren
kilogramm
radioakt
radiojod
gerinnungshemmer
aussagen
##belegung
iii
paul
konsequente
vorderen
spannungs
bmg
multip
verschlimmern
berucksichtigen
wearable
hoden
moderne
ehrenamtlich
kitas
bestandteil
teams
erganzend
anzeige
makula
bekampft
fruchtbaren
clemens
messung
weimarer
antigentests
benachteiligt
himmel
orientieren
integration
sachbearbeiterin
##braun
illegale
krebserkrankung
loschen
publikum
nachfragen
##sphase
appetitlosigkeit
heftige
gedachtnis
##organisation
legisl
beratungsgesprach
asien
plakate
feuerwerksk
colitis
laryngitis
scharfe
coronainfektions
behindertenbeauftragte
winzige
aussagekraft
ausgleichs
abschwachen
abschleppf
antivirale
kapazitaten
saalekreis
baier
franzos
lahmungen
signal
##dehnt
##kapseln
packungsbeil
##flexe
##kraften
##befehl
erkundigt
ulcerosa
relevant
instabilitat
gefluchtete
bonitat
fokus
##gebaude
umweltzone
motorrad
##spezialist
kohleausstieg
plaque
bitcoin
gymnasium
getan
werktagen
havelberg
gewunschten
##wirksame
befreiung
2gplusregel
instrumente
##gesellschaften
schotte
##bestandteile
karnevals
heparin
bevorzugt
erlebnis
mundnasenbedeckung
veroffentlicht
ebikes
ischiasnerv
agentur
romant
##schrauber
menthol
gallenblasenentzundung
vorsichtshalber
kohlenhydrate
detail
##bastian
getestete
profitieren
rententragers
hospitalisierungs
candida
##magazin
zuckerkrank
vorsorglich
flutlicht
basedow
annabergbuchholz
ammon
bypass
deutet
psyche
##ketball
geschieht
##omsdastrasse
prostagland
oberverwaltungsgericht
abgeschlagenheit
bundesteilhabe
maxglomsdastrasse
packungsbeilage
06
56
58
600
72
bu
bj
bion
bud
db
dat
dell
deuten
dfb
eul
echten
far
fig
fassen
farb
feld
fonds
hur
hoffe
jesse
jagd
kun
kart
kase
kette
keller
lat
lein
loh
lutz
liessen
lager
lasten
lucke
mogen
nutzt
narben
ott
ros
rassen
raten
ries
satz
tet
taschen
ticket
thermometer
vog
vii
vektor
waffe
##har
##hab
##adern
##aillen
##ditz
##deln
##dammen
##dampf
##datum
##dire
##iologie
##gase
##tliche
##tabletten
##lah
##lad
##lasst
##listen
##fein
##fellen
##fragen
##ry
##rika
##kol
##kommt
##karten
##karzinom
##bor
##bank
##pu
##por
##pten
##pag
##peln
##pumpen
##pohl
##zun
##zieh
##zzentrum
##walter
##35
##13
##xid
##erre
##erjahr
##erreger
##erftkreis
##chat
##chner
##ieden
##inhalb
##eier
##eigert
##any
##anteil
##ansatz
##anschlag
einteilung
einatmen
einschulung
##ichern
##schel
##schiene
##schirm
##urteil
##asie
##usionen
##aters
##aloe
##arch
##tech
bewiesen
bearbeiten
austro
anne
anpass
anlauf
anlegen
aneinander
angelegt
zufallig
zugrunde
##gefahren
##gestaltung
##gestellte
geschad
vertr
vergeben
verod
vergehen
versprechen
##lebt
##benne
##senden
erinn
erasmus
schicht
scholz
scheidungs
##lichkeiten
##irekt
##ague
ausk
ausw
##isation
##isierten
aufrecht
aufbringen
aufkleber
konzerte
stol
storen
stammen
startet
stachel
##spar
##sperson
##spunkt
##ahrungs
arena
wirbel
werbung
##reose
vorstand
vornehmen
vorschlagen
vormund
##ikte
sozi
##weiter
##eugt
##omographie
##bestellung
##betrage
untere
unterrichtet
spra
spaten
abger
abgenommen
abschliessen
abgelegt
abklaren
absehbar
ubersetzen
##gelenken
##gellhmtkde
entschul
entfallt
##ausitz
##ellaz
##gerate
reste
durfte
##allation
##aps
umsetzen
##verh
##versch
##edlin
##umfang
durchm
##pern
##ebene
weis
weicht
##schliesst
##schafte
##zeitein
##zeichnungen
##abs
##adresse
projekte
gehabt
##istole
sollst
##uhrten
##kennt
herstellen
herkomm
##aufforderung
gelungen
##teln
infra
leibe
##opidog
bestanden
##ktions
blutuntersuchung
weitergeleitet
##fallverordnung
##heter
##arkasse
neustadt
stechen
##fahrts
##fahrzeuge
##rid
heideck
heizung
##etzsch
##sstad
kinderschutz
hierdurch
hinweg
##flusse
bundesweite
urlau
hallen
zusenden
gereinigt
##demonstr
diesmal
landrats
kooperation
##bstoff
korperlich
regelblutung
fuhrte
gewohn
teilt
impfstellen
##barr
enorm
14hr
verbrecher
helios
dringen
plus
plane
starkem
##suffizien
klagen
klumpen
erstehilfe
hautstellen
hautstelle
insulin
##esende
herzdruck
sebastian
mac
trinkt
schneider
angekommen
angeschwollen
wirkungs
##armut
tagliche
##vorsitzende
##okal
##okard
vollstandige
krist
kritisch
##gendes
bele
beleidigt
leuna
frisch
antragstellen
##rechnungs
operateur
##druckerei
haufiges
oberlandes
##rafie
##brille
geburtige
##pflaster
arbeitslose
feststellung
festzustellen
rechtlich
##behalten
lungengewebe
extr
exaz
befund
##regionen
eingehen
eingetreten
fahrzeughal
personalausweises
neon
gleiches
hochschulen
fachgesellschaften
testosteron
hartz
quad
quedlin
abgew
abgeschle
meldet
ernte
ernste
besserung
sportveranstaltungen
terminvereinbarung
ortlicher
veranderte
bruder
seltene
pflegeeinrichtungen
##werkstatten
typen
operations
dirk
normalisiert
atemluft
genauen
dahin
##arzten
hub
##durchbruch
berufliche
luce
vereine
vereinten
atop
venenthrombose
wahler
burgern
##methoden
sehe
sachverstand
verschrieben
verscharft
##geworfen
115
##leistungsgesetz
chemie
chemische
endlich
erforderliche
verkr
grossveranstaltungen
entzundlichen
##nehmung
50667
renov
indirekt
phil
intensiver
lebensmittelinfektion
beschaftigen
staatskanz
petr
flesch
flegel
trauma
##steinbarr
company
##handschuhe
hey
hefe
hepatitis
gemeinsames
saft
geschwacht
nervos
##stitel
130
platzwunden
##twortung
eventuelle
coronapro
##orgestrel
milli
covid19erkrankung
aktueller
tierarzt
tierpark
##skommun
240
ublichen
dunner
korea
##egenheit
immunsystems
##zahlung
staatliche
##lastung
behindertenwerkstatten
##fordert
marchen
aufgetragen
fev1
##forum
##ationszentrum
umweltschutz
##freiheit
milcher
schlimmsten
linsen
1994
1998
wissenschaftlichen
dicker
ostdeutschland
winzer
sexuellen
vorlaufiger
oliver
reinigen
reizung
##frakturen
steif
##marpohl
kleid
kleider
##staub
verschwunden
verschwindet
##erring
erweitert
fehlstellung
fremder
trinkwasserverordnung
zugelassene
##spektion
bandscheibe
bewerben
laufenden
geschaftsfuhr
strenger
branchen
lebensjahres
angelegenheiten
elterngeldplus
anspruchs
pcrlabortest
eckpunkte
erhaltlich
##iefert
gelegenen
fraktur
depression
vergleichsweise
konservativen
begrundung
##iclovir
optiker
giftnotruf
##wurd
mitgliedschaft
assistenz
syndesm
gewerkschafts
##heilt
angemessen
##athlon
stabilitat
vorbereitung
vorbereitungs
##sprecherin
verbreitung
erweiterten
ummeldung
##ubungen
fahrzeugen
##aktivitat
geforderten
##asenkarzinom
steigenden
epsteinbarr
pneumonie
##finale
verpflichten
ambulanten
strecken
elektronischen
mittleren
##varianten
ausbreitet
weibliche
##stattung
fischerprufung
varik
vordergrund
heimatland
1989
interessierte
punktlich
ausgebreitet
auffallige
kompressions
##hauptstadt
westin
verschliesst
bettenbelegung
phobien
schlusselbeinbruch
modernen
waldbran
insolvent
empfindlich
atherisches
ehrenamtliche
bezuglich
bestandteile
sensor
aufenthaltstitel
beruhigen
korpereigenen
untersuchungshaft
sammeln
##mbk
auseinandersetzung
##bewerb
abgebucht
clopidog
##brock
##eldeten
##helfer
uberprufung
grimmbenne
prasenzpflicht
prasenzunterricht
##sfraktion
skab
##gaste
sperm
illegalen
rheinerftkreis
wesentlichen
kohlendio
letztes
vollendung
kultusministerium
##empfindlich
##friedensbruch
conne
stillzeit
durchblutungsstorung
verlangsamen
kompressionstherapie
faserring
mahlzeit
wildkatzen
##flegellhmtkde
lebensbedrohliche
tropfcheninfektion
forschungszentrum
erhebliche
51103
zwecke
gewerbean
halbjahr
schluckbeschwerden
eigentumer
##treiben
definition
gefalscht
allergene
bildgebenden
bildgebende
fischereischein
henry
familiar
kriminalitat
pferde
servic
service
universitatsklinik
befristet
annetteflegellhmtkde
papieren
wetterdienst
schadet
student
genderstern
gewichtszun
chatgruppe
gewechselt
menstruation
nachzuweisen
##zidiv
diskriminierung
comic
italien
desinfizieren
museums
pflegerische
ausgewogene
zahlungsaufforderung
regelmassigen
korrigiert
erwerbsm
berechnen
##phylax
anhanger
redaktion
geholfen
stellvertreten
hufte
##srichter
bluterguss
bescheinigungen
autohand
eingeatmet
fluchtlingen
multipl
friseur
mmhg
erzielt
##verfolgung
registriert
attentater
muskelfaserr
gliederschmerzen
gastroenterologe
eingliederungshilfe
coronanotfallverordnung
aschenbrodel
aspekte
zirka
##komplex
beherrschen
staphylok
asthmap
##intigrafie
kindesmissbrauch
fliegerbombe
persapnlich
wartburgkreis
apffen
pegid
zschape
bezirks
kunstsammlungen
beansprucht
petersberg
respekt
obstrukt
veterinaramt
dlmbk
zittau
##frost
schiedsrichter
##ogromnacht
levonorgestrel
##volution
radiojodtherapie
legislatur
feuerwerkskorper
details
zuckerkrankheit
ammoniak
bjorn
biontech
ottmarpohl
tetanus
vogt
##direktion
erinnern
##ellazoster
heidecksburg
##suffizienz
herzdruckmass
oberlandesgericht
exazerb
quedlinburg
staatskanzlei
##skommunikation
syndesmose
clopidogrel
gewerbeanmeldung
gewichtszunahme
ottmarpohlplatz
715
99
900
aste
aff
aura
bast
buh
cy
dicht
dul
dosen
druckt
fat
fasst
ferne
fette
gun
glaub
gregel
gumm
han
hoffen
hekt
hessen
ky
kin
kanz
kussen
kuchen
kuche
lam
lab
lagen
lasse
larm
linderung
ml
mach
mod
mze
malen
mullt
nin
nit
nuck
nadel
niveau
pirn
rand
ret
russ
rob
satzung
symbol
tol
teuer
throm
taunus
wach
wunder
zitter
##hormon
##ader
##date
##ise
##ibel
##git
##glich
##uel
##upft
##nieren
##ta
##thermometer
##ling
##lause
##litter
##lippen
##mo
##full
##kra
##kinder
##kandid
##bte
##pon
##pas
##pend
##padag
##zgebir
##wunde
##wochen
##wasche
##watch
##04
##23
##ens
##energie
##ieht
##inhalt
##infekt
##inspektion
##eigung
##stitis
##stock
##sturm
##ana
##anter
##ankt
##anik
##anhang
##anfallen
##anspruch
##antagonisten
##aneutr
##ones
einn
einst
eintrag
einreisen
einhaltung
einstich
eintreffen
##sches
##schilder
unbehand
unzur
unbem
##ussten
##usitis
##esco
##atigen
##attel
##atmung
innov
##ittw
##alc
##ara
##arfen
##armen
beschad
bearbeitet
befest
beachtet
##eme
##emium
##emester
##denten
annehmen
ansprechen
anwalt
anweisungen
##geschafte
gehalt
gedenken
gegessen
verschie
verwir
verlet
vernach
verweist
scham
schieben
##bereit
##lichten
mitten
mitarbeiten
##einstrahlung
##agten
ausst
auslei
ausdauer
ausnahm
aufwend
aufgebaut
konfr
##schenden
voneinander
##ionsfraktur
stor
##spost
##ahrschein
##fenster
##ehrungen
##cknen
vorgaben
vorzus
vormittag
vorschriften
vorwarn
##ikale
haare
desogestrel
demos
musst
sohn
soko
##weitet
##reistag
##ienne
##omobil
unters
unterbauch
wies
splitter
abhusten
ablauft
abwechseln
ubergeben
ubermass
uberfordert
##leidung
##rafen
entb
entlassen
entlang
##ausser
##ausfalle
reform
refraktion
rechnungen
##asses
personlicher
##apar
umsatz
##vermerk
##osis
##ums
durchbruch
blutet
berater
##periode
weichen
##zufuhr
gesass
gesunder
##angem
debatte
##abl
##abrech
##abnahme
##achtung
behau
##istet
##aufwand
gelei
gelost
gelernt
jahresende
##telefon
bekampfung
bekannter
alli
darstellt
blutes
blutkon
##uchse
besied
##artiger
##tworter
neubau
gebunden
steph
##anderungen
##klassen
##zimpf
##trager
##bli
strok
wiederhol
bundesagentur
bundesmelde
bundesrechnungs
breit
brille
beschuld
landrat
landarzte
koditz
westen
##standiger
korperlicher
##nahe
begann
begut
##aku
##aket
gemass
behandelten
##laufe
lebensalter
##hausstrasse
zweifels
##office
reihen
gewisse
objekte
impfausweis
impfwill
impfreaktion
impfdosen
##ickel
enger
coronaimpfung
##platzen
unseres
14her
verbot
dring
gefuhle
gutsfeld
handler
geschichten
polizeilichen
polizeiangaben
polizeisprecher
entzogen
hautarzt
##duktion
eltz
herzschlag
see
sech
kindheit
schnittw
##ffhauser
aussere
ausserte
##inkel
hausern
vermei
allergien
##vorsorge
liebe
besonderheiten
##ordnen
##ordnungen
##ovia
schulz
china
champ
vollem
vollkorn
risikop
krieg
##unterlagen
frust
##itismus
beluf
grundimmun
##ittes
sozialer
freizeitein
##liegt
##hain
##hafter
wahrgenommen
oberflachen
krankenhauskoordinator
niem
arbeitsvertrag
herausforderung
ausgewahl
ausgeglichen
rechtsextremen
##behalter
akne
bildern
lungenerkrankung
lungenentzundungen
expl
existenz
kostenuber
kostenfrei
landesweit
landespolizei
194
hochste
hochschule
suden
summ
##urkundet
erwart
156
abgezogen
abgestimmt
jugendt
ernahrungs
ortsteil
##ssitz
##saicin
##gehenden
gelenkflussigkeit
verfugt
##ifikation
sichergestellt
anfallen
schwangeren
normalstationen
knochenbruch
gallenflussigkeit
familienstand
familiennamen
familienmitglied
##durchschnitt
entwicklungen
##gemeinschaften
nahmen
vereinbar
auftretende
##appar
burgerin
burgerservice
innenknochel
##acke
sehzellen
##training
verschlechter
##leistet
##trauben
##zidenzen
2006
2003
2004
##geberin
ausweisdokumente
freunden
periode
harnwege
harnblase
fruhere
studieren
studierende
blutdrucksenker
weihnachtspost
kalorien
brustbein
unternehmenskommunikation
erkenn
fortbildungen
muskelz
personliches
hustenreiz
tagesbetreuung
##stadium
erzahlen
asthmaanfall
geltenden
##politische
fuhrerscheine
##steinen
notwendigkeit
intensivmedizin
##handels
heut
altpapier
letztendlich
virusvarianten
komplex
gastrin
worth
gehirns
ansteckenden
nasenschleimhaut
10000
luftfil
##schliessungen
rucksprache
ruckwirken
mitgliedern
parkhaus
zugunsten
enthaltenen
monatlich
meer
marco
getrennt
geistige
biof
bibli
partnerinnen
##forschung
behandelnde
350
kreisfreien
arzneistoffe
arzneimitteln
##praparat
##zogenen
##ivert
##abeth
schadigung
transa
eiweis
scheidung
sexuelle
besucherzentrum
diskotheken
kurhausstrasse
olaf
##fernung
##igungsverbot
##schuler
verbindungen
betreuerinnen
komplikation
buslinien
evangel
nationalen
rasche
##markte
regionale
dosiert
auga
begleitend
gefassver
fussballspielen
erweitern
##zyme
bezeichnen
bezeichnung
gallensteinen
markus
finanziert
finanziellen
bewertet
schlafmittel
zukunftigen
jungere
pcrtests
basketball
holger
therapeuten
gelegene
zyklusapps
ansprechpartnerinnen
samstags
wesels
entdecken
sonneneinstrahlung
fernseh
bildungsministerin
hirnanhang
tauschen
erwachsenenalter
pulver
##verdau
streiks
##tendant
##produkt
organisationen
volumen
gebeten
erganzt
magendarmbeschwerden
##kontroll
prostatakarzinom
acehemmer
endometrioseherde
##diagnose
physikal
schmutz
positives
##ziplin
handgelenkes
erhielten
gewahrleistet
energien
##sitzenden
##organe
zerstoren
vorubergehende
ballon
ambulante
radioaktiv
##milch
strafanzeige
maschin
eigentlichen
##salz
beantragung
deinen
ansteigen
anstieg
ungeimpften
auffalligkeiten
zentrums
vegan
##anomen
anmeldeschluss
aktionen
walder
uberwachung
##gerechtigkeit
drast
##bundes
##angelegenheiten
erwerbst
##ografen
kleinkinder
mindestabstand
sensibil
hyperthy
##fraktionschef
negatives
herzkranzgefassen
botenstoff
minderjahrigen
beatmet
erkenntnisse
##eldete
berechnet
orthopad
orthopadie
absolute
koronarsyndrom
erziehungsberechtigt
erziehungsberechtigte
blockiert
systeme
seniorenberatung
funk
##helfen
parlament
endgultig
mutmassliche
mutmasslichen
unterhaltsvorschusskasse
feinen
virt
anfallig
unterbrechung
sperren
pfeifen
physiotherap
klimaneutr
spezifischen
reservieren
##empfindlichkeit
ebv
stationaren
antisemitismus
kapseln
direkte
namensfuhrung
techniken
todesfalle
erheblich
ehemalige
mrnaimpfstoff
robertkochinstituts
gott
gotha
zweck
eingeladen
##ertifik
bomben
glied
korrekt
fischereibehorde
eileiter
filter
##steiger
schlechte
behindertenbeauftragten
capsaicin
befristung
biometrietaugliches
erscheint
##beantworter
selbstandig
formulare
isolation
bedurfnisse
moderna
gunstig
befurchtet
bewaltigen
menstruations
sauglingen
##viertel
##arterien
aufgefordert
angeklagte
verfolgt
distanzunterricht
opioide
potenziell
kernsp
muller
spurbar
entlastet
##gerausche
jahrzehnten
kriminalpolizei
##sicherheit
##verhandlung
genitalbereich
sozialversicherungen
birgit
homeoffice
schreib
##republik
umwandeln
grupe
variante
widmet
##wurzel
##gewohnheiten
abfallbehalter
##mechanismus
knocherne
antidepressiva
divi
##intensiv
eindammung
anrufbeantworter
heiserkeit
##grenzung
verwendeten
glob
##richtigung
##preuss
einverstanden
##geschaftsfuhrer
##plattchen
##imilian
betamimetika
psychiatrie
ungultig
##zulassungsstelle
intimbereich
bobbahn
##biticket
verpartnert
aufzusuchen
vorwurfe
gegenseitig
schlosser
mineral
elisabeth
melderegister
abschleppfirma
bundesteilhabegesetz
dellwarzen
##fellentzundung
scheidungsurteil
sprays
kohlendioxid
gendersternchen
##phylaxe
autohandler
asthmapatienten
pegida
legislaturperiode
herzdruckmassage
affnungszeiten
hektar
kyffhauser
kanzlerin
mzeb
niners
nuckel
unzureichen
unbemerkt
verletzen
vernachlass
konfront
blutkonserv
stroke
bundesmeldegesetz
bundesrechnungshof
freizeiteinrichtungen
weihnachtspostamt
luftfilter
ruckwirkend
kyffhauserkreis
05
47
63
68
asch
afr
alex
aspir
bist
bic
cro
dv
dutzen
dillen
datum
epa
eitr
fut
fiel
fahn
full
fugen
gicht
gran
galt
gaumen
grauen
hung
hall
hild
iren
ign
jog
jaz
ke
klet
kasten
ln
lad
lapar
massen
muhl
mieten
merken
missb
ns
na
nehme
ok
pst
pre
pot
pop
phen
rf
ras
runde
rosen
ruman
sz
sab
sassen
sittes
tisch
ted
turn
us
vfb
wat
wem
wellen
wande
who
wickeln
za
zog
##sion
##suniversitat
##hungen
##aille
##digung
##ibl
##iff
##gor
##gungen
##gift
##uben
##uhen
##niger
##narkose
##luck
##liste
##lausitz
##69
##oin
##odem
##ostatika
##masse
##fug
##frage
##fservice
##fassung
##kus
##kter
##knet
##krise
##kammern
##brei
##bunde
##pul
##passe
##pause
##viel
##vater
##wett
##wenden
##wande
##36
##enkt
##eranz
##chol
##iebs
##inern
##eicht
##strei
##stab
##stiftung
##unabhang
##anb
eingeben
einlass
einreichen
eingriffe
##schild
##schatzen
##elung
##urle
ungeb
unangem
unkontroll
##oring
##ash
##usken
##useum
derselben
##atungen
##atische
##derm
initi
inkont
inzidenzen
##algie
##alisierung
beamt
bedien
bequ
beendet
bedroh
beule
bewirkt
sieg
##igne
##emed
##emuseum
##achs
##terungen
antr
anwohner
anschrift
ankund
anliegen
anschwellen
zuber
zuschuss
##aule
##austausch
##gegend
##gewerk
##gedenk
##olyse
geern
geteilt
gekenn
verun
verkl
versteckt
verschieben
##leerung
##ichtigen
erben
erstellt
erteilt
erholen
erzeugen
schrau
schaf
schiene
##berufen
##trien
##decke
##irmen
##utschen
##andat
##eingang
##einsatz
##agert
ausfalle
ausbruch
ausgaben
ausziehen
auswirken
ausschr
auswertung
##ilf
##illin
##ildern
##iertem
aufhalten
auftragen
aufnahmen
auflos
aufgefuhrt
aufschreiben
konst
konstit
konjunkt
##schend
##amandat
vonovia
stort
starb
stoss
starben
stolz
##spatienten
##spogromnacht
##etelefon
sichern
##aht
arger
##undemuseum
werfen
werniger
##reden
##reckt
vorjahr
vorange
vorschul
vorgange
vorstands
vorzeitige
vorzeigen
##ikten
##ikern
##ikeln
##sergebnis
##serscheinungen
desder
sow
##rucht
##eumat
##euchtet
nachbe
nachholen
nachwuchs
##halsfraktur
##best
unterarm
abn
abholt
abheben
abheilung
##ungsmittel
##ungsfirma
##rader
##oth
damm
##ausweise
##gerien
##fekten
retr
regt
realitat
rezidiv
##assisten
##aller
##vertrage
##osy
berger
berichtete
weite
##zuschuss
##herme
gesuch
gesetzen
##ival
##beitrag
##beitrage
depp
##aby
##abfuhr
##abfluss
protesten
projekten
gehandelt
##istisches
##uhrte
##immen
##aufgaben
gelassen
##telfrost
leitete
##auto
##autos
##automat
##ophy
##ophil
darmin
darknet
beste
blutbild
blutverd
blutplattchen
bespr
besprochen
lebend
coronadem
gegeneinander
##gebuhr
##gebuch
##gebogen
neuere
gebieten
gebiete
geblieben
steffen
##ahlten
##steam
##fahrung
genen
##klopfen
poly
2030
selfservice
struma
striegel
wiederer
wiederholen
kindergeld
kinderklinik
hierzul
hinblick
bundesamt
bundesgericht
bundesprasident
bundesgesundheits
bundesrepublik
erfragen
gras
halte
halbes
zusamm
geruch
gerth
gerinnt
##utze
landfriedensbruch
stadtr
##max
##main
##link
them
korperteil
korperteile
##zeitlich
damal
spritzen
behandel
fahrlass
lebensbedingungen
lebenssituation
##ido
reisst
zeichnet
teilgenommen
##ferenzen
##loid
zeitlich
fluch
fliegen
##entfernung
coronabeschrankungen
coronaschnelltest
oftmals
verbru
drin
gefassen
selbstdiagnose
handele
geschossen
geschont
hautkontakt
##gefass
##gefallen
##gefuhle
inszen
##isiken
kolon
schonhaltung
herzkrankheiten
herzklopfen
bauer
baumen
bauern
bauarbeiter
baustelle
angste
trend
angezundet
angepas
ausserst
ausserlich
ausserunterricht
##armt
verlier
verlass
hausliche
hauslicher
##ica
##ico
##icillin
seitlich
notfalle
##urkundemuseum
schulern
schulschliessungen
chl
##okoll
##angehap
##testabchen
beleid
belieb
mannlichen
league
wohnraum
wohnformen
wohngemeinschaft
##probieren
arbeitete
frag
frische
front
##amilien
eigenschaften
personalien
freigegeben
freitesten
##drucke
##schwund
darmverschluss
version
diensten
schub
schuben
autod
automobil
erhohtem
dise
oberlausitz
juden
niemals
##bring
magens
amtlichen
##versammlung
ausgegeben
ausgeweitet
bleibe
bursten
festhalten
therapiemassnahmen
aku
verstorben
exist
extens
expres
verdun
erfolge
telefonischer
##burghausen
kapit
habeck
landeshunde
1938
gesetzgeber
##konzentr
bauchfellentzundung
gleichmassig
kunstlichen
gemeint
fachdienst
fachbegriff
testungen
harter
quote
##muskeln
##ible
abgest
erneuern
kontaktieren
forderungen
ortlich
folgender
parken
bruste
##kohle
mundhygiene
beantwortet
beantwortung
wasserstoff
unterschiedlicher
##gesetzte
pflegeheim
pflegeperson
hauter
verfugen
hormonhaushalt
##werkstatt
massgeb
##ifte
anfragen
schwangerschafts
normales
knochenenden
zahnpflege
##besetz
entwicklungs
immuntherapie
immunzellen
##aufent
nahm
nahere
vereinen
menschliche
geburtsanzeige
einzelner
einzelfallen
wahlrecht
wahlrechts
innenseite
innenpolitische
##metastasen
sehne
betreuungsp
114
chemischen
bleibenden
endok
14rfen
verkleben
##agnost
grossrohr
grossflach
augenlid
augentropfen
perfekt
hinterlassen
harnwegs
demonstrieren
509
arztekammer
##impfstoffen
onlineausweis
fotografen
phleb
pharma
##opfer
regelmassiges
offnung
offnet
##arbig
staatsangehap
nachweisbar
fruhforder
fruhforderung
asthmakontrolle
trauen
anspru
venenklappen
druckverband
senkt
##folgen
heb
hebt
gultiges
saur
geschwachten
##kasten
spielsachen
check
entsprechender
cdupolitiker
standesamtes
verdachtige
naturschutz
ruckgang
beglaubigungen
jemandem
lauter
ratsel
ratsuchen
traur
zentralen
##osterzgebir
genesenen
zugriff
migraneanfall
postfach
behindertenpark
garage
##shoch
einkommenserklarung
aufgeteilt
aufgezahlt
##planen
sepamandat
biolog
biopsie
##ationsdienst
umwelthilfe
##freiung
milz
lina
linx
strassenverkehr
mutterschafts
umfrage
fettstoffwechsel
videos
videokon
1992
analbereich
erklarungen
engag
engstellen
engagement
schadliche
##rippe
internationaler
tranen
##berechtigte
diagnosestellung
kennzeichenschilder
sonstige
##meisterschaft
dicke
nervenschmerzen
vorlaufige
gedul
allergologie
erfolgreiche
##2022
abwehrzellen
elektro
rotes
rotungen
jene
##sdatum
##notwend
auslosenden
leistenkanal
verbindlich
##omatik
universitaten
##wohnungen
##warmen
technische
diabetiker
genugen
kunstlerin
gebarmutterhals
iban
bezeichnete
entspannt
##auftakt
krankheitserregern
bindegewebe
bindegewe
wohnsitzes
doppeln
bewerbungs
beeintrachtigen
##mediziner
ermittler
uberlastet
antikorpertests
branche
trockener
betriebsrats
bestimmtes
afdkandid
##geschwindigkeit
##kulare
mitteilen
maximale
johannes
langsamer
konservativ
freiwilligen
dokumenten
beauftragter
##terminal
vorbeugend
##erkennung
mitgliedstaaten
anerkannte
##produktion
lungenemphysem
verabschie
speise
teilnehmerinnen
professorin
lichtbild
smartwatch
tript
##boden
eindeutige
anzustecken
origin
freizeitangebote
gesprachs
verhaltenstherapie
unterrichts
umgehungs
syr
wandern
christoph
privatem
##strichen
befreit
elternteils
erheben
stammbuch
abzubauen
gewahrt
kombinationsp
260
hunderte
verengen
gebauden
zerstorung
verspuren
##politikerin
epidem
##gartenschau
unabhangige
stoffwechselerkrankungen
einzugsdatum
gerinnungs
mikroorganis
oberburgermeisterin
kfzzulassungsstelle
spannende
kircher
reha
anbieter
ausgebrannt
speichert
katja
erhebung
insolven
##bundel
einhergehen
beckens
bevollmachtigten
##ympath
aufenthaltserlaubnis
hauptwohnung
historische
##fred
##freund
abmeldung
tabu
bedingungen
denkbar
##prachelhmtkde
klinikums
absolv
benachteiligungen
benachteiligungsverbot
mullabfuhr
leitender
orientiert
orientierung
selbstbestimmt
ruhigstellung
##portal
schaubild
begleitverletzungen
abgeschlossene
endgultige
mutmasslich
##gastronomie
reichlich
reichspogromnacht
seelischen
sanierung
haftbefehl
spezifische
keinerlei
kameras
schrittweise
faszin
lebensbedrohlich
berucksichtigung
myopie
prim
prior
eingeleitet
juckende
journalist
0049
ohrenschmerzen
##eistungen
gedenkstatte
ausgefallen
stabilen
##pflegerin
plakette
harzklinikum
umfassende
telegramgruppe
tastet
vizem
ganztagsschule
hitzewall
wolfe
unregelmassige
dermatologie
gehorgang
transportieren
biometrietauglich
konigpreuss
studenten
betreiber
leichtesprachelhmtkde
ungunstigen
bewaltigung
erkundigen
ulcus
osterreich
suspend
professionelle
volkshoch
maschinenles
schweizosterzgebir
breite
patri
##arrer
schuttelfrost
jahrzehnte
zwiebelmarkt
personalausweise
identifizieren
ffp2maske
ffp2masken
auffrischungsimpfung
auffrischungsimpfungen
leuko
pyro
spanien
repariert
neugeborenen
##stechniken
plattform
akzeptieren
tatverdachtige
interview
verzogert
idealerweise
ermittlungsverfahren
tabakrauch
veroffentlichten
flachendeckend
naturkundemuseum
##vision
konkrete
abweich
spreng
befruchtete
harnblasenkarzinom
hygieneregeln
01578
beurteilt
ansteckungsgefahr
schmierinfektion
asylbewerberleistungsgesetz
gelebt
fortschritte
fitnes
libido
ausgangspunkt
aufgelistet
abersetzer
genesung
bremsen
verminderte
linksextreme
regularen
schmerzlindern
froh
wellbrock
zerkle
schleichend
kontrazept
spinne
spontan
ubernachtungen
schweregrad
multiple
ausgleichsabgabe
figuren
latein
viii
geschadigten
infrastruktur
landratsamt
macron
abgeschleppt
hubschrauber
sachverstandigen
petry
milliarden
vorbereitungskurs
skabies
spermien
multipler
staphylokokken
##ellazostervirus
cyber
pirna
einnisten
einstichstelle
ausnahmsweise
vorwarnstufe
untersagt
geleistet
impfwillige
champions
grundimmunisierung
kostenubernahme
jugendtheater
##apparat
burgerinitiative
biofilm
bibliotheken
weselsky
aschers
crohn
dillenburger
hildburghausen
tedesco
wattestabchen
zapfchen
##bundestag
##urleop
inkontinenz
##gedenkstatte
geerntet
konstitu
hierzulande
zusammenk
frontal
expressp
landeshundegesetz
grossrohrsdorf
fruhforderstelle
umgehungsstrasse
mikroorganismen
hitzewallungen
schweizosterzgebirge
0000
512
62
77
aw
aro
adern
aure
achtet
bier
burk
bienen
banken
bsg
ca
cd
deh
dorf
ech
est
ehr
escher
fet
fib
gn
goch
gies
grupp
gasten
hon
horm
hunden
hess
id
jager
ki
kran
kuh
kissen
leits
landen
lip
lehnen
liesse
mat
map
molek
nas
nassen
nett
os
pig
pein
punkten
pankre
rist
rollen
rief
rennen
suss
slo
skel
saf
sbahnlinien
sendung
tes
tassen
tenden
turen
upa
udo
ukra
vand
vent
won
wass
wed
wagen
welle
wim
worter
wucherungen
xii
yvon
zelle
##ep
##sei
##sdruse
##situ
##cast
##comp
##covid
##hium
##hirn
##hocker
##dl
##dat
##dis
##drang
##ij
##isen
##izen
##gleichen
##usche
##nit
##nar
##nde
##name
##tin
##ther
##tuch
##tsk
##leits
##oag
##ozial
##oiden
##ms
##mein
##mutter
##macher
##molkerei
##f1
##frau
##fab
##fant
##faktor
##faule
##res
##rachen
##ringen
##reinigung
##kor
##kle
##kam
##kab
##kunst
##kert
##kub
##kamp
##kalender
##bon
##boten
##bleiben
##baby
##page
##position
##via
##zes
##zte
##zelle
##zone
##zertifik
##wel
##wal
##warten
##31
##ybrandt
##john
##74
##xem
##xper
##89
##ennung
##erer
##ermassen
##inst
##insatz
##inwirkung
##eifen
##stucht
##stufen
##stillen
##ansatze
##anerkennung
##onitz
einb
einnahmen
einstellungen
einblick
einlad
##iche
##ichen
##ichia
##schungen
##elang
##urch
##urzen
unverander
##orid
##orient
##aszie
##uset
derzeitig
##esus
##esome
##esyndrom
##hrin
##atm
inland
intra
inkraft
inhaber
inkub
##alast
##alkohol
##alismus
##arie
beer
beauf
begeben
bearbeit
beschlusse
siebten
##igallen
##igabend
##emor
##emit
##emark
##emonie
##densleben
##terung
##terte
austau
angen
ankl
angenommen
anfert
angerufen
anweisung
aneur
zuziehen
##genau
##aust
##augt
##gehalten
##gegangen
##olen
geden
geschl
gedruck
veron
verlo
verdeut
vertrage
verarbeitet
verzeichnet
##leuten
ernen
erwiesen
erbringen
erzeugt
schach
schimm
schaut
schenk
schalen
schatzen
schiebt
schurf
##trieben
##dex
mitteilung
##iralen
##utage
##see
##ando
##agne
ausfl
auspr
aushand
ausreicht
auslost
auslastung
##ilat
##iliter
aufs
aufges
aufweisen
auflosung
konkur
##amed
##ionellen
stock
stimmt
##spul
##spricht
##spunkte
##sperre
##rohren
##ahnt
##ckte
##ckten
arche
##ehle
##ehmer
vortag
vorgesch
vorgestellt
vornamen
vorgeschrieben
vorwurf
vorwol
##sergan
soft
sozusagen
##weilen
##ruit
##ienst
##rangt
nachhalt
nachvoll
##omal
##bektomie
spinnen
spitze
abkl
absicht
abka
abbauen
ubernahme
ubergehen
uberzeugt
##ungsverordnung
##ungsrisiko
entg
entfallen
##auss
mehrerer
##ulung
##ullung
##ulare
revolution
##ischem
##alltag
ums
umbau
umgangs
##osk
##umzug
##oga
##ognit
betrag
betrachten
##zuschlag
##schaffung
gesorgt
##ives
decke
de04
##abdrucke
gehschiene
abersetzungen
gips
##istan
##aufbau
jahrhunder
infusion
bekl
warze
bestatt
besteck
vielfach
blutf
blutpf
blutarmut
##ckend
coronah
weitergegeben
medaillen
gegenteil
##offene
##aste
##astet
##astro
geboten
##iertes
##riffen
##ppe
##kranke
##traglich
##schiede
##schiessen
polster
bundlander
heiz
##block
##blume
##sstimm
##sstorung
kinderarzt
kinderchirurgie
hinsichtlich
##flos
bundesweiten
brenn
brachte
##mete
erforscht
halber
haldensleben
gerote
gerichte
##utzte
##utzutage
##izierungs
##demenz
diesel
landwirtschaft
##standigkeit
##stellerin
##bstanz
korperfunktionen
korperregionen
schwankt
gemalt
dampfen
zwang
zwonitz
mond
bezogen
bezieht
lebensweise
meister
reichs
gewurz
gewinnt
gewahlten
zeich
##illator
##strut
##strate
schwerpunkte
impfkompl
##teilten
enden
fla
##entnahme
coronainf
coronainzidenz
coronaimpfstoff
140
14ft
verbleiben
helade
drk
dritt
gefeiert
platten
polizeidirektion
erstat
hautschicht
##gefuhrte
minim
haufigen
sek
bauarbeiten
mader
angreifen
schnitte
angestellt
angeschlossen
wirksamen
ausseres
##scheide
verlangen
verlangt
hausstaub
##ics
##massigung
##vorstand
seither
seitlichen
seitdem
notige
geldstrafe
krankenversicher
##temangel
bedeckt
vollnarkose
##treter
zusammenspiel
zusammenhangen
grundgesetz
##antation
folgendes
lev
wohngruppen
wohnheime
##prophylaxe
arbeite
frischen
sozialplan
eigenschaft
eigenstandig
##odel
darms
darmbakterien
versagen
##fuhrend
##hafen
##zentrale
pfarrer
achtel
##atives
oberarztin
juckt
standorten
offensichtlich
magendar
formal
arbeitsuchen
##uberw
ausgesch
ausgeschieden
schnelles
burg
rechtlichen
bars
barrik
barbad
prem
press
verstimm
##lassung
befol
befind
befunde
langfristige
verdunnen
##arbeitergeld
telefonbuch
##burga
einzigen
einzelt
einzeln
ebene
kostenfreie
gestaltet
eingek
eingestau
eingezahlt
landeshauptstadt
veranlassen
gleichgesch
gleichzeitiger
hochdruck
hochwasser
kunststoff
kunstforum
##schaftsanerkennung
gemeinden
testzentrum
empfehlungen
##ursachen
##ursache
harte
erwogen
15000
##musik
##museum
abgeklart
jugendpfleger
besseren
meinungs
meiningen
kontaktnach
fordermittel
willkommen
willybrandt
veranderten
paral
mundfaule
wasserdampf
gelenks
gelenkschmerzen
fazit
hautrei
verfarb
dance
hormonen
hormonellen
##werks
zusatzliches
massiv
wechselwirkung
##setherapie
##wertige
knochenbruche
knochenschwund
gallensaure
gallengange
gallenkol
innerlich
atemweg
##schub
##durchblutung
##verbund
##verbindung
lucken
##ervice
nahen
nahverkehr
vereinbarung
atyp
auftretenden
dauerhafte
heiler
heiligabend
vergif
geburtsjahr
##arfaszie
innenausschuss
##pflichtigen
astra
organisiert
##egisters
sachkunde
verschicken
verschleiss
fussganger
111
beta
bettw
forum
##schnitten
14rzung
vierten
##hinweise
##act
##sichtige
ausweisinhaber
perfor
harnrohren
##ullten
allgemeines
fruherer
eheregisters
studierte
##rechtlich
blutdruckmess
thrombozyten
##horig
##iskrimin
indes
indikation
##infektions
belastbarkeit
brustschmerzen
bisheriger
##blutspende
##ustet
##riere
tagesgestaltung
fruhstuck
fleck
erziehen
erziehung
asthmaanfalle
beins
sendet
##krampf
spatere
schutzmassnahmen
salus
salat
##handler
heutzutage
##moglichen
leistung
gultige
sauna
einmalig
##lebens
##pruf
##ument
meldete
##nachweise
kulturellen
schlaganfalls
schlagadern
freitagabend
mittwochs
angststorungen
niedrige
spdfraktion
millimeter
milliliter
nachtigallen
##ippt
flussig
ruckfluss
lauwarm
##irurgen
bestehender
radikal
zentren
##arteten
kommission
parkplatz
profis
dunne
##these
zugig
bewill
enthaltene
symptomatik
##betrei
garant
##shof
##packung
##venenthrombose
klimaziele
bewegungsein
merkmale
##ationszeit
drogende
erbliche
erbrochen
vermehrung
alltaglichen
sichtbare
muttermal
fingerabdrucke
##praxis
schwerbehinderte
1999
##verbands
analog
##splantation
schadlich
schadlichen
verhutungsmethode
transpar
##binde
elefant
sonstigen
winters
##volt
##volumen
2gregelung
offl
berufsgruppen
studienlage
diskos
andernfalls
gesprachen
zulassungsbehorde
tablettenform
zugestimmt
zugeordnet
steigern
gewaltt
kontoinhaberin
kontoauszug
wahrscheinlicher
##fristigen
kompletten
ziem
krankheitsgefuhl
##wohnern
rechtsher
blutgerinnseln
nationale
nationaler
##zusehen
##zusammen
wohngeldrech
##veranstaltung
generationen
antikoag
niedergelassen
niedersachsen
vaterschaftsanerkennung
fussballspiel
verkehrsministerium
verkehrsbetriebe
fremde
digitales
negative
rontgenaufnahme
rontgenaufnahmen
horst
hotline
passend
finanziell
paare
artenschutz
schlafrig
netzwerken
zukunfts
ermittlung
alternativen
##bedingte
grenzuber
gesundheitsamtes
betriebsnotwend
##tauchen
angelaufen
schwimmbad
pilzen
gelegenheit
fragebogen
elternbeitragen
gorlitzer
kunftigen
giftstoffe
zwickauer
##index
einzudammen
gespult
organisieren
organisierte
##jektion
nutzerinnen
triage
sprunggelenksbruch
kundgebung
##mandeln
vorbereiten
ungeschutz
ergreifen
themenjahr
facharztin
nahrungsergan
##posten
vertraglich
status
brosch
monatszyklus
arbeitslosenversicherung
teufelskreis
50000
bevolkerungs
konzentrieren
abzuwarten
hofft
lokale
speichelfluss
staatsangehorige
##bader
infektio
infektios
vorubergehenden
hinzukommen
carl
carsten
epile
verpflichtend
betreuungsgericht
milchsaure
elektronisch
3gregelung
kortisonpraparate
admin
wolfs
##transport
brandanschlag
extreme
spezialisten
smartphones
ministeriums
ordnungsamt
deiner
konsequent
blinddarm
bergzo
schwarzer
schwarzrot
benachteiligung
ungeimpft
kirchner
##friedrich
##zieht
schritte
ausgebil
entgegenwirken
gewohnen
senior
weitsichtige
uberlebens
##ophie
erfrorene
buchstabe
identitats
kathol
walburga
##kalkung
aufzuge
uberwacht
empfindliche
asylberecht
gasaustausch
kais
kenntnis
einhergeht
beckenvenen
verfassungswidr
freundin
mundnasenschutzes
scharfes
kritisierte
erkenntnissen
notrufnummern
##frequenz
##yerjohn
einwohnerwesen
bedurft
abgebrochen
gebrauchs
gerechnet
##wirtschafts
chirurgische
vermieterinnen
##schnelltests
absolut
koronarer
kabel
##medikamente
investieren
versuchte
abwagen
saureblocker
integrations
rout
##steilnehmer
verkleinert
entzundungsreaktion
motivierter
zeugnissen
pulsschlag
fabienne
penis
penicillin
sudlink
wandel
##strecke
anfalligkeit
illegal
influenzavirus
insekt
verurteilte
handtuch
herzrasen
verhandeln
verhandlungen
ausgepragte
##sprasidentin
auffrischimpfung
eindring
lebensbedrohlichen
fruherkennungs
##onenpumpen
##programme
freiem
vertreterinnen
lastschriftmandat
portal
wasch
subjekt
korrektur
rheumatoide
harmlosen
larven
riechen
ereignis
familiare
geschwollene
winzigen
boosterimpfungen
##gesundheitsorganisation
traditionell
ludwigsdorf
ludwigmax
ausdrucklich
spazieren
abschwellen
umtausch
14bersetzt
antiviralen
beschaftigungspflicht
flexibl
mechanismus
transportiert
ubrigens
gluc
kuhlschrank
lahmung
setzte
betreiben
##abgeordneten
dampflo
kartenfuhrerschein
alkoholkonsums
kalziuman
bedurfnissen
packung
voigt
##kraftemangel
einheitlichen
##schutteln
##schutzimpf
unkomplizierten
eroffnen
eroffnung
reporter
republik
herzkreislaufkrankheiten
verschlechtern
kompetenzzentrum
lysetherapie
modellprojekt
wettbewer
beschleunigt
angeklagt
passives
opioiden
dominant
turkei
##sbestimmung
erlitten
ablehnen
entleeren
bundesratsprasident
plantarfaszie
angegebene
prufungen
anwenderinnen
brockenbahn
rockergruppe
##biopsie
anlasslich
anstrengung
recherchen
##maschine
begleiterkrankungen
therapeutische
rentnerinnen
##invasive
anwendungs
entsorgen
protonenpumpen
thyre
schwerwiegenden
##schwellungen
sportvereinen
harnblasenkrebs
50679
ungleichheit
##ungsprozess
parlamentarische
azubiticket
lithium
mastdarm
schweden
auswartigen
auswartige
implantat
versandmitarbeiter
vizeprasident
slackline
emotionale
0005
buchenwald
hetzel
vaginal
zinsen
##izide
begegnen
schatzungen
entschadigung
umliegende
prozesse
hausarzteverband
hohlraume
karls
appellierte
perspektive
analysieren
diskussion
begrenzte
mikropillen
kassenarztlichen
ekzem
kompressionsstrumpfe
gefalschten
zigarettenrauch
pedelecs
curcumin
ehenamen
plauen
psawert
stentimplant
##keime
durchbrechen
beruhrung
defibr
##opathie
beschranken
festgelegte
##verbindungen
bewahrungsst
partnerschaftsbuch
hefte
kzgedenkstatte
otto
oranien
##wmf
verpackungen
schmeckt
gehbehindert
gerichtsverhandlung
zeitgenoss
vermeintlich
empfangnisschutz
trabant
afghanistan
theoret
radioaktive
publikums
bypassoperation
##feind
##chatron
austrocknen
anpassung
entschuldigt
##verhutung
##verschleiss
14hrerschein
antragstellende
fahrzeughalterin
geschwachtes
nervositat
milcherzeugnis
geschaftsfuhrerin
waldbrande
connewitz
muskelfaserriss
obstruktive
basteln
buhne
gunther
toleranz
##padagoge
vorzusprechen
abwechselnd
refraktionsbestimmung
stephan
beschuldigten
erkennbar
heutigen
transaktion
hirnanhangsdruse
gliedmassen
granul
jazz
lng
muhlhausen
missbrauchen
rumanien
##wettbewerb
unkontrolliert
##gewerkschaft
schrauben
ausschreitungen
wernigerode
vorstandsmitglied
##osynth
bespricht
selfserviceterminal
bundesgesundheitsministerium
behandelbar
kolonkarzinom
massgeblich
##agnostik
onlineausweisfunktion
staatsangehaprigkeit
anspruche
traurig
mutterschaftsgeld
suspendiert
pyrotechnik
aschersleben
5125
awesome
escherichia
ristow
slow
tesvolt
vandalismus
ventil
wonach
wedringen
yvonne
##situationen
##computer
##disziplin
##f1tsk
##rachenraum
##kampagne
derzeitigem
inkrafttreten
inkubationszeit
bearbeitungs
aneurys
abklingen
heladef1tsk
hausstaubmilben
barrikaden
barbados
gleichgeschlecht
kontaktnachverfolgung
willybrandtplatz
gallenkolik
nachtigallenweg
drogendealer
antikoagul
betriebsnotwendiges
##yerjohnson
ludwigmaximilian
stentimplantation
49
41
420
5000
750
89
83
81
82
830
9000
bohn
bause
bmas
butt
ce
cont
city
calc
dehn
dichter
dwd
dehnen
fung
fran
falt
fakt
fangen
ga
grau
gase
gard
gond
green
hut
hein
hind
hum
hegt
human
idt
kau
kate
kamil
kerst
kauen
kandid
kognit
lut
lis
lot
laten
lutzen
liess
live
lehnt
mg
misch
malt
mutze
nir
nein
nap
nies
norden
nummern
narbe
nuchtern
oz
opp
odem
pandem
rig
rem
rang
rop
rander
ress
runter
sv
sig
singen
sss
sham
sympath
t3
ty
ten
tin
tom
toll
tanzen
tasten
teller
upp
via
wil
weht
wacken
wasche
wgs
winkel
zehnt
zerrung
##sig
##sver
##samt
##sinn
##sitis
##sign
##cy
##camp
##clubs
##hund
##hne
##heumat
##asch
##aura
##dog
##dacht
##divert
##iam
##ipr
##iater
##ipfel
##gc
##gusse
##gument
##uen
##uet
##ny
##nack
##nagel
##tum
##tlichen
##tnahme
##tonie
##lach
##langen
##lappen
##ower
##over
##mis
##mungs
##feu
##fass
##ftet
##fehl
##faktoren
##farben
##farbe
##firmen
##rist
##renz
##ku
##klen
##kot
##kamm
##ban
##ble
##bieten
##blichkeit
##phen
##pef
##preis
##punkten
##pokal
##zig
##zwe
##zaun
##zimmern
##ziehung
##wachst
##waffe
##wanal
##yper
##yball
##yesyndrom
##26
##xor
##engung
##eros
##chirurgen
##inage
##eim
##stal
##stunde
##steuern
##stelefon
##unit
##anome
##anstalt
##anuel
##onsaure
einges
einhalten
eingelegt
einholen
einschrankung
##ichol
##schweiss
##elegen
##elhalsfraktur
unit
unzu
unauf
unent
ungar
unmoglich
unverdau
unstrut
##ordet
##orfer
##orschung
##asehemmer
derartige
##attern
##atigkeit
##atine
instag
invas
##ito
##itar
##itoren
##itekt
##alg
##altete
##tees
bege
beut
befall
becker
beugen
bearbeitung
##emassnahmen
##denau
##achweis
##achim
anhor
anbau
anlagen
angern
angerechnet
antwortet
zuw
zuteilung
zugangs
##ausch
##gester
##gekommen
##geschlagen
##ola
gepolster
geausser
gestrichen
verges
vermittelt
vererbt
##benblatter
##senken
##sendung
##senkung
##ichtung
erpro
errech
erreg
erarbeiten
erholt
erleiden
erspart
ercp
erlernen
beides
schaus
schuh
schick
schult
schere
schichten
schramm
schreitet
schenken
##bern
##beruf
##berufe
##trasse
##treichen
##mmern
mitleiden
##irbt
##irche
##irheumat
##utsam
eineinhalb
##andland
##eintracht
alfred
##agern
ausru
ausschluss
ausscheiden
auszur
ausstellungs
ausweispflicht
ausprobieren
##ilfen
##iers
##ierigkeiten
##ierungsstelle
aufre
aufkommen
auflegen
aufgestellt
aufforderung
aufheben
auffuhrungen
kons
konz
konferenz
konzern
fursorge
##amid
##amian
startete
##spn
##span
##spreis
##sparkasse
nichtster
##ettet
##etische
##ktag
##ahne
##cknet
are
argument
werken
##ehalt
##reut
vorzeitig
vorfalle
vorschlage
vorzum
vorgesetzten
vorgeworfen
##ikorper
##serkrankungen
zumeist
##ntes
##reib
##reife
##reize
##reicher
##reichte
##ommel
##ientzund
##rangen
nachster
##ersagen
##ersdorf
##oma
##omot
##hallen
##haltet
##bekommen
##bevolker
##bestehen
##bestrahlung
##beschrankung
##bezogene
##befreiung
##beeintracht
untergrund
unterleib
unterwasche
unterschiede
sparen
spulen
abt
abst
abnahme
abklarung
abzunehmen
ubereinkommen
ubermittelt
##ohle
##ungsrecht
##ungsmassnahmen
##ungsverbot
##ungsvermerk
##pfiz
##pflegung
##pfalz
##leidet
##leiterin
##gelung
##ollar
enttau
##ationspn
##elloch
##ulp
##ulst
##ulsen
##ersonen
##feste
amter
##ortes
reaktiv
rebek
reflexe
revision
reyesyndrom
##eilchen
##ormular
##wertet
##werda
##allergie
umzu
umkn
umstritten
##umb
##umon
durcheinander
durchgesetzt
durchsetzen
durchzufuhren
blieben
beruhrt
weitest
weicher
management
betrage
##zugang
##zulegen
##zufinden
##schlappen
##schafft
##ivitat
##rauf
arztliches
##angriff
##angiografie
##abyp
##ablauf
##abbau
prom
protein
progester
##mere
##merkrankungen
biss
##istischer
##istrat
##tzla
heran
herzustellen
hernie
##ernacht
gelben
gelesen
gelitten
gelatine
bekraft
##automaten
##opp
warnen
##atzungen
darreich
deutlicher
keines
##wechs
krankhafte
blutzellen
blutwerte
blutverlu
blutuntersuchungen
blutstrom
besorgen
lebenser
coronane
weiterlesen
##hebung
##asth
##asters
neutr
neukir
gebucht
steinen
ihk
##ussel
##ript
##klima
wurst
wurzen
heidenau
strahlung
strumpf
wiederein
wiederher
##ptokokken
##ingang
##flimmern
##flikt
bundesminister
bundeslig
bundesamtes
bundesebene
brennt
urologie
urwald
##meter
##meyer
grandland
##igere
zusendung
geruchs
##izit
##ikament
##prinzip
##prasent
weger
##ammelt
##maa
##stelligen
##bstoffe
kommende
##linse
korperfluss
korperkern
begriffe
begleits
##zeitung
schwein
schwacht
gemieden
##endusche
springt
spritzt
regelbetrieb
fahreig
grossform
lebensw
lebensbereichen
##idi
meier
zweiter
gewir
gewinn
zeichnungen
dorthin
teilhaben
immerhin
##ymass
##haltend
##bsucht
##landpfalz
##illesse
##lod
##efelde
zeitver
zeitgleich
frauke
impfschaden
impftermin
impfangebote
impfkampagne
##barer
##leichtesprache
flammen
coronabedingt
coronainfektionen
##heilen
##wieder
##ahndet
stadtgebiet
143
142
14lt
verbrechen
verbande
helfern
drehen
druse
gefol
gutartigen
handic
plad
weltre
##elnde
knall
klagt
klav
##gefr
##gefach
minute
minij
mintzla
elbe
schonfeld
herzerkrankungen
herzstillstand
baustellen
maurer
##buros
angster
angiologie
##letter
trig
trikot
angehoren
benennen
##scheidungen
verlag
verluster
##icus
vermindern
##ulturer
besonderer
notdienst
nebenschild
##ovis
antichol
antirheumat
antientzund
schulamt
schulgesetz
schulbesuch
schulabschluss
krankenstand
##okort
##okrupp
##jahrig
vollm
vollstandiger
##udios
kriegen
kriegt
##attacke
##zeugnisse
zusammensetzung
neuesten
grundliche
mannes
mannschaft
teure
etwaige
##prozent
##proco
##protein
fris
frist
##reissen
antragsform
antragsvor
##obie
sozialleistungen
##odie
##schwierigkeiten
##fuhrt
schmerzenden
pflichten
schuppen
wahrnehmung
autor
zusatzlicher
zwischendurch
zwischenzeitlich
standorte
hilfer
##pflanz
mittelpunkt
mittelschwer
##status
arbeitsrecht
arbeitsleben
arbeitszeiten
arbeitsforderung
arbeitswelt
herausziehen
ausgeat
ausgeubt
bursitis
festlegen
akkom
lungenerkrankungen
verstosse
##sprinzip
sonde
##ogenes
exter
express
##gemann
##gemass
##wendungen
befragen
befeuchtet
kurzarbeit
kurzatm
kurzarbeitergeld
##hyper
einzus
einziehen
gestanden
gestimmt
gestorte
gesteigert
eingewei
eingewachsen
eingeklem
fahrzeughalter
prufer
##afrika
##ungsstad
##konflikt
treppen
verantworten
verankert
bauchhohle
bauchdecke
gemeinnutz
fachpersonal
empfunden
zahlte
verwandt
1530
schleimbeut
##musiker
##zugs
sonderzeichen
abgesch
abgeholt
jugendamt
##bleme
zunahme
meinungen
regulation
reguliert
kontaktdaten
forderungs
mundlos
gelenkerkrankung
gelenkverschleiss
pflegeheime
hautre
##elsberg
gefahrlicher
##otheke
massieren
sicheren
sicherung
sicherstellung
zuruckhaltend
gesundheitsdaten
gesundheitswesen
anfangen
kleinsten
##sprechend
normalem
normalitat
schmerzhafte
zahnhalte
atemtechnik
familienangehor
familienkarte
sofortige
##besuche
immunisierung
##phasen
beruflich
berufsein
luder
luxem
langerfristig
nahverkehrs
zulassungsstellen
attest
bildungsp
bildschirm
vergiftungen
geburtsdatum
produkten
##grundlage
##ologin
benotigten
burgertelefon
innengastronomie
##pflichtversicherung
##acker
organs
2gregeln
##unfalle
##egten
verschm
verschickt
##gewichtig
##losenden
asthmas
180
185
mdrrep
##leistungs
nunmehr
##schneiden
##schnupfen
emails
##quelle
##trauen
##hinein
ausweises
ausweiskop
ausweisinhaberin
dienstagmorgen
freut
hinterlasst
harnstoff
harnstau
harndrang
stattf
##bescheinigungen
allgemeiner
grosseinsatz
##drome
blutdrucks
thrombus
politikern
##iska
beeinfluss
phot
phanomen
antibabyp
16jahrige
richtungen
fortgesetzt
muskelschwache
muskelverletzung
staatsschutz
staatssekretar
einsatze
untersuchungsergebnis
fruhwein
fruhzeitige
donnerstagabend
donnerstagmorgen
##stadter
traum
funktionstucht
weltgesundheitsorganisation
##ardt
##ardin
beinhaltet
drucker
druckgefuhl
interdisziplin
60jahrigen
gewebeprobe
fuhrerscheins
##burgerinnen
221
partie
partnern
salmon
##buchungen
spezielles
gultigkeits
geschwurs
geschwuren
schilddrusenerkrankung
##format
hauptschul
einmalhandschuhe
kompens
beratungstelefon
gastritis
##nachrichten
psychisch
lebererkrankungen
leberschaden
bandverletzungen
##sitzung
schlaganfalle
ulrich
ulkus
erlauterungen
sprechzeiten
##ografischen
verdachts
angststorung
nachtliche
armband
luftnot
##ichteten
steuert
sinnvolle
##staats
##wandel
lauten
##ski
##skarte
radfahren
zentraler
geeigneter
prufungstermin
ublich
ubliche
nierenkrankheiten
zugverkehr
##zeptoren
bewahrt
migraneapps
migraneaura
anwendet
altenburg
aussenseite
betreten
postz
##zahler
##meier
ungluck
##betroffene
meck
meurer
sepalast
beweglich
biathlon
munster
##fahige
aktiviert
umweltministerium
stimmlippen
blutgerinn
drogerien
vermehrten
lehrerinnen
strassenmusiker
##verfahrens
fingergelenke
stromtrasse
schwerbehindert
schwerbehinderter
1997
##splatz
engstelle
engmasch
verzwei
wissenschaftlern
transfusion
ostthuringen
erregern
##haltsabrech
nervenfasern
handeschutteln
berufsleben
studienplatze
disko
wirkenden
trinkmenge
vergrosserten
reine
reinhard
##igungsnummer
schliessungen
absage
absicherung
##2018
elektrol
vermieters
kundenzentrums
steuerberater
babelsberg
steigert
steigerung
leistenregion
kontoinhaber
sonntagabend
tempor
verbindungs
komplizierten
krankheitsgeschichte
evaku
eiswein
##beschreibung
technolog
erschwer
erschopft
generation
versammelt
niederland
gefasswand
verkehrsmitteln
verkehrsunfall
sinusitis
notfallverhutung
ansprechbar
schlusselloch
rollstuhlgerecht
marke
negativer
rontgenuntersuchung
alzheimerdemenz
hotsp
nahrstoffen
paaren
bewerten
tatsach
tatsache
todlich
lebenspartnerschaftsurkunden
antikorpern
fundgegen
fundsachen
angelegenheit
sprungbein
versicherten
zunehmende
saug
##inerg
vorhersagen
frakturen
##code
sonnenschutz
neurodermitispatienten
fernverkehr
##alerie
teilhabeberatung
##ansammlungen
##ansammlung
bekommst
chronischem
pulpa
zoos
##angeboten
##rohrchen
feuerwehrleute
organisator
juristische
juristisch
beobachtung
geschafft
verhutungspille
anzupassen
anzuwenden
anzubieten
tagespflegepersonen
rudeln
##kommun
##iedelt
geklebt
##arztekammer
##empfehlungen
ergotherapie
umgesturz
feuchten
lagert
##oidale
schmid
schmuck
schocks
statistischen
statistik
brennende
geschlechtskrankheiten
brock
anhaltender
##veranderung
warmem
handgelenks
befragt
wirtschaftlich
wirtschaftlichen
vorhandenen
nordhausen
verordnen
konzentrations
energ
lokfuhrer
diagnostische
diagnostiziert
##barkeits
infektiose
steigender
steigendem
herpesvirus
knappe
##problematisch
regierungschef
leistungssportler
niedrigere
##analyse
##analoga
street
streptokokken
arterielle
eigentliche
spezialist
spezialisierten
entfernte
halterbestatigung
zwolffingerdarmgeschw
zwolffingerdarmgeschwur
brauset
variz
spannen
bergmann
amtszeit
1986
1980
1985
interessant
interessante
hypot
hypophy
##beauftragten
##beauftragter
ubertragbaren
##informationsdienst
joachim
lockern
##betrages
identitat
katheter
walking
##kalden
##kalisch
##spray
zweitschrift
kenntnisse
hypertonie
beatmen
stoppt
bernd
bernsen
warnte
sicherheitshalber
untersuchungsverfahren
andrea
potenz
##kreb
geredet
chirurgischen
##belastungen
292
messgerat
##symptomen
##pilze
zuschicken
##augumm
steinmeier
##fluge
##flugel
flugzeug
antigenschnelltest
wohnortes
endoskopische
weltkulturer
bewohnerparkgebiet
wehrt
##medaille
##medikament
investiert
versuchten
sturze
uberschreiten
erzielen
seniorenberater
funften
ffpmasken
roter
##portpark
staube
##vermehrung
endgultigen
verklebt
verkleinern
wirtschaftsminister
tanzgruppe
##partei
unterbinden
sperma
reichweite
rheinlandpfalz
##sprogramm
florian
verhandlung
silvesternacht
publikationen
vernichtet
stationar
stationare
rezeptoren
verlangsamt
antisemitische
einkommensgrenze
krafteinwirkung
##flecken
einkauf
konsumieren
##sphare
vordrucke
##zeneca
offiziellen
direktorin
verbrennungs
pneumologie
kieferorth
kochinstituts
lesungen
leseg
logopadie
ausbildungsforderung
abgelaufen
blaulich
tragerverein
beratungsburo
charakteristische
grapef
krisen
waschlappen
einschatzung
definiert
##enthrombosen
gemeinschaftsschulen
generalsekretar
rheumatische
kochsalz
riecht
weintrauben
ereignisse
scharfen
schlechten
weissenfels
explod
verkaufs
verkaufsst
fotografin
feuchtigkeit
toilettenhocker
pferd
abschlepp
kinderwunschapps
kapazitat
##ibilisierung
mechanismen
diskutieren
regionalbahn
franziska
rohmilch
setzten
anony
geplanten
schaffung
##dehnung
amerika
berechtigt
chatgruppen
barentraubenblatter
isoliert
insektengift
josefine
gynakologen
599
adenoviren
bodymass
rassistisch
gewebes
##otherapeuten
verschleppt
nasenspray
taubheits
himmelsberg
pfeiffersche
pfeiffersches
aidshilfe
lyxor
susan
gelblich
vielerorts
grenzwert
pflegefach
pflegende
umweltein
professionell
##spezialisten
potenzielle
kerzen
mietvertrag
porsche
turkischer
##svorsitzende
##wsletter
nachfolgenden
objektiven
befreien
letzteres
korrigieren
schilddrusenhormonen
achillesse
hoffnung
krusten
mauerfall
##basis
##schmad
anhaltspunkte
reparatur
##verhandlungen
blutentnahme
geholt
neugeborene
gerausche
stadionverbot
intervall
friedens
friedenspreis
begleiterscheinungen
denkmalschutz
vitamindspiegel
flachendeckende
bunten
homepage
ruth
rufnummer
rennro
talg
##kampfe
eingerichtet
eingereicht
beweismittel
anwendungen
protokoll
##option
asthmatiker
50676
umwandlung
pauschale
entspannungstechniken
zivilgesellschaft
mahnte
##katalog
##karies
##armaka
auaerhalb
auaerdem
aufbewahren
aufbewahrt
mangelnde
##krankenhaus
strategien
dramatisch
attacken
trainieren
trainiert
religion
religions
spiegelung
einburgerungsantrag
spaziergange
dynamo
hindernisse
hetze
locher
zili
##gmverfahren
abfuhrmittel
wartezeiten
fluorid
freiheitsstrafe
gleichberechtigt
auslandsvertretung
analysiert
kortikosteroid
gerinnungshemmende
mikropille
ordnungswidrigkeiten
kompressionsstrumpf
gefalschte
unterstutzungsbedarf
rhinitis
uniklinik
schreck
schmalkalden
bundeskanzler
bundeskanzlerin
personenstandsgesetz
schliessmuskels
kribbeln
benachbarten
glukose
glukokort
pseudokrupp
daumens
sternchen
##kunzes
bemuh
anregen
zugesandt
##amyloid
stutzstrumpfe
##rezeptor
vorgebeugt
##bestimmungen
geboostert
polizeibeamte
tropenhalle
ausgedehnte
kardiologie
alkoholabhangigkeit
psychosozial
armbrust
ungeklarter
coronainfektionszahlen
franzosischen
hospitalisierungsinzidenz
prostaglandine
datei
hurden
kartoff
leinefelde
taschentuch
##erjahre
auskunfte
durchmischt
weisser
##abszess
##fahrtsverband
urlaubs
##demonstration
enorme
kristall
verkrampfung
marchenfilm
fev1wert
kleiderlause
varikose
erwerbsminderung
biontechpfiz
exazerbationen
kino
machbar
mulltonnen
retard
taunussparkasse
zittert
innovation
verschiebung
verwirrt
ausstulp
ausleihen
ausdauersport
sechsten
schnittwunden
risikopatienten
niemanden
explos
verschlechterung
augapfel
hyperthyreose
kernspint
unzureichend
aspirationspn
dvg
kegeln
laparoskopie
naschmad
phenproco
##vielfalt
##streik
##anbieter
##dermaus
beamtinnen
bequem
auflosungsvermerk
konjunktur
vorangegangen
##assistenten
##ophilus
bundesgerichtshof
bauerfriedrich
ausserunterrichtlichen
autodieb
disease
##bringung
existiert
##aufenthalt
hebamme
saurehalt
biologika
videokonferenzen
bindegewebs
doppelnamen
kombinationspillen
maschinenlesbaren
patrick
abweichungen
schmerzlindernde
zerkleinert
expresspass
dehnung
honig
idiv
nasendusche
netto
pigment
wimpern
##installation
unverandert
austauschen
anklage
schimmel
schenkelhalsfraktur
auspragung
aushandigung
konkurrenz
blutpfropf
coronahilfen
brennpunkt
halberstadt
achtelfinale
arbeitsuchende
pressemit
befolgen
paralymp
astrazeneca
betaamyloid
bettwasche
##infektionsmittel
lauwarmem
offline
wohngeldrechner
milchsaurebakterien
bergzoo
glucose
kalziumantagonisten
wettbewerbs
protonenpumpenhemmer
thyreostatika
defibrillator
zeitgenossische
##osynthese
ludwigmaximiliansuniversitat
bohnhardt
bausewein
gardelegen
gondwanal
hindurch
kerstin
ssss
shampo
tennis
##wachstum
ungarn
instagram
geaussert
schauspiel
mitleidenschaft
alfredkunzes
##amianfar
vorzumerken
##bevolkerung
rebekka
progesteron
darreichungs
neukirch
urwaldpf
korperflussigkeiten
weltrekord
klavikul
mintzlaff
verlusterklarung
anticholinerg
akkomod
kurzatmigkeit
schleimbeutels
zahnhalteapparat
bildungspaket
antibabypille
gultigkeitsdauer
hauptschulabschluss
sepalastschriftmandat
hypophyse
weltkulturerbe
kieferorthopad
grapefruit
biontechpfizer
phenprocoumon
gondwanaland
alfredkunzesportpark
030
421
57
510
8000
93
98
affe
aeros
bind
bph
born
butter
borg
banik
cor
cum
camp
cav
cyc
commun
dz
d1
ding
drauf
ez
eat
effizien
fass
faktor
fibr
fakten
gg
gir
hc
hp
hig
hill
hob
hommel
ig
iss
jer
jochen
kehr
keu
kass
kaut
kuss
koff
klo
kranz
kehrt
kreistag
ll
lk
lach
laus
lichten
ldl
lumb
mater
miss
muhlen
mpu
nab
nasse
nod
null
nikot
neigung
oe
opf
pu
ple
pet
passe
puber
pull
preise
pkw
pumpen
pistole
quell
rose
risk
risse
sten
sage
sho
susse
skler
tv
tas
tap
taten
takt
tok
tote
tucher
trage
tomaten
ug
ucht
ubt
uhy
vierte
wc
wut
wall
wischen
wuten
worte
zunden
zschei
zogen
##ektion
##sv
##sin
##saf
##sgew
##sverlust
##sohle
##sibilisierung
##cc
##cin
##com
##hig
##hut
##hot
##hist
##hib
##hindert
##hormone
##aen
##afen
##ackt
##dan
##don
##dach
##dra
##iologe
##iment
##iagnose
##ude
##neu
##nischen
##natur
##nmacht
##nitten
##niveau
##nupft
##tscheidung
##66
##oter
##oger
##obs
##ospekt
##ooth
##mot
##mad
##messen
##miss
##fc
##fei
##facht
##fuss
##fess
##farm
##fangen
##fleger
##fugen
##felde
##rar
##rol
##runde
##rissen
##rho
##risiken
##kan
##kind
##kauf
##kult
##ktem
##kular
##ketten
##kraut
##kamer
##kultur
##kovis
##blichen
##ballen
##bud
##back
##banken
##pomm
##pot
##poll
##pum
##putzen
##pdate
##ve
##vi
##var
##zut
##zelt
##wv
##wet
##woch
##wellen
##wahlen
##wende
##wusst
##wucherungen
##wahrschein
##wickel
##wardt
##yle
##ylin
##yburg
##yopie
##700
##xt
##44
##475
##84
##enummer
##enalin
##enico
##erhalten
##erstrasse
##errt
##chin
##chirurg
##iedr
##iefl
##inent
##inrichtungen
##infekte
##eis
##eiz
##steht
##stiegen
##stocke
##anen
##andet
##anja
##anwendungen
##onist
##onna
eins
eintr
einigung
eintreten
einstellung
einsetzt
einbringen
einriss
einwirken
eingesetzten
einwohnern
##ichkreis
##schock
##scharf
##schichten
##schema
##schalten
##schirurgie
##schette
##schreibung
##elden
##uropa
unkl
unvers
unvertrag
unempfindlich
unproblematisch
##ork
##ussp
##uskel
##hran
##atem
##atom
##dere
intr
inne
inhalten
inwie
ineinander
intendant
##iton
##itim
##alisiert
##arfe
##arnung
beu
beschlag
bewirken
beurkundet
sieb
##ignen
##igste
##eman
##emien
##embolie
##achno
##achrichtigung
auktion
austr
annahme
anfalls
angeln
anstelle
anoder
anleitungen
anzum
ankommt
zuvers
zuordnung
zugestellt
##auers
##gehe
##gezogen
##ols
##olbe
gepra
gekund
geeinigt
gestritten
geubt
geerbt
verwei
verlei
vertritt
versetzt
verlegt
vermerkt
vermittlung
verpflegung
##lekt
##benachrichtigung
ertr
erzeugnis
ermut
ermassigung
schal
schuf
schema
schiesst
##bergen
##bereiten
##berichten
##tromp
##trennt
##deg
##defekte
##lichte
mitgenommen
##irr
##utsch
##utische
##seelsorge
##andtag
##einhalb
##einnahme
albert
##ago
##aglich
##agabe
aussa
aussicht
aussterben
ausstattung
ausfluge
##lenburg
##ision
aufger
aufgeb
auflagen
aufschluss
aufnimmt
aufbauen
aufarbeitung
auflisten
aufhebung
furcht
furchten
##schende
##ames
##ampft
star
stahl
stutzen
starkt
stief
stirbt
##spa
##spur
##spenden
##spitzen
##sperrung
nichtalkohol
nichtmedikament
##ktoren
sichert
##ieler
##roder
##roda
##ahen
##ahmt
##ahyper
##ckeln
arab
armin
wirft
werten
werben
werbungs
##ehand
##reflexe
vorzug
vorstellen
vorstellungen
vorrang
vorbehalten
vorspricht
##ikerin
##ikular
##ikations
##sersatz
zumal
design
demselben
demografischen
soc
##weitern
menup
##euen
##zenden
nachkontrolle
nachlesen
nachhinein
##ersuche
untereinander
unternehmer
unterstrich
untergebracht
unterdruckt
wieso
spar
spinn
spende
spender
abwasser
abstande
abschriften
ablaufen
abgrenzen
ablagerungen
absenden
abtransport
ubers
ubermittel
ubernach
uberzogen
ubermassige
ubernahm
uberstunden
uberbelastung
ubermittlung
ubertrieben
##ungssystem
##ungsverfahren
##ungsschreiben
##ungsdruckerei
##leibt
##leischt
##raktur
##ots
##geleistungen
entstand
entnahme
entschied
enttauscht
##ausend
##ausfallen
##ausloser
##ausbildungs
##elligen
##offt
##geruch
##mente
##ulus
##ulieren
##uller
rekt
rezepte
durfe
##eilung
##igende
##werfer
##apol
umsetz
umstellen
umgew
umstande
umgebaut
umzusetzen
umschliesst
##vergabe
##vernetz
##verwalter
##verordnungen
##verengung
##vertrauen
##edi
##osin
##oses
durchsuchung
blanken
bluet
berge
weiche
weitreichen
manip
##zuwirken
##schlaf
##schlauch
##herstell
##hernie
gesonder
gesichter
gesammelt
##zeitraum
##ivir
##ivitis
##rauchs
##angers
deges
degc
##abschnitte
##achtel
prote
progress
provo
behoben
##istal
##istern
##kenkr
hern
herstellt
hergestellte
##immert
##aufsicht
##aufruf
gelder
geleitet
gelbsucht
gelahmt
jahrest
infrar
leih
##oppt
##opankre
dargestellt
darmerkrankungen
bestehe
deutlichen
##drungen
##dringen
##dreht
##drittel
blutfett
besagt
besetzt
besorgt
bespiel
##artiges
##artikular
weiterfuhr
weiterbildungen
medi
gegenwart
##undeten
##geburt
##arkte
##astrei
##astische
stehe
steint
stegemann
##fahrplan
genuss
geniessen
genehm
genehmigung
##klungen
##klinken
heidel
##etzwerk
##blau
##bladen
##orenes
selekt
strap
##ptur
##innenminister
hiervon
##roslhmtkde
hinge
##fler
##flow
##flachlich
##flasche
bundesvereinigung
bundesdruckerei
bundesdurchschnitt
bundesschuler
urspr
urban
##mechatron
erfassung
grie
grundung
beschreiben
beschreibung
bescheinigt
##ize
##izierenden
##izierter
##pressen
landarzt
landwirtschafts
koka
##standard
##stellationen
woher
wohin
korperstelle
korperhaltung
##naht
##zeitigen
##altungen
##altarif
orale
schwanken
gemal
seifert
spring
##laubt
fahrplan
fahrstuhl
fahrverbot
fahrgaste
fuhrung
grossel
mogliches
##hausern
##idmet
zweitens
reizt
gewann
gewachsen
gewaschen
gewidmet
zeige
zeigten
teilten
teilzunehmen
##scheine
##itzsch
obduktion
##furt
personenkreis
##effekt
dazuge
impfstelle
impfgeg
##teilungen
##bares
deutschlandweit
entr
flimmer
##entin
coronaein
coronazahlen
##plitz
##plasie
##wiegen
14n
14fen
verbanden
verbrauch
dreht
##esselt
geforscht
selbsttests
handrucken
handys
handschuhe
geschle
geschul
geschichts
polizeiinspektion
knut
starksten
starkste
##sud
##substanz
klart
klappen
ersticken
erstimpfungen
koloskopie
##duoden
schonung
herzkammer
##leichung
mayerjohnson
angren
##aterinnen
##lethy
##lettert
trat
tram
schnitten
schnuller
aussergewohn
##armuskel
benutzung
benigne
##fektionen
verliehen
hauses
hausmeister
##icans
vermute
##vorsitzenden
##vorpomm
nottrau
brauchte
nebenwohnung
nebennieren
##ovas
##ovierte
antif
anthran
schultern
schulstart
chin
chole
bedeute
mancher
vollstandigen
kretzsch
##auert
##gruss
beleu
belegen
beliebt
belohnung
beluft
belehrungen
zusammengef
zusammengestellt
ohnmacht
grundlegen
grundlagen
grundgesetzes
##antien
##antikorper
2011
kolnpoll
tepp
leon
legte
wohnhauser
wohnheimen
fallig
##prozess
frings
verhart
verhaf
##amilie
sozialamt
aktiver
##areal
eigenstandige
##scheck
thuringenforst
##zeutische
darmkrankheiten
darmdivert
##kept
##wohnen
schupp
schubladen
trocknet
elternbenachrichtigung
alterss
diat
diop
differ
dialog
oberhalb
oberkorper
oberflachlich
krankenhauses
krankenhausgesellschaft
standigen
magenschmerzen
magenspiegelung
magengeschwur
##aturen
##pflanzen
formlos
arbeitsbelastung
arbeitsgemeinschaft
herauszufinden
##versuch
##versuche
ausgew
ausgegangen
ausgestre
ausgestellte
solar
soldaten
buros
burokrat
festgehalten
festzulegen
akte
bilanz
behandlungsplan
lungenabschnitt
pras
pretzsch
##belehrung
##sprachen
##springe
##sprachlich
stehenden
befunden
##registers
kurzlich
raue
raucht
kostenlosen
kapaloe
gestoppt
eingew
eingezogen
eingeengt
##afarben
landesverordnung
landeseltern
gesetzlicher
##ungsstucke
treppe
nebel
bauchschnitt
bauchspiegelung
bauchfell
gleichbehand
kunstlich
kunstgruppe
kunstmuseum
suizi
fachober
fachsprache
fachkraft
fachleuten
fachkraftemangel
bakteriell
teststreifen
verwit
erwartete
erwarmen
1521
sonders
##ibakterien
abgetotet
abgedeckt
abgeklungen
melanome
##impft
1200
##rieden
medizinisches
ernster
ernahrt
erniedr
meinte
kontaktstelle
kontaktthermometer
forderschulen
willst
sportliche
sportverletzungen
sportanlagen
sportunfall
terminkontr
mundschleimhaut
mundhohle
gelenkspiegelung
gelenkkapsel
pflegegeld
pflegedienst
pflegebedarf
pflegegrad
datenlage
##ziell
fackel
fackeln
haust
verform
##lucken
massive
massiven
wechselte
##machtigung
##oteten
sicherzustellen
zuruckzu
zuruckziehen
zuruckgreifen
gesundheitsminister
gesundheitssystem
kleinste
kleinzell
normaler
normalgewicht
schmerzhaften
beratungsstellen
##erkrankten
gallengangs
zahnschmerzen
zahnmark
zahnzwischen
atemgerausche
genauigkeit
##azie
##azier
##uga
##ugal
##arznei
##radiol
##zentrums
entwickelte
immunmod
##sfalle
##sfusionen
auslandischer
##verbrechen
##gemeinde
langerer
langeres
malignen
vereinbart
vereinzelt
problematisch
atmo
dauertherapie
heiligen
praparaten
venenthrombosen
geburtsbescheinigung
einzelheiten
adress
wahldurch
kopfhaut
innenwand
##hrombose
##hangt
2gpflicht
2gmodell
##egroslhmtkde
sehvermogen
##trainer
##gewachsen
betreuungsstelle
113
117
##hospital
1830
forst
forscht
chemo
bleibende
##infarkt
emailadresse
##ioden
verkru
grossem
grosshandel
##192
augenklinik
augenhohle
augenheilkunde
allenfalls
viereinhalb
##hinter
##gebers
stundenweise
erkaltete
dienstags
freyburg
perioden
hintere
hinterher
entzundlich
entzundungshemmer
harnwegen
demonstrations
50475
studierenden
blutdruckapps
thrombolyse
vorherr
vorheriger
onlineportal
##gelenks
richtlinie
beschaftigungs
endete
muskelverletzungen
muskelmasse
muskelbundel
##smedizin
##smaterial
sterile
staatsburger
pech
tagesakt
fruhstadium
donnerstags
fledermaus
trauort
##deutschen
##deutsche
geltende
wegraumen
venenversagen
venenspezialist
druckschmerz
senat
##fragt
##orgruppe
grosseres
prostatahyper
schutzk
2210
salze
##folgenden
altes
bindet
##osensibilisierung
hauptbahn
hauptstadt
hauptstrasse
hauptgeschaftsfuhrer
virusvermehrung
##haute
##schlagader
metast
krebsinformationsdienst
meldeten
1300
wortlich
##zeichnen
##zeichnis
liegende
arthroskopie
psychisches
psychotherapeut
spielzeug
leberkrankheiten
aktualisierung
gehirnzellen
nasenpolypen
nasenrachenraum
ulipr
migranten
mittwochvormittag
##haftpflichtversicherung
2100
ruckseite
ruckschlusse
##ohnlich
sinnes
zielt
zielger
positionen
jemals
laute
radikale
##lungsgesetz
folgeschaden
hoherer
kommando
##osterische
##schadigung
##schadigungen
wertsch
dunkeln
zugfuhrer
neurologische
neurologischen
neuralgie
glatt
glatte
glatten
beworben
beworfen
arthrosebeschwerden
migraneattacken
ahneln
ahnlicher
anwesen
staatlich
mari
marx
marien
##monaten
getrock
leidenschaft
geistigen
bewegungsstorungen
##ungspfleger
aktivieren
arbeitgeberverbande
droge
erblich
vermehrter
plotzlichen
stromleitungen
177
videober
1996
1991
unterstutzende
schadstoff
wissenschaftlicher
rettungskrafte
##merkmale
ruckenfreund
verantwortlichen
scheiterte
thrombosestrumpfe
thromboseprophylaxe
##koalition
##ktrum
##beuge
kurator
schutzenden
vergrossern
##korpern
hydro
zyt
zystitis
gesprungen
abszess
halsnasen
##2019
##2020
##hrens
abwehrschwache
rotlich
##schulungen
steuerung
jens
zugeteilt
leistenhernie
##marsch
chronischentzund
ultraschalluntersuchungen
inhaliert
inhalative
gewordenen
krankheitsverlauf
rechtsanwalt
rechtsanspruch
rascher
##warme
verlorene
verlorenen
technologie
frankwalter
erschutter
niederl
niedergeschlagen
##kraftwagen
augsburg
##sexper
box
notfallset
kaltepack
fehlstellungen
pandemiebeginn
schlussstrich
digitaler
emport
emphysem
fertigung
markert
klarer
klares
result
resisten
##gerechten
messenger
videosprech
##medizinverordnung
zukunftig
antikorpertest
geschaftsfuhrende
alteste
##reisende
##bedingter
strengen
kommunizieren
fundort
fundburo
protestieren
versicherungen
zunehmender
kreuzschmerz
jav
vorhaben
hundehalter
windstarke
zyklusapp
samstagabend
289
zeuge
##peace
sonnenbrand
schleimbeutelentzundungen
fernsehen
keimen
kehldeck
bildungsabschluss
optische
tauprotein
giftigen
verstopften
leitungen
leitlinie
silvia
##days
##kombin
einzufuhren
einzuleiten
feuerwehren
labore
rechner
selbsthilfekontakt
lungenembolien
eisenbahn
jurist
einfarbig
angesprochen
angesiedelt
speisen
sauerstoffmangel
aciclovir
nutze
eindeutigen
angemeldeten
rudiger
##operationen
geklettert
stabiler
stabilisierung
stabilisieren
genauere
genaueres
freizeitprogramm
freue
0800
ungehindert
##empfehlung
ergab
offentlichkeits
gestorbenen
facharztweiter
fortgeschrittener
erweiterung
synth
wandert
##glas
vertragt
vertragspart
schocklage
statistische
statistisch
archite
architekt
sommerda
sommerwerkstatt
jahreseinkommen
##fertig
diversen
antibiotikums
privatperson
privatdo
brotein
befragung
zahneputzen
vorhandene
vorhandensein
##psie
##wartung
verordnungen
konzentriert
stammzellen
abzuschatzen
gewahren
gewahrsam
90die
kuhlende
##sitzender
##strost
##strakt
##straining
verengten
##aktivitaten
geforderte
diagnostizieren
verhutungsrings
irre
mietw
verspurt
herpesblaschen
gefuhlsstorungen
ruhestand
niedrigeren
ballond
kilo
streckung
strecke
betreuungsvertrag
##drohungen
kortisonpraparat
bandscheibenvorfalls
adam
advent
adolf
unklaren
##transplantation
##spflichtig
arteriellen
extremitaten
spezialisiert
spezialeinsatz
forscherinnen
klimaschutzgesetz
fettlebererkrankung
babyleiche
verhutungspflasters
ohrtromp
sitzungen
##beteil
ungefahrlich
gezielte
gezielten
bereitschafts
bereitstellung
##mitgliedern
bollern
kfzversicherung
paulehr
varic
konsequenter
vordere
spannung
schwarzem
altersgruppen
interessieren
interessiert
interessierten
rathausspan
hyposensibilisierung
kaffeef
multim
anbie
entgegenzuwirken
zulassungbescheinigung
zulassungstelle
glaser
hartkapseln
hartnack
muschel
mukovis
osteomal
weitsichtigen
western
##itorien
verschlimmert
##opharmaka
geringfug
bayes
etc
etliche
modernis
waldern
##imetern
install
behandlungsmoglichkeiten
empfindlichkeit
erwerb
##ography
kleinkind
akutes
hypericin
verdauungstrakt
herzkranzgefasses
thymianol
ehemann
mrcp
scharfstoffe
beruht
beruhm
beruhigungs
warnstufe
warnstreik
versorgungszentrum
versorgungsmedizinverordnung
sicherheitsleistung
sicherheitsbehorden
untersuchungsausschuss
399
jobc
potenzial
tarifvertrag
tarifvertrage
##kreuz
abmelde
prozessauftakt
neuerungen
chirurgischer
fruchtbarkeits
anforderungsschreiben
bosartige
bosartigen
bosartiger
sorgte
tabelle
volleyball
##ratete
bedingten
##bestatigungsnummer
flughafen
antigentest
absoluter
irgendwie
investoren
mitgegeben
abwarten
abwagung
blockade
vielfaltige
gebrochene
gebrochenen
##gesundheit
bauchraums
zahnfleischt
bautzener
systems
domenico
rotet
zeremonie
##helm
##tatigkeit
intakt
programme
herrn
verwaltungsgebuhren
endgultiger
verkleiner
entzundungszeichen
weihnachtsgeschaft
wirtschaftsministerium
motivation
motivieren
unerwunschten
sachbearbeiterinnen
landeskriminalamtes
feiner
fabian
penig
skd
server
viru
##bisfelde
##partikel
##weltmeisterschaft
anfalliger
gerechtfertigt
rheinenergie
influenzae
##geordneten
auszugleichen
##sprozess
vorsorgeuntersuchung
blutzuckerwert
klimastrei
verhandelt
spezifitat
reserviert
kehlkopfes
davidstern
bitterstoffe
geflogen
verlangsam
antisemitisch
antisemitischen
verwandten
huftgelenk
bewegungsmangel
irgendwo
lernangebote
morddrohungen
posten
terrorgruppe
offizielle
namensanderung
heftig
begleitende
unbekannt
unbekannten
braune
braunkohle
mrnaimpfstoffe
aufmerksamkeit
brechreiz
screen
turklinken
work
##stuckchen
schluckstorungen
juckenden
medizinischpsych
burgermeisterin
computertomographie
flussigkeitszufuhr
flussigkeitsansammlung
eigentumerin
portugal
einseitig
ausgefullt
ausgefullten
##icines
subvention
unterstutzer
pilzerkrankungen
erzieherin
coli
filz
kraus
krause
tastbar
##oxy
##zinsuffizienz
instrument
albicans
unterscheidung
##lokation
familiaren
exposition
ferienspiele
ferienwohnungen
dokumentieren
dokumentiert
konzentrationsstorungen
lokalisation
traditionelle
capito
kalendermethode
coronaleug
14bersetzen
herzmuskelschwache
tragweite
bronchialer
erzgebirgs
saaleorl
universitatsklinikum
regionalverkehr
bussgeldbescheid
ischam
longcovid
setze
tagebuch
zentimetern
eingangsbestatigung
erscheinungs
konigstein
##eumonien
berechtigung
genderzeichen
gerissene
dampfe
dampflok
gewichtsabnahme
formuliert
ungunstig
ungunstige
autoimmunerkrankung
krampfaderleiden
##verwaltungsamt
rassismus
rassistischen
unkompliziert
unkomplizierte
eroffnete
vorgegangen
##zidose
herzkreislauferkrankungen
schleimhautzellen
verschlepp
norovireninfektion
saugling
sauglings
fraktionschef
samenblaschen
tshwert
verschlossenen
aufgefuhrten
##spanne
haarausfall
probenentnahme
gelbkorper
unsicherheit
supermarkte
zahlungsbetrages
antibiotikagabe
versicherungsbestatigungsnummer
distanzieren
mieterverein
disco
dislokation
mulde
messerangriff
trummer
##nieder
##juv
getoteten
werktage
nachfolger
##bekampfung
ableh
ablecken
entleert
entlastung
regelmassiger
baumbesetz
sehbehinderte
identifiziert
insolvenzverwalter
achsen
kruger
mauerstrasse
##basierte
aufsichts
recherche
heisses
gerausch
monitoringstelle
plattformen
belegschaft
autonom
autonome
verstarkung
verstarkten
stellvertreter
nationalsozialisten
nationalsozialismus
veroffentlichte
fabriken
rennauto
simon
##padagogin
##wolfen
mitbestimmung
konkreten
abweichen
bescheinigen
thyreoiditis
schwerwiegende
##schwellung
arbeitsvermittlung
prasentieren
eingeatmete
atemwegsinfekte
saalfeld
momentan
azubis
fristen
fridays
uvlicht
uvstrahlung
varianten
geklaut
ausgangsbeschrankung
fursor
uberraschend
findest
strateg
##gespult
webseite
oralverkehr
notarvertrag
rechtskraftig
eingesturzt
eingestuft
erworbene
gesundheitsministeriums
verscharfung
verscharfungen
grunderkrankung
bitterfeldwolfen
vizeprasidenten
spaziergang
emotional
tschechien
fixieren
hindernis
tonne
zillich
##lagern
konflikte
entschadigungs
umliegenden
beschriebenen
schwaches
fuhrungszeugnis
angeschaut
angeschossen
eingeschrankte
eingeschrankten
hochststand
perspektiven
fortschritt
diskussionen
friedhof
verdauungsbeschwerden
verdauungssaft
kortikosteroide
angespannt
feiertagen
gerinnungshemmenden
kassenarztliche
fitness
refluxkrankheit
bulldog
##europa
uniklinikum
beschaffenheit
##bezirk
##bezirken
entzugserscheinungen
engelhardt
elastiz
vollzeitpflege
mitteldeutsche
aktenzeichen
onlinesuche
onlineservice
weihnachtsfeiert
weihnachtsfrieden
musikfestspiele
begrundete
variieren
vegetarische
kribbel
unregelmassigkeiten
benachbarte
amerikanischen
ungewollt
hitlergruss
borkenkr
badezimmer
dornwarzen
hirsch
hirschel
heumarkt
heuschnupfen
nageln
nicola
palli
##creme
##wissenschaft
##technisch
gegner
##amydien
vorgeburt
##bewegungen
geboosterte
##sstaaten
bruttoeinkommen
verdickungen
19240
rundfunkbeitrag
wahlplakate
##qualifizierungs
ungewohnlich
gerinnungshemmern
coronainfektionsgeschehen
bitcoincomputer
karnevalsumzug
romantik
prostaglandinen
06192
budget
eulandern
farbstoff
kunze
rosafarben
vektorimpfstoff
##ziehungspfleger
##archiv
vertraut
verodung
stolper
##spersonal
sozialtarif
##kenntnis
kinderschutzzentrum
heliosklinikum
dringenden
erstehilfeapps
belegung
philipp
heydt
hefepilz
coronaproteste
strengeren
servicenummer
feuerwerkskorpern
vogtland
fatig
lampen
nitro
russland
roboter
thrombektomie
beschadigte
##bereitschaft
storbe
dringlichkeit
vermeidung
beluftet
##hainichkreis
ausgewahlten
erwartungen
muskelzerrung
virusvariantengebieten
physikalische
vegane
funkemed
physiotherapeuten
schreibweise
nuckelflaschen
konfrontation
blutkonserve
afrika
alexander
dutzende
future
fahndung
halles
irenegroslhmtkde
klettern
population
szintigrafie
##gorie
bedienen
gekennzeichnet
schafft
##trienrezeptor
konstant
vorschulzeit
retrospekt
##abflusses
damalige
chlamydien
extensionsfraktur
abgestorben
pharmazeutische
ruckgangig
ratsuchenden
fettstoffwechselstorungen
afdkandidat
verabschiedet
primare
vizemeister
volkshochschule
fitnessst
kontrazeptiva
aureus
burkhard
horminderung
mapglich
molekule
skelett
wassr
##stillende
inhaberinnen
beerdigung
gedruckten
ausflug
##ilatation
aufgesucht
##amedikamente
software
umgangssprachlich
bestattungsfirma
dieselben
##strategien
impfkomplikationen
erstattet
magendarmin
eingekesselt
atypischen
heilerziehungspfleger
vergiftet
perforation
##krampfe
wintersemester
gewalttaten
nahrungserganz
broschuren
infektioser
schwarzrotgel
asylberechtigter
bedurftige
karlsruhe
oranienburg
theoretisch
##feindliche
barbadosaloe
antikoagulantien
fungiert
greenpeace
heinrich
lisa
latente
rigor
tyr
unstruthainichkreis
beutel
##auschale
erregers
nichtsteroidale
##beeintrachtigungen
weitestgehend
promovierte
lebenserwartung
coronanews
begleitsymptome
gewirkt
gefolgt
handicap
minijob
antirheumatika
frisor
antragsformular
mittelschweren
einzusetzen
atemtechniken
mdrreporter
ausweiskopie
photography
salmonellen
postzosterische
mecklenburg
temporare
technologien
##kommunikation
brausetabletten
varizellazostervirus
bergmannstrost
verkaufsstande
bodymassindex
umwelteinflusse
achillessehne
buntenbach
ziliarmuskel
bemuhungen
aspirationspneumonie
naschmadame
pressemitteilung
paralympics
offlinevernetz
anticholinergika
4217
borgwardt
cumar
fassade
high
llc
oebisfelde
pleur
pubertat
tokio
uchtspringe
uhyst
wutend
zscheiplitz
##hibitoren
##feiern
##wahrscheinlichkeit
unklare
unversohnlich
intrins
anoderm
anzumelden
zuversicht
gekundigt
ertrunken
schufa
aussackung
aufgeblah
werbungskosten
vorzugsweise
menupunkten
ubernachsten
umgewandelt
blankenburg
bluetooth
provoz
jahrestag
##opankreatik
weiterfuhrenden
steintor
heidelberg
bundesschulerkonferenz
ursprungs
kokain
grosseltern
impfgegner
##lethysm
##vorpommern
kretzschmar
differenz
suizidr
##arzneimittel
prostatahyperplasie
hauptbahnhof
ulipristal
kehldeckel
selbsthilfekontaktstelle
facharztweiterbildung
vertragsparteien
architekten
ballondilatation
ohrtrompete
paulehrlich
rathausspanischer
mukoviszidose
osteomalazie
fruchtbarkeitsfenster
coronaleugner
baumbesetzer
borkenkratze
hirschelmann
funkemedien
retrospektive
mecklenburgvorpommern
offlinevernetzung
3000
515
5jahres
6000
76
736
91
94
ah
atr
aort
aachen
affen
achte
acker
achter
boh
bose
borde
biene
buga
cm
c1
cre
cos
clo
cent
cgr
din
duss
dros
delt
drift
dichten
dgb
dreie
ddi
dhab
ew
eid
eisk
eth
ebers
fs
ficht
foll
foren
faden
funft
feilen
fetten
faust
fehle
fgmverfahren
gal
gle
gaben
gange
gunter
gonnen
gitter
greiz
hach
hang
hose
hurt
hielt
husken
ie
ige
ira
iver
idi
jon
jap
jetz
jac
jesus
kg
kv
kand
koll
keil
kast
kinn
kuhlt
kuhle
killer
kaugumm
lhr
listen
lipp
lichte
lichter
liers
lwv
mc
mem
munden
mundung
messe
machten
mohr
mause
mosk
nu
nan
non
nem
nass
nissen
naum
narkose
ox
out
opa
pal
peu
plei
pum
pelle
pod
putzt
panik
rich
rach
rind
rum
rak
rasse
rost
rande
rank
runge
retten
ried
randern
rodel
sand
szen
senk
sack
smar
satze
t1
t2
tam
tasse
tic
treiben
tolle
tank
topf
treibt
tanzt
tub
tasche
tons
therme
tanja
ure
ubs
ubung
ubahn
update
vr
vul
viol
wag
wof
wange
wangen
wehlen
walter
worten
wusste
wussten
wieler
zoll
zerr
##ec
##ex
##eos
##sc
##selt
##szeit
##sauer
##sfest
##snetz
##sabgeordnete
##sabgeordneten
##cle
##clu
##hort
##hagen
##hurt
##hub
##hulle
##hanaloga
##ain
##ainer
##avariante
##dit
##dicht
##dungs
##dick
##dia
##day
##direktor
##ipl
##iziden
##iogramm
##ga
##gliche
##gifte
##grippe
##ualt
##ugr
##ubin
##uveran
##nick
##ness
##nadel
##neug
##tus
##takt
##taz
##tiere
##las
##lers
##log
##langer
##lapp
##lese
##lymph
##68
##ous
##out
##oste
##mu
##mers
##messe
##muster
##myopie
##fache
##fetten
##fonds
##feier
##frucht
##ris
##ration
##rine
##kg
##km
##kindern
##kette
##krose
##kante
##bus
##big
##bchen
##binder
##baut
##bander
##biss
##bay
##bisse
##brecher
##pte
##put
##ptet
##phe
##punktion
##pyl
##pdf
##vast
##vollen
##zil
##zungen
##zeln
##zonen
##wo
##weh
##waschen
##worb
##worte
##worter
##37
##32
##01
##yers
##ypt
##ystal
##55
##jet
##jamin
##71
##xte
##xist
##43
##439
##enien
##enters
##erologie
##erguss
##char
##chem
##chau
##ieger
##ieinhalb
##inleich
##inome
##instru
##initi
##inzell
##intendant
##eisen
##eigt
##eifung
##stor
##stund
##stagen
##sthe
##stalten
##stucken
##stmoglich
##stuhle
##stucke
##anf
##anol
##anord
##anierung
##anschluss
##antritt
##aneregeln
##onom
##onografie
##onitoring
##onnieren
dieter
einig
einbe
einreiben
einstellt
einsicht
einschrank
einstimm
einteilen
einrichten
einschlage
einflusse
##ichower
##unglo
##schang
##schke
##schka
##elungen
##elbst
##eleitung
##element
##urin
##urtz
unan
unbeh
unwohl
unnot
unnatur
unscharf
unfrucht
##asien
##asste
##aske
##usions
##uskin
##esischen
##esend
##essel
##esituation
##atige
##atherapie
##derik
inj
incl
inaktivitat
injektion
##ith
##ites
##itionen
##itivitat
##alier
##altemperatur
##alitats
##ary
##ares
##arnt
##arlin
##aria
beugung
beamter
befallt
bezeichnungen
bekenntnis
##tenzuschlag
##igramm
##emass
##emmt
##denker
##achy
##achmittag
##terem
##terrier
aue
anru
ansetzen
anzusehen
zugen
zuchter
zutreffen
zustimmen
##genroder
##auzen
##gewer
##getragen
##gepflicht
##geheim
gezw
gekn
gepack
geachtet
gestellte
gestattet
gehaltsabrech
geflugel
vera
vertret
verpasst
verschaffen
versterben
verstecken
vererb
veratzungen
##anner
##bende
##sent
##senk
##sentzundung
##sentzundungen
ert
erstens
erstellung
ermassig
erhof
ergriffen
erteilen
errichtet
eryt
erreichte
ermaa
beier
beizu
beistand
beigetragen
schiessen
schatzt
schiff
##bereitung
##berhohe
##trenn
##deutet
##debatte
##debrandt
##mmen
##lichplatz
##lichlhmtkde
mitzu
mitteilt
mitgebracht
mitreden
mitteilten
##irschen
##ireg
##irator
##irts
##irubin
##eitlinie
##sehr
##seingang
denselben
##anda
##andes
##androgen
##eintrag
##einheit
##einfluss
alp
alumin
aloin
alkalisch
##agiert
##agerin
##agrel
ausken
ausfall
ausbau
ausfluss
ausfuhrung
auszul
ausscheidung
ausheilt
ausgleichen
ausscheidungen
ausdehnung
##lenstein
##ils
##ilberhohe
##isser
##iszucker
##isierter
impul
aufw
aufgesetzt
aufgemacht
aufzunehmen
aufweist
aufstossen
aufwarmen
auftauchen
konstru
##schenkt
##amus
##amat
##amtern
stass
stall
stationen
stocken
##spalt
##sparen
##spolitik
nichtinfekt
nichtkle
##etar
##ethe
##etha
##etikum
##ethode
##roten
##route
##ahte
##ahms
##indigkeiten
##induz
argert
wirbelsau
##eholz
##ree
##reben
##revier
##reduktion
vorstellung
vorsprung
vorbeil
vorsprachen
vorsitzender
##ike
##iken
##ikas
##ikalen
hast
##serkrankung
dessauer
dement
musl
souveran
##weicht
##ruher
##ruhig
##zende
##reibungen
nachstes
##halm
##halamus
##bewalt
##bekund
##beamte
##beschlusse
##bebucher
untervers
unterteilt
unterzeichnet
unterliegt
menschenrecht
wiegt
wende
wendet
spul
spult
spitzen
sparkasse
abu
absprechen
ablegen
abfluss
abnimmt
ableitung
abschlusse
ableiten
abgas
abgibt
abschnitte
abgrenzung
abheilen
abonnieren
uberg
uberein
uberbl
uberzeu
uberwiesen
ubermitteln
uberdos
uberweisung
ubergreifen
uberbruck
ubergewichtig
ubergeordneten
##ungsbereich
##ungsantrag
##ungsdel
##ungsrente
##ungsgeschwindigkeit
##rael
##otomie
entschlossen
hatamianfar
##ausgabe
##ausgaben
mehrbetrag
##ells
##elles
##ofern
##gerissen
##mende
##menschen
##ula
##ulismus
amtern
ampel
amurleop
ameos
rechter
report
##inderungsrente
##eilnehmer
##ormte
##apest
umstand
umstellung
umschlage
umgibt
##verhaltnis
##verzeichnis
##edoring
##edback
##osid
##osonografie
##umfeld
durchs
durchgem
durchsuchen
durchgehend
durchsuchungen
durchgefuhrte
durchsichtige
durchtrennt
blauer
blatt
blinden
blicken
bloss
blanc
blattern
beruhen
weitem
manju
##zuhalten
##zukommen
##zuerhalten
##schlander
##schlussen
##schlafen
##herd
gesenkt
##ivum
##ivals
##angi
deckel
depot
##able
##abfall
##abkommen
##abgase
##abehand
##abbebucher
##agenkomplex
##adial
##achtnis
prob
probieren
beheben
geheilt
##merase
bisweilen
##istherapie
herge
herbs
herbert
hergenroder
##auflage
gelang
gelaufen
geliefert
gelagert
jahrel
##check
##checken
##chester
infotheke
bekamen
##ope
##open
##opaden
##opia
allzu
deutschlander
##weckend
##0033
##drik
blutabnahme
##uchter
besessen
besorg
besetzen
besuche
besuchs
lebenden
weitergehen
##heters
gegend
gegensteuern
##geblieben
neuartigen
neustadter
gebarden
gebrannt
gebeugt
stepp
##anders
##ussion
##hende
##fahrzeugen
gene
##klische
##zise
##haltungen
sachsenenergie
##tragung
wurmer
poloc
heis
heirats
heiterem
##maler
##etzung
##bluten
##blieben
alleiner
selbe
strang
strahne
##sstation
##sstelle
kinderausweis
##ptika
##atient
hieruber
hierfa
hinlegen
hingesch
hinnehm
bundeswahl
bundesinstitut
bundesanwaltschaft
bundesliga
bundesgartenschau
brillen
briefen
brussel
brahms
##meten
##metr
##mect
gremium
gremien
arba
gerin
gerald
gerard
german
##utzten
landmolkerei
schlupfen
##stellige
komment
korperkontakt
korpergrosse
korpernahe
##akreis
##akzept
##akflow
schwankungen
zwanz
springen
sprachst
woanders
fahrschein
fahrdienst
fahrgast
fahrrader
bezog
bezahlung
lebenslauf
lebensfuhrung
lebensbereiche
moglicher
##hauses
##idal
##idiskrimin
meilenstein
##selbst
reiten
reibt
gewol
geweben
gewarnt
dortigen
teilneh
teilstation
teilhab
##itzer
##itzel
obdach
##looxy
personengruppen
##effe
zeitfenster
zeitspanne
frauenk
schwereren
schwerkraft
impfnachweise
impfstatus
##bara
##barachno
enzyme
flossen
flussen
flasche
##entherapie
##entleerung
##entherme
bestimmungen
coronaviren
coronaimpfungen
coronaschutzimpf
##platten
##plasma
verschiedensten
verschiedenste
stadtwerke
stadthalle
141
14ck
1400
14hren
verbrei
verbleibt
helmut
drinnen
##essim
gefrier
selbstern
selbstgebau
selbststandigen
gutscheine
handschrift
handchirurgie
handelte
handwurzel
handchirurgen
gescheh
plasma
polizeirevier
weltraum
knien
knickt
starkeren
entziehen
klopfen
klub
erstwohnsitz
ersthelfer
hautvenen
##gefuhlen
##gefordert
##urteile
insofern
kollege
elle
ellen
elemen
schone
schonende
herzstro
herzhalfte
herzfrequenz
sept
sekunde
separaten
##bursten
angriffe
angriffen
angleichung
arbeitserlaubnis
trennung
tremor
schnauzen
patientenakte
angeben
angefahren
angehoben
angestre
angeordnet
angefertigt
angestiegen
wirklichkeit
ausserten
ausserungen
ausserliche
ausserschul
bender
benommen
benjamin
##inks
##inkten
##inkeln
##inkont
hausmitteln
hausaufgaben
hausbesuche
##ict
##icum
thuring
##massiger
##massnahme
allermei
##vorrichtung
##vorfuhrungen
lieben
notfalls
notlage
geldautomaten
nebeneinander
antie
anton
anteile
antidi
schulden
schularzt
schulerin
##ometern
##ometers
krankengymn
krankenpflegerin
chlo
bedecken
manchem
vollbetreuung
volljahrig
kritischen
##grunden
##gremium
##testung
belage
grundren
grundversorgung
##antine
kolns
mannliche
tees
teeloff
leder
leop
leere
leeren
wohneinrichtungen
wohngemeinschaften
wohnverbund
fallzahlen
##prote
##promiss
arbeiteten
frisches
antragsteller
antragstellerin
##uffer
##lernt
sozialarbeiter
sozialdienst
sozialpadagoge
ursachlich
##ymptomen
##ymptomatik
eigenmacht
eigenanteil
eigenblutspende
opern
operativer
freizeiten
##odisch
##zek
##schwelle
##schwitz
##schwimmen
darmkrankheit
darmnerven
darmpolypen
darmdurchbruch
darmkreb
##wirksamen
koma
kompromiss
versandt
##fuhrungs
##haare
##haaren
entstau
pfeil
schube
wahrheit
wahrzunehmen
wahrnehm
##same
autogenes
##melzen
##meldungen
zusatze
zusatzbe
zusatzstoff
zwischenblutungen
coronavirusinfektion
dial
oberste
oberschule
oberleitung
krankenhausaufenthalt
standiges
hilflos
hildebrandt
##bringt
##brenner
##brutto
##otenzial
##genannten
magengeschw
format
arbeitsstelle
arbeitsgruppe
arbeitsagentur
arbeitskampf
arbeitssuche
##uberkul
##uberlebens
##versuchen
##versorgungs
ausgezeichnet
ausgewachsen
ausgestellten
ausgetauscht
ausgedehnt
sogenannter
schnellstmoglich
festival
passbild
rechtssta
therapieform
therapieverfahren
therapieansatz
akin
akadem
barmer
barbel
barrika
barbara
lungenhochdruck
lungengewebes
pram
verstanden
stellenweise
stellenwert
##spritzen
##sprasidenten
sonografie
papierbild
papierarbeiten
##lassl
befrucht
langem
langsten
langwirksame
langfristigen
verdop
verdrangt
telefonseelsorge
##regulation
kurzel
kurzere
kurzester
kurzfristige
##hydro
einzig
rausch
rauchs
kostenpflichtig
kapelle
gestarkt
eingegangen
eingewiesen
##ostet
##kehren
landeswohl
landesweite
landesgartenschau
landesverwaltungsamt
191
gesetzbuch
##ungsstoffe
##konstellationen
ruhen
karriere
personalausweisgesetz
new
neure
newsletter
bauchkrampfe
gleichermassen
hochgesch
hochto
hochinzidenz
hochgefahren
staff
kunstlern
subarachno
fachliche
fachstelle
fachhoch
fachausschuss
##ertherapie
bundeslandes
testet
testverfahren
testpflich
##enzel
empfanger
harpag
que
verwalten
erwarmt
151
schleimhauten
schleimlosende
sonderformen
sonderkommission
sonderpadagog
##ibrose
abgek
abgestellt
abgetrenn
melken
leichtem
129
12000
1230
medizinapps
wissensstand
ernten
bessert
kontaktlosen
fordermoglichkeiten
sportlichen
sportstatten
sportorth
terminbestatigung
terminvergabe
ortsum
folgenlos
paritat
##ssinn
brumm
mundgeruch
##sauren
##saison
wasseransammlungen
wasserwerfer
gelenkflache
gelenkbeteiligung
gelenkveranderungen
gelenkflachen
pflegeeinrichtung
pflegekinder
datenstand
datenbank
fac
fasch
verfasst
verfarben
verfassung
danken
danischen
danemark
##issuren
hormons
hormonproduktion
##othea
##othek
massiver
massstab
##iffer
##idenz
entwurf
entwarnung
immobil
immunglo
##diensten
zuruckgehen
gesundheitsbereich
gesundheitszeugnis
gesundheitsapps
gesundheitssystems
gesundheitsberufen
typ2
schwangerschaften
schmerzfrei
schmerzbehandlung
montagmorgen
montagnachmittag
fuhrende
knochenteile
zahnbein
inneres
innerstaat
atembeschwerden
atemphys
atemstillstand
familienverband
familienmitgliedern
daheim
zahlenunabhang
##ugnisse
##arzinome
sofortigen
##radikale
bronchus
bronchoskopie
bronchiol
hilfebedarf
hustens
##sforschung
##phine
##verbanden
berufung
lugen
lupe
malign
malerei
vereinigungen
##regelungen
##appheit
heilkraut
praxist
ventr
venerologie
verglichen
vergabe
geburtsnamen
einzelhandels
adrenalin
wahlkreis
##ology
kopfes
kopfkissen
##arfung
burgerverein
innenohr
innenband
##pflichtige
##ackiert
2gbedingungen
##geschoss
102
##unfah
##unfallen
europas
coronaregel
##iotherapie
verscharfen
fussnagel
onlined
onlinef
118
##hosph
mdrfab
angeblich
angeblichen
chemotherapeut
endopro
endosonografie
##dienstes
verkal
verkurzen
verknupft
##agnachmittag
grosszug
grosskatzen
##199
augensymptome
ministerinnen
##ablette
##ositionen
erkaltet
dienstagnachmittag
##nungsregister
##nungsstatten
perman
hinterlegen
hintereinander
harnweg
harninkont
##istentinnen
stattgefunden
##ullmann
allgemeinmedizin
klinische
studiert
##rechtlichen
blutdruckwerte
blutdruckwerten
##horigkeit
vorherigen
onlineverfahren
kalbe
##eignis
phle
phwert
verletzter
verletzungs
brustbereich
brustraum
tatigkeits
intensitat
richtungs
##bereichs
direktes
duft
muskelzellen
muskelschicht
muskelinvas
personlichkeit
personlichkeits
grunes
##ips
halleschen
staatsbahn
reisepasses
novell
peking
pearlin
peakflow
einsatzkrafte
einsatzgebiet
##stadien
asthmaanfallen
trauorte
geltend
wegzu
wegbeschreibung
funktionsk
funktionsfahigkeit
weltoffen
beines
beinvene
stuhlgangs
venenentzundung
venensystem
venenschwache
schulerver
vollmachtgeberin
##frag
##orgten
##orgleichtesprache
weiterentwick
##polin
##polnischen
fuhrerscheinen
fuhrerscheinregister
fuhrerscheinklasse
schutzschicht
diagnos
intensivpatienten
2200
2280
compact
party
parteil
salon
##folg
vorausgesetzt
voraussetzen
magazin
schilddrusenfunktion
##formige
##punktur
hauptsymptome
nervose
bestatigten
##eigene
krebsvor
krebsarten
meldegesetz
meldepflichtigen
135
131
fieberblaschen
##zeichneten
psychologen
psychiater
bandes
bandruptur
entsprechendes
kultureinrichtungen
cdufraktion
bahnstrecke
verdachtsfalle
migranes
erfurtbinder
##mannschaft
derzeitigen
derzeitige
nachteilen
nachtschweiss
computerspielen
vergangene
vergangener
armurleop
formulars
ill
urkundenbestellung
chefarztin
ruckkehr
rucksack
ruckfetten
ausreichenden
##ohnungen
gebuhrenpflichtige
positiver
tierarztin
tierarzten
##skarten
hoherem
janssen
januskin
profil
genesenenn
nierenfunktion
nierenerkrankungen
nierenschaden
dunja
kennzeichnung
##iales
##thon
##thoff
##thesen
##stimmten
zugbeg
neurologie
bewahren
migraneanfalle
##neigung
verkehren
verkehrsteilnehmer
altenpflegerin
aussentrau
aussenbereiche
symptomlos
symptomatischen
expertinnen
postur
postweg
strafen
monatliche
staatsex
unglaub
##emaintaunus
##betrieben
garagenkomplex
meers
##fallenden
##gefahrdet
##vereinbar
##shilf
##monat
##monate
##monitoring
getrank
getranken
aufgehei
klimaanlage
kraftig
bekanntwerden
biod
##forscher
##fahigen
##fahiger
werdegang
dezern
herzinfarkte
aktivierung
20202021
stimmten
arbeitgeberin
dienststelle
dienstherr
weihnachtsmann
drohung
drohungen
erbgut
erbanlagen
353
bankfil
mildern
schlimmen
plotzlicher
offentlicher
mutterleib
stromt
stromschlag
stromfirma
stromausfalle
herzinfarktes
##praparaten
analkanal
analoger
erklarbar
##tritts
##abetika
jeweilige
schadel
wissenschaftliche
verhutungssicherheit
rettungsleit
bruchs
bruches
bruchige
bruchart
bruchform
transform
gesundheitsprufung
kennzeichens
##ometrie
sonstiger
verantwortungs
unterschiedlichem
politikerinnen
glaubt
scheitern
blasenschleimhaut
blasenentleerung
apothekerin
nervenschaden
nervenbahnen
nervensystems
handewaschen
##isteten
berufsfach
berufsfahrer
kurpark
wirkende
infektionsschutz
infektionslage
infektionsgefahr
olbern
widersp
widerstandig
widerstands
##igungsverfahren
geduld
gesprengt
landkreises
relative
absagen
halswirbelsaule
reizungen
reizbarkeit
allergischer
allergisches
erfolgte
erfolglos
erfolgreichen
abwehren
abwehrreaktion
elektrische
grippalen
roth
rotlicht
##schulklassen
##schulreife
##seinheiten
##seinrichtung
friederik
steuerbescheid
steuerzahler
copdpatienten
jenanord
##sdaten
beteiligte
hamophilus
##zette
zustandigkeit
sonntags
motive
tempo
verbindlichen
##fristet
ultraschallgerat
##bruchen
inhalator
inhalativen
kompliziert
komplizierte
barrierefreien
barrierefreier
zielen
zieschang
##ance
verlaufe
hervorgerufen
verbesserung
eisbeutel
##zusatz
##wartet
##willigen
schriftlicher
wohngeldantrag
firmenfahrzeuge
fersenschmerzen
erschossen
auslosern
##verantwort
niedergelegt
niedermolek
niederlassung
kunstlerische
65439
dosierte
dosierten
gefasses
gefasssystem
fussballspiele
##kundgebung
##syndrome
notfallmedikamente
fehlbelastungen
geheime
ordnet
trinkwasserinstallation
emiss
embolien
markte
markierte
inklusiv
inklusiven
klarung
horbeeintrachtigungen
zugelassenen
reduktion
individuelles
grippewelle
beipackzettels
nahrboden
##uttung
packen
bewerbungen
##legungen
artenvielfalt
schlafrigkeit
hilfetelefon
fehlender
netzwerke
##leitlinien
uberlastungs
verdauungsstorungen
laufender
laufende
sehnenplatte
sehnenscheide
trockenen
trockenes
kommunalen
kommunales
##taucht
##packt
zunehmendem
mobilitats
afdfraktionschef
kreuzes
pcrschnelltest
basieren
basiert
basaltemperatur
basistherapie
eckarten
holoc
saugen
saulen
##fuhrender
##102021
mittater
##kopfschmerzen
##pezif
ubergewichtigen
sonnencreme
gesetzeste
vergleichbare
fernwarm
fernmetastasen
konservend
##pferde
bildungsangebote
fragestellungen
hirnhautentzundung
optim
tauschungen
vertraulich
vorbeugende
abhangt
giftige
giftstoff
giftblase
arbeitsplatzen
verstopfte
jenaer
leitplan
miriam
einzuhalten
einzustellen
##verdick
begunstigenden
elternteile
assistentinnen
laboruntersuchungen
marktes
syndrom
##tendorf
erfahrt
bestellte
beginnenden
beginnende
organisatoren
bewusstlose
eisenpraparate
verabre
erganzung
reaktionsfahigkeit
veranlasst
sauerstoffversorgung
crystal
lichtschutz
nutzungs
nutzern
rkiintensiv
triathlon
##boom
ausfuhrlichen
theaterplatz
sprunggelenks
sprunggelenkes
##iedo
unbefristet
gekampft
gekostet
##diagnostik
##orbetha
##empfinden
ergonom
umgetauscht
verbrannt
parkinsonsyndrom
##mikroskop
##point
erleichterung
statistisches
sommerferien
jahreswechsel
eignung
total
totungsdel
anhaltend
monatsblutungen
wirtschaftliche
nsudokument
nsukomplex
nordsachsen
taterinnen
##ttausend
verordnete
stammvenen
verbands
mandelentzundungen
hunderassen
lokalen
lokomot
pinsel
pinbrief
pinzette
praktische
praktikum
staatsangehorigkeits
zerstorten
infektiologe
verspatungen
steigende
ruhezustand
leistungssport
burnoutkonstellationen
277
kilometern
pneumonien
unabhangigen
abgesehen
abgesperrt
abgesaugt
deutsches
deutschem
klassisch
klassiker
betreuungszeit
kreislaufprobleme
milchsaft
winterdienst
wintersport
elektronischer
stoffwechselstorungen
stoffwechselstorung
65760
fertigstellung
fertigarzneimittel
##seitige
arterie
brandst
gerinnungshem
schlaft
extremismus
ostrogene
mikrob
merkt
ohrthermometer
entfernten
bereitschaft
bereitstellen
bereitgestellt
handwerkersuche
falsches
falschungen
verlaufenden
johanniskrautol
fischerpruf
kfzmechatron
verstandigen
verstandigt
blindganger
bergheim
schwarza
1988
hypothy
kirche
kaffeemann
##stour
ubertragt
wohnungsfirma
empfohlene
empfohlenen
jobs
osteosynthese
verschlucken
scheidenwand
scheidenflora
speicher
speicherung
##ophleb
erfrorenen
geringem
geringsten
abgeordneter
ernstabbebucher
sachbearbeitung
touristen
touristische
fremdkorpergefuhl
schlusselbeins
aktionsplan
etabl
hoyers
katastro
kennenlernen
moderner
##kalk
##bachneug
instab
installation
aufzuwarmen
uberwachen
uberwinden
uberwarmt
zweites
zweitwunsch
zweitimpfungen
behandlungsbedurft
empfindlichen
atherischen
##spflichtige
ehrenamtlichen
ehrenamtskarte
drainage
goethe
israel
lkwfuhrerschein
wachsende
wwwt
##bundesamt
##angelegenheit
bezugs
kleinkorbetha
sozialversicherungspflichtig
freundinnen
sensitivitat
arzneimittels
hyperopie
aufenthaltes
verdauungsen
eisenacher
thymiantee
300000
botenstoffen
##schreitung
beatmungs
scharfstoff
beruhmt
warnzeichen
warnhinweise
gewonnene
gewonnenen
kritisieren
versorgungsgebiet
erkenntnis
untersuchungsaussch
historisches
tarifkonflikt
##freude
auseinandersetzungen
demokratischen
fruchtsaf
##belastet
eiern
zuschusse
denkmals
mangels
geringere
kopflaus
coronaschutzmassnahmen
telekom
orthese
endoskopisch
afterriss
biometrische
biometrisches
koronararterien
mullbinde
investor
beschlossenen
mitgezahlt
uberschreitet
975
9739
ffp3
zerb
intelligen
schauble
schweizer
schweigepflicht
##deckten
##deckungen
restlichen
herrscht
herbstferien
herbststurm
gelenkentzundungen
prasenzbelehrung
abgeschlossenen
paragrafen
parlaments
verklebungen
zeugnisse
unterhaltsvorschussleistung
365
368
kelm
lasertherapie
pension
unterbrochen
genetischen
landesamtes
umfangreichen
umfangreich
umfangreiche
friedrichs
schlafengehen
krebserre
opelwerk
vollendeten
haftung
haftstrafe
gesamtgewicht
blutzuckerwerte
hintergrundinformation
wissenschaftlerinnen
reservierung
kehlkopfschleimhaut
unmittelbare
vernunft
vernarbt
stillpause
rezeptfrei
rezeptfreie
verlangte
gemeinschaftseinrichtungen
salzlandkreis
salzlosungen
aufenthaltsbestimm
synagogen
hundertprozent
golnar
gangbild
http
josephine
lernschwierigkeiten
lockerungs
mordes
einkunfte
ausgesp
mediengruppe
sozialgesetzbucher
darmkrebsrisiko
solidarisches
solidaritats
hochzeitstermin
hochzeitspa
heftigen
abstandsgebot
todesbescheinigung
##organisationen
brechungs
logopad
logopaden
scm
worauf
wortern
woruber
zweieinhalb
gewerbe
gewerbetrei
stichverletzungen
stichwunden
unterkuhlt
blaue
blaulichen
lebensgefahrliche
fliessend
legionellen
hauptsache
englischen
eigentums
fahrerlaubnisverordnung
charakteristischen
charakteristisch
asiat
asbest
botschaften
gartenarbeit
kaufhaus
krimis
lastkraftwagen
portionen
suchmaske
suchbegriff
einschalten
scheinen
auftragsm
innenministeriums
donerladen
umfassenden
pilzinfektion
pilzinfektionen
reizdarmsyndroms
rheumatischen
weltkriegs
eilantrag
hensel
hendrik
hornschicht
krab
larcher
wadenmuskeln
##steif
entstandene
oberhofer
expon
geschwollenen
gastroduoden
dokumentationszentrum
toilettengang
toilettenpapier
magnetresonanztomographie
batterien
johnny
kriminelle
morgend
wolbung
dermatitis
##bewusst
abschleppen
entfaltet
schwerpunktmassig
herzmuskels
tragern
tragodie
benachrichtigung
kapazitats
testergebnisse
##ibilitat
entzundungshemmend
flexionsfraktur
flexible
erzgebirg
cholesterinsenker
biometrietauglichen
0176
padagogin
rissig
##branche
versehentlich
erscheinung
probephase
##arthritis
selbstandigkeit
gewissenhaft
##azinetzwerk
unternehmensfuhrung
drohenden
autoimmunerkrankungen
handwerksbetriebe
bedurfnis
gynakologie
gynakologische
kontinuierlichen
adenome
eingebunden
einheitlich
eintrittskarten
ausschusses
##romy
vorgeschlagen
entscharfung
wiederkehrende
engegefuhl
geschlechtergerechte
kollegin
minipillen
risikogruppen
langzeitfolgen
regierungsviertel
pflanzlichen
kompetente
kompetenzen
dopamins
taubheit
ballaststoff
pfeifferschen
gefluchtet
gefluchteten
fokuss
kaltes
osterburg
susanne
wettkampfe
eingliederung
aufeinanderfolgenden
stufenweise
stufenbett
desinfiziert
desinfizierenden
durchschnittlich
gehaprt
grenzkontrollen
beschleunigen
beschleunigung
zusammengekommen
zusammengearbeitet
justizministerin
passivrauchen
supermarkt
qualitatsstand
verfolgen
erkaltungsviren
fortschreitender
gewalttatig
volksstimm
volksfest
plaques
gymnastik
pathol
trum
trugen
##jugend
##studien
##arrho
erlangen
schmerztherapie
vorname
##ikosteroide
##gerauschen
##geraumt
weichkapseln
bundesministeriums
gemessene
gewunschte
baumw
personalausweisen
personalausweispflicht
sehbehindert
sehbehinderungen
olympi
olympischen
andauernde
berechnung
goldmedaille
instrumenten
achim
svenja
##vormerk
##eutrale
recherch
monitoringjahr
antihist
antiandrogen
sozialversicherungs
autonomie
akzeptiert
verstarkte
querdenker
tatverdachtigen
unterschriebenen
verzoger
kurbiswiegen
versammlungsfreiheit
vitamindmangel
bunte
kugeln
natri
reinigungspersonal
simvast
##abteilung
##messungen
unwetter
unwahrschein
angeregt
entsorgt
blutergusse
sprengung
mainz
mainzer
##okonjunkt
jubilaumsfest
prasentiert
befruchtet
karneval
qualifikation
qualifizierte
zuruckgezogen
saaleholz
ungleichgewicht
bevorzugen
mundnasenbedeckungen
pauschbetrag
buchereiausweis
veroffentlichen
ebike
handelsregisterauszug
ischiasschmerzen
unangenehmes
serotoninsyndrom
friday
##kirchen
##kirche
##wurzeln
geklagt
geklappt
schwester
nachbarschaft
uberrascht
##verfolgen
websites
oralb
dramatischen
handballvereine
rechtskraftige
attackiert
verscharfte
tageszeitungen
aggressiven
einburgerungskurs
slackfest
coronanotverordnung
aschenbrod
antidepressivum
gutem
gulichplatz
limit
laufzeit
skifahren
vagin
zertifik
##szintigrafie
##ukle
##farbstoff
##intensiven
##achterteilung
konflikt
konflikten
prozessen
deutzmesse
##stests
informationsraum
benutzte
##grune
##grunen
gleichberechtigte
pflegebedurftigen
pflegebedurftige
begrenzung
optimale
angespannten
feiertage
ordnungswidrigkeits
verteidiger
verteidigung
schneeberg
67jahrige
curcuma
libuse
mollusken
ovg
##rhose
ermordet
schrecke
schweissaus
sturzen
abersetzerin
genesungs
koordination
koordinierungsstelle
zeitnahen
flachwarzen
minimalinvasive
elastischen
ehepartnerin
schmerzlinderung
altmarkkreis
marcel
marcus
begrundeten
streifenwagen
verhaltensweisen
verhaltensanderungen
varizen
armutsrisiko
armutsgefahrdet
huftkopfes
amerikanische
insektenstiche
ungewollten
dorothea
esportsdaten
laien
nagels
pdfdat
thermometers
##molekule
##kunften
unspezifisch
unspezifischen
##gedanken
##gedachtnis
schmecken
stutzpunkt
##rezeptoren
herpessim
neujahrstag
##klassifikation
zeitgenossen
polizeibeamten
sekundare
sekundaren
##implantat
alkoholabhangige
wahlplakat
sexueller
theorie
fersenbeins
mikroskopisch
##braune
erlebniswelt
hospitalisierungsrate
flutlichtanlage
basedowschen
budapest
jagdunfall
lohnt
lohne
##lahmung
##erjahren
aufrechtzuerhalten
stolberger
wirbelkorpern
durchmesser
herkommliches
stechend
##demonstrationen
##okardiografie
belege
extrakte
neonazinetzwerk
quadrat
quaddeln
erntejagd
atopische
verkrampf
renoviert
heyen
kleidungsstucke
##wurdige
assistenzarzt
gewerkschaftsbund
servicetelefon
studentin
desinfizierende
erwerbsminderungsrente
redaktionsnetz
stellvertretender
stellvertretende
bezirksrat
schiedsrichterassistenten
exazerbation
dulig
gummi
modellen
thromben
unbehandelten
##attelgelenk
befestigen
befestigt
schambereich
mitarbeitenden
ubermassigen
behaupten
behauptet
allianz
besiedeln
zweifelsfall
reihenfolge
vollkornprodukte
landespolizeiprasident
1942
summe
summit
vereinbarten
intensivmedizinisch
komplexe
evangelische
gefassverkalkung
fernsehmagazin
erwerbstatigkeit
sensibilitat
virtuellen
virtuelle
pfeifendes
physiotherapeut
klimaneutralitat
ebvinfektion
zwecks
globalen
melderegisterauskunft
nuckelflasche
vernachlassigen
vernachlassigt
blutkonserven
gaumenmandeln
hunger
ignor
ignatz
joghurt
nsar
pstg
pstvo
potsd
potthoff
sabine
##breite
##iebslosigkeit
unangemeldete
initiativen
antriebslosigkeit
verunsicherung
nachbeurkundung
nachbeurkundet
abnorm
gesuchten
blutverdun
blutverdunnen
coronademos
wiedererteilung
stadtrat
angepasste
verlierst
akutem
akupunktur
verstorbenen
hauterkrankungen
schwangerschaftsdrittel
endokrin
endokrine
grossflachig
50933
phlebologie
geduldet
elektroautos
smartwatches
syrer
syrien
epidemischen
prioritat
leukotrienrezeptor
libidoveranderungen
kostenubernahmebescheinigung
konstituierenden
zusammenkommen
aromat
fibromy
gruppentherapie
hessisches
kranze
safrank
tendenziell
ukraine
##meinung
##kunstler
##zertifikate
##welpen
einladung
anfertigung
gedenktag
veronika
verdeutlichen
ernennung
schurfwunden
vorgeschoben
vorwolbung
nachhaltig
nachvollzieh
jahrhundert
blutfette
zeichnete
coronainfizierten
minimieren
formalitaten
##uberwachung
ausgeschaltet
premiere
verstimmungen
eingestauchten
hochdruckliga
hautreizungen
wechselwirkungscheck
sachkundeprufung
harnrohrenausgang
bewegungseinschrankung
erbrochenes
transparent
ziemlich
rechtsherzinsuffizienz
epilepsie
administrat
identitatsnachweis
kaisers
verfassungswidriger
gebrauchsinformationen
eindringlich
flexibles
reporterangaben
00050033
bewahrungsstrafen
granulozyten
slowenien
aneurysma
gleichgeschlechtlichen
faktisch
kategorie
kamille
kognitiven
nirgend
niesky
ropsen
wehtun
##kugeln
##zweck
anhorung
gepolsterte
vergess
erprobung
ausruhen
areale
keinesfalls
blutverluste
##asthma
bundesministerien
wegerle
fahreignungsregister
lebenswichtige
pladierte
angsterkrankungen
nebenschilddruse
schulbesuchspflicht
vollmachterteilung
hilferuf
ausgeatmeten
expressbestellung
##hyperopie
eingeweiht
eingeklemmt
##ungsstadium
treppensteigen
familienangehorigen
luxemburg
stattfindet
untersuchungsergebnissen
ulkuskrankheit
elektrolyt
evakuiert
erschweren
niederlandische
fundgegenstand
sauglinge
umgesturzte
schmidt
hypothalamus
einkaufs
explodiert
verkaufsverbot
taubheitsgefuhl
pflegefachkraft
glukokortikosteroide
daumensattelgelenk
leinefeldeworb
ausstulpungen
explosion
kernspintomografie
vorangegangenen
schauspielerin
akkomodation
borna
cyclooxy
communic
dziedo
ggf
hobb
jerichower
kassiert
klopf
lkabe
lichtenstein
muhlenfeld
nabu
nikotin
opfern
pulli
stents
skleros
tapir
##sgewolbe
##kamera
##budget
##pumpe
##wellentherapie
##chinon
##uropaischen
##gehege
schalke
stahlkugeln
vorrangig
##weiternde
spenderblut
ubermittelten
umsetzbar
progressive
blutfettwerte
coronaeinschrankungen
14nzen
angrenzenden
trampolin
nottrauung
antifasch
anthranoide
zusammengefasst
grundlegende
verhaftet
darmdivertikel
alterssicherung
ausgewahlt
burokratie
behandlungsplanung
prasugr
gleichbehandlungsgesetz
verwitwet
sondershausen
terminkontrakte
zahnzwischenraum
immunmodul
atmosphare
wahldurchgang
pechregel
tagesaktuellen
metastas
wertschatzung
marienberg
getrockneten
videoberatung
hydrochinon
zytok
halsnasenohren
niederlande
videosprechstunde
privatdozent
broteinheiten
mietwohnungen
multimed
modernisiert
beruhigungsmittel
krausedoring
saaleorlakreis
ablehnung
fursorgeleistungen
bulldogge
elastizitat
##qualifizierungsgesetz
fatigue
storbecker
nuckelflaschenkaries
konfrontationsu
hallesilberhohe
fitnessstudios
tyramin
minijobbasis
cumarine
intrinsische
##opankreatikografie
##lethysmografie
suizidrisiko
paulehrlichinstitut
funkemediengruppe
5jahresuberlebens
atrophie
aorta
aachener
achterbahn
cloud
cgrp
dusseld
deltavariante
dhabi
ebersbachneug
fichtelberg
hurth
huskens
irak
ivermect
japan
jacobs
kandiszucker
lhrhanaloga
memantine
moskau
nissenkamm
pleite
pellets
rachitis
ticagrel
urease
ubskm
wofur
wehlend
##club
##lappchen
##inleichter
gezwungen
erhofft
aluminium
auskennen
stassfurt
nichtkleinzell
wirbelsaulen
vorbeilassen
dementsprechend
##bewaltigung
unterversorgten
##abehandlung
herbsleben
besuchsverbot
alleinerziehen
hinnehmbar
teilnehmerz
teilstationare
frauenkirche
allermeisten
antidiabetika
grundrentenzuschlag
teeloffel
eigenmachtig
eigenanteils
##uberkulose
barrikade
hochgeschurtz
hochtouren
hochinzidenzgebieten
subarachnoidal
testpflichten
harpagosid
sportorthopadie
ortsumfahrung
immunglobul
atemphysiotherapie
zahlenunabhangige
chemotherapeutika
harninkontinenz
pearlindex
funktionskleidung
erfurtbindersleben
##emaintaunusde
##shilfemaintaunusde
bankfiliale
rettungsleitstelle
transformation
berufsfahrerqualifizierungsgesetz
olbernhau
friederikentherme
niedermolekular
##pezifische
fernwarmeleitung
rkiintensivregister
totungsdelikt
nsudokumentationszentrum
hypothyreose
##ophlebitis
ernstabbebucherei
hoyerswerda
aufenthaltsbestimmungsrecht
qualitatsstandard
volksstimme
antihistamin
simvastatin
unwahrscheinlich
##okonjunktivitis
pdfdatei
herpessimplex
redaktionsnetzwerk
0005003326
leinefeldeworbis
cyclooxygen
prasugrel
ebersbachneugersdorf
ticagrelor
040
1a
1kl
2mal
310
530
60000
730
8a
87
920
935
aa
ao
astr
agr
aip
aorten
apfel
by
b2
bat
bol
belle
ballen
bats
bord
back
bac
bohr
busst
bucken
backen
baer
b90
coll
cros
csu
ceg
citi
center
cea
dh
dag
dre
dran
dzi
dunst
dreis
dachte
doris
dehnt
dollar
ea
ed
emm
euch
euter
etage
edel
fi
fo
fel
ful
fist
futter
feig
fassungs
fassung
foc
fulle
fissur
fielen
fuchse
fullung
gt
gon
gig
glich
gass
guck
garm
gartner
garen
galten
gucken
hus
hom
hander
hic
hod
huber
hocker
hielten
hulsen
iran
iab
isst
iph
icl
jann
km
krei
kell
krau
kamm
kasse
kammen
kome
kant
kiss
korn
kreise
kreisen
kraut
kath
kanal
kemmer
kuhlung
lig
lass
liv
lose
lenk
lob
litten
lehn
leitung
lyn
loper
lappen
lidr
luchse
m0
mau
maus
muh
mak
mutzen
male
momen
mosa
mahnt
n0
nal
nau
neh
nof
nos
nark
nuss
nossen
nack
nichte
nazi
narbig
nils
nuchter
otz
ome
oma
oth
pd
plen
pik
poll
pad
putz
pill
punktion
pletz
pust
poster
pumpf
pokal
puffer
phosph
qr
rn
rk
ral
rast
ringen
rate
ringer
rade
rio
retin
rohre
rhythmus
rosa
rico
sur
sem
sass
sap
sark
satt
sbahn
sitze
skul
siko
semester
tl
tm
tollen
toren
tagt
tess
tatt
tim
teig
tipp
tia
tans
turm
tamp
tuberkulose
ut
uro
usd
uta
vi
vil
viv
vib
virale
vix
vbnummer
vaters
ww
wan
wog
wehen
witt
wfb
wickel
xx
zol
zungen
zet
zink
zins
ziche
ziffer
##s2
##sische
##sland
##sgeld
##sichten
##sive
##slander
##sbetr
##sieg
##sbeschwerden
##sverdacht
##szene
##swerten
##sverhalten
##can
##con
##cas
##cess
##carb
##cyc
##hle
##hlen
##hart
##hose
##harz
##hemen
##hbaren
##aff
##aison
##awmf
##ds
##dk
##dichte
##diskrimin
##iber
##iah
##imin
##gru
##gers
##gra
##got
##ging
##greg
##gionen
##galerie
##uzen
##uhe
##utern
##ubung
##uptur
##nd
##nel
##nte
##nden
##ners
##norm
##noten
##nachten
##nutzung
##nabel
##tn
##tan
##tier
##thal
##tlicher
##turm
##tasche
##tise
##ly
##lor
##loch
##lingen
##litz
##lare
##lstadt
##lucke
##ludwig
##lott
##ls2
##63
##622
##99
##oer
##oon
##osp
##osten
##otre
##oost
##ockt
##oons
##oembolie
##mr
##mter
##mol
##misch
##mache
##mob
##missen
##mkreis
##meid
##messer
##mole
##minderung
##muhle
##machung
##fs
##fal
##fig
##fum
##fachen
##fassen
##fing
##felt
##fruch
##feuer
##fischer
##fusion
##findung
##falte
##fsg
##falz
##familien
##familie
##fibrose
##rg
##ror
##ral
##rem
##rand
##rein
##rischen
##ress
##richter
##rhythmus
##rutschen
##ritorien
##kut
##kos
##kassen
##kischer
##kolle
##kiefer
##kins
##kunfte
##kleidet
##baus
##brech
##bock
##bip
##busse
##bbaren
##bfrakturen
##py
##phr
##pap
##parten
##preise
##pillen
##phabe
##pile
##pausen
##pistole
##pazier
##vel
##vit
##vall
##vok
##valen
##vide
##vue
##view
##vize
##za
##zwei
##zahn
##zesse
##zessen
##zure
##wa
##wser
##wache
##wurt
##wucher
##wetter
##welten
##wusste
##winkel
##ysen
##ykot
##ymerase
##57
##jo
##740
##1ant
##27
##xine
##xsz
##xodem
##46
##enig
##enem
##engende
##era
##erten
##erren
##erlaubnis
##erraum
##ermarke
##eruptur
##chel
##chnung
##chsyndrom
##charter
##ieu
##inz
##inis
##inien
##inha
##inow
##inuntersuchung
##insuffizienz
##infekten
##inhibitoren
##eide
##eischein
##eimpf
##stu
##stung
##stel
##sted
##stutzen
##state
##stabe
##stief
##steilen
##stift
##starken
##stoss
##stabchen
##stomografie
##stheater
##stradiol
##stxsz
##unhof
##unvertrag
##anw
##analen
##anim
##anbau
##antwort
##anschrift
##anwendung
##ania
##anschlage
##anagement
##onch
##onne
##online
##onogestrel
einw
einfl
eingef
einsetz
einschn
einlagen
eintrage
einschlag
eingabe
einfuhren
eingriffen
eingefangen
einraumen
einbauen
einweisung
einleiten
eindammen
eingesetzte
einplanen
einreissen
einchecken
##ichef
##ungelhmtkde
##schuh
##schreib
##schachtel
##elie
##elin
##elat
##elter
##elia
##eliegen
##elandtag
##ures
##urac
##urteilung
##urgert
##uretika
unber
unger
unum
ungef
unschad
unzahl
ungesund
unfahigkeit
untyp
unverbind
unzulass
ungenau
unchar
unruhig
##oro
##ory
##orin
##oribakterien
##asp
##ason
##assten
##ush
##uskeln
derweil
derartigen
derdie
##esc
##esent
##esfraktur
##esaison
##hrozyten
##atokonjunktivitis
##dert
##derte
##derwarm
insp
inneh
inspir
infekten
index
inakzept
##ita
##itin
##itas
##itog
##itript
##itschke
##alhmtkde
##alsekretar
##alipl
##arc
##arin
##arah
##arisch
##arften
##arina
##arungelhmtkde
##teer
##texper
##text
beck
beher
beucher
beende
becher
beurkunden
beweist
behalter
bewertung
bewohnen
behrens
undeut
##tende
##igo
##iglott
##emarie
##achungs
##achern
##achtem
##terten
##terhalten
##tersatz
##terkrankungen
audi
austre
annah
antragen
ankommen
antreten
anzug
anhang
antritt
anzunehmen
anzur
anlauft
anordnen
anreize
zutr
zufall
zulie
zufalls
zugenommen
zugrund
zuhoren
##gender
##genossen
##gest
##geschl
##gesteuer
##oli
##olten
##olum
##olische
##olic
geehr
gepf
gefur
gepl
george
gekop
gezucker
gefallt
gezundet
gedehnt
geahndet
verwe
verhe
verast
verweis
vernet
verwirk
verwend
verlegen
verrat
verteilung
verwiesen
verreisen
verarbeitung
verlegung
verurteilen
veroden
verklem
verwechseln
##annungen
##leck
##leuk
##sens
##sentz
erad
erwe
erbl
ertragen
erteilung
erteilte
erektion
ermachtigung
erlernt
erderwarm
beissen
beirat
beibehalten
schru
schell
schab
schuss
schrankt
schaum
schals
schaffe
schiefen
schimmern
schandert
schirm
schielen
schildern
##berichte
##beratungen
##trat
##trot
##trad
##trick
##trisik
##trats
##trio
##trufe
##traktiv
##truhe
##mmeln
##mmuskeln
mitgel
mitent
mitleben
mitarbeit
mithelfen
mitburgerinnen
##irrt
##irometrie
##utin
##utungen
##utum
##utscht
##utamat
dentin
##andard
##eine
##einheiten
##einstellungen
##einsteiger
alo
algen
##agase
##agonisten
##aggreg
aushalten
ausgeben
aussetzen
ausschliess
ausgefuhrt
auslaufen
ausheilung
aussteigen
ausuben
##ila
##iltr
##ildet
##isken
##isierenden
##isiere
imp
impress
aufl
auffl
aufstand
aufrech
aufgesch
auflage
auflosen
aufbruch
auflicht
aufrufen
aufraumen
aufstieg
aufgesp
aufzeichnung
aufhangen
aufzeichnungen
auffassung
aufschneiden
aufgewachsen
aufbaut
aufgeraumt
konzepte
##schenkeln
##amine
##ampfen
stag
stund
stak
stim
stutzt
stieg
stabchen
stars
stosse
stieger
##spauschale
##spotenzial
nichtoper
nichtinvasive
##eth
##eton
##ethr
##ktor
##ieller
##rote
##rode
##rogramm
##ahe
##ahung
##ftherapie
eskal
##ckers
ara
artz
##ehne
ihrerseits
##real
##regen
##rede
##rekt
##reche
##recken
##reste
##reform
##reflex
vorm
vortest
vorfalls
vorbild
vorbeh
vorhaut
vorerkrankung
vorhof
vorteilen
vorgeschichte
vorstufe
vorlesen
vorstellungs
vorboten
vorposten
vorzeitigen
vorurteile
##ikels
##ikabl
##ikaturen
##ikarungelhmtkde
hammer
haften
haaren
hadlich
##serie
##serfahr
##serfahrung
##serweckend
zumachen
desinfektionsmittel
demzu
soder
socken
##weig
##weichen
##weiser
menop
mening
menisken
##ruht
##eue
##euinfektionen
##zenz
##reif
##reiter
##reift
##reizen
werdende
##rane
##randern
nachlass
nachgehen
nacheinander
nachgelassen
nachsehen
nachblutungen
nachtraglich
##omische
##omere
##omial
##halitis
##halften
##beschaft
##bezug
##bestimmung
##bestands
##begeg
##ocher
##ochum
kannte
unterer
unterlage
untergewicht
unterziehen
unterteilen
unterversorgung
unterdessen
unterliegen
unterzeichnung
unterbringung
menschenle
##chtungen
spalt
spannt
spendet
spaltet
spucke
space
spirometrie
sputum
absch
abru
absetz
abzug
ablage
abgesetzt
abfalle
abschuss
abreise
abstra
abgelost
abmil
absichtlich
abstieg
abtrei
abzum
abgase
abfragen
ablaufe
abschaffung
abzusehen
abwechs
uberzeug
uberwalt
uberlassen
ubergabe
ubergange
uberstehen
uberzeugen
uberstei
ubersteigen
uberregion
uberdehnt
uberlebt
ubersenden
uberempfindlich
ubertreiben
uberschiessen
ubersendung
ubernachten
##ohnt
##ungsort
##ungszu
##ungsang
##ungsweise
##ungsmaterial
##ungszweck
##pfinden
##pfeifen
##leitern
##leister
##rafe
##radern
##raphen
##otten
##otisch
##otischen
##otschaft
##otypen
##stenose
##gelb
##gelande
##geldern
##geleisen
##olland
entgel
entwertet
entweicht
hatters
##ausbau
##ausende
##ausgangs
##auszuge
##auslosende
##auslosenden
mehrzahl
mehrstund
##ellungen
##gerust
##germain
##gereiz
##spieler
##mensch
##mentzundungen
##ulaf
##fecht
##festen
amg
amitript
##orteile
##ortison
rex
redet
realen
revas
reflex
rezo
reprasent
reanim
##ormedizin
##assigen
personellen
##igent
##igendes
##werde
einengen
##ischparten
##allig
##apark
##aprogramm
umsch
umwend
umsatze
##verhalt
##vertragen
##verteilung
##verkauf
##verlanger
##edruck
##osst
##osus
##osoph
##ump
##umtau
##umwelt
##umschau
durchgang
durchgemacht
durchlaufen
blum
blast
blister
blasse
blank
bergen
##perlach
weizen
weitraum
mani
manill
mansfeld
manuel
manschette
betrunken
betreffe
##zufahren
##zugehen
##zubringen
##zuhaben
##schlagt
##schlitten
##schloss
##schaftet
##hergang
##herstadt
##hersteller
##ivums
##raucher
##beispiel
##beispiele
##angitis
##angnisse
##angina
defekt
deaktiv
##aban
##abschrift
##abstrich
##ablagerungen
##abschnitten
##adig
##adren
##adbach
prokt
proof
promin
proje
propag
prostate
behilf
behutsam
gehorten
gehorte
aberschrift
##mert
bisse
gipfel
##istung
##istinnen
sollwert
sollwertes
##kennung
##kenrohrchen
##tzahl
herd
herbei
herman
##ernte
##ernden
##aufte
##aufwend
##aufgebot
##auflagen
##aufnahm
gelingen
gelinge
gelandet
gelinkten
jahrgang
jahrelang
##chefin
infost
infizieren
infiltr
leiche
leiblichen
##autor
##oprol
warf
warfen
warmer
warmin
warfar
nochmals
darb
darment
darmmuskeln
bestraft
bestmoglich
vieldeut
##weet
vietn
##001
##dronsaure
krankhaft
krankmachen
[...]
